{
  "version": "1.0",
  "truncation": null,
  "padding": null,
  "added_tokens": [
    {
      "id": 0,
      "content": "<|pad|>",
      "single_word": false,
      "lstrip": false,
      "rstrip": false,
      "normalized": false,
      "special": true
    },
    {
      "id": 1,
      "content": "<|eos|>",
      "single_word": false,
      "lstrip": false,
      "rstrip": false,
      "normalized": false,
      "special": true
    },
    {
      "id": 2,
      "content": "<|user|>",
      "single_word": false,
      "lstrip": false,
      "rstrip": false,
      "normalized": false,
      "special": true
    },
    {
      "id": 3,
      "content": "<|assistant|>",
      "single_word": false,
      "lstrip": false,
      "rstrip": false,
      "normalized": false,
      "special": true
    }
  ],
  "normalizer": {
    "type": "NFC"
  },
  "pre_tokenizer": {
    "type": "Sequence",
    "pretokenizers": [
      {
        "type": "Split",
        "pattern": {
          "String": "[^\\r\\n\\p{L}\\p{N}]?\\p{L}+'?|\\p{N}{1,3}| ?[^\\s\\p{L}\\p{N}]+[\\r\\n]*|\\s*[\\r\\n]+|\\s+(?!\\S)|\\s+"
        },
        "behavior": "Isolated",
        "invert": false
      },
      {
        "type": "ByteLevel",
        "add_prefix_space": false,
        "trim_offsets": true,
        "use_regex": false
      }
    ]
  },
  "post_processor": null,
  "decoder": {
    "type": "ByteLevel",
    "add_prefix_space": true,
    "trim_offsets": true,
    "use_regex": true
  },
  "model": {
    "type": "BPE",
    "dropout": null,
    "unk_token": null,
    "continuing_subword_prefix": null,
    "end_of_word_suffix": null,
    "fuse_unk": false,
    "byte_fallback": false,
    "ignore_merges": false,
    "vocab": {
      "<|pad|>": 0,
      "<|eos|>": 1,
      "<|user|>": 2,
      "<|assistant|>": 3,
      "!": 4,
      "\"": 5,
      "#": 6,
      "$": 7,
      "%": 8,
      "&": 9,
      "'": 10,
      "(": 11,
      ")": 12,
      "*": 13,
      "+": 14,
      ",": 15,
      "-": 16,
      ".": 17,
      "/": 18,
      "0": 19,
      "1": 20,
      "2": 21,
      "3": 22,
      "4": 23,
      "5": 24,
      "6": 25,
      "7": 26,
      "8": 27,
      "9": 28,
      ":": 29,
      ";": 30,
      "<": 31,
      "=": 32,
      ">": 33,
      "?": 34,
      "@": 35,
      "A": 36,
      "B": 37,
      "C": 38,
      "D": 39,
      "E": 40,
      "F": 41,
      "G": 42,
      "H": 43,
      "I": 44,
      "J": 45,
      "K": 46,
      "L": 47,
      "M": 48,
      "N": 49,
      "O": 50,
      "P": 51,
      "Q": 52,
      "R": 53,
      "S": 54,
      "T": 55,
      "U": 56,
      "V": 57,
      "W": 58,
      "X": 59,
      "Y": 60,
      "Z": 61,
      "[": 62,
      "]": 63,
      "^": 64,
      "_": 65,
      "`": 66,
      "a": 67,
      "b": 68,
      "c": 69,
      "d": 70,
      "e": 71,
      "f": 72,
      "g": 73,
      "h": 74,
      "i": 75,
      "j": 76,
      "k": 77,
      "l": 78,
      "m": 79,
      "n": 80,
      "o": 81,
      "p": 82,
      "q": 83,
      "r": 84,
      "s": 85,
      "t": 86,
      "u": 87,
      "v": 88,
      "w": 89,
      "x": 90,
      "y": 91,
      "z": 92,
      "{": 93,
      "|": 94,
      "}": 95,
      "~": 96,
      "¡": 97,
      "¢": 98,
      "£": 99,
      "¤": 100,
      "¥": 101,
      "¦": 102,
      "§": 103,
      "¨": 104,
      "©": 105,
      "ª": 106,
      "«": 107,
      "¬": 108,
      "®": 109,
      "¯": 110,
      "°": 111,
      "±": 112,
      "²": 113,
      "³": 114,
      "´": 115,
      "µ": 116,
      "¶": 117,
      "·": 118,
      "¸": 119,
      "¹": 120,
      "º": 121,
      "»": 122,
      "¼": 123,
      "½": 124,
      "¾": 125,
      "¿": 126,
      "Â": 127,
      "Ã": 128,
      "Ä": 129,
      "Å": 130,
      "Æ": 131,
      "Ç": 132,
      "É": 133,
      "Ê": 134,
      "Ì": 135,
      "Í": 136,
      "Î": 137,
      "Ï": 138,
      "Ð": 139,
      "Ñ": 140,
      "á": 141,
      "â": 142,
      "ï": 143,
      "Ċ": 144,
      "Ġ": 145,
      "Ģ": 146,
      "ģ": 147,
      "Ĥ": 148,
      "ĥ": 149,
      "Ħ": 150,
      "ħ": 151,
      "Ĩ": 152,
      "ĩ": 153,
      "Ī": 154,
      "ī": 155,
      "Ĭ": 156,
      "ĭ": 157,
      "Į": 158,
      "į": 159,
      "İ": 160,
      "ı": 161,
      "Ĳ": 162,
      "ĳ": 163,
      "Ĵ": 164,
      "ĵ": 165,
      "Ķ": 166,
      "ķ": 167,
      "ĸ": 168,
      "Ĺ": 169,
      "ĺ": 170,
      "Ļ": 171,
      "ļ": 172,
      "Ľ": 173,
      "ľ": 174,
      "Ŀ": 175,
      "ŀ": 176,
      "Ł": 177,
      "ł": 178,
      "Ń": 179,
      "eĠ": 180,
      "sĠ": 181,
      "Ã©": 182,
      "tĠ": 183,
      ",Ġ": 184,
      "en": 185,
      "on": 186,
      "esĠ": 187,
      ".Ġ": 188,
      "deĠ": 189,
      "an": 190,
      "ou": 191,
      "rĠ": 192,
      "ai": 193,
      "qu": 194,
      "aĠ": 195,
      "ti": 196,
      "es": 197,
      "leĠ": 198,
      "er": 199,
      "eu": 200,
      "in": 201,
      "tr": 202,
      "au": 203,
      "ar": 204,
      "laĠ": 205,
      "onĠ": 206,
      "etĠ": 207,
      "em": 208,
      "lesĠ": 209,
      "or": 210,
      "un": 211,
      "Ãł": 212,
      "âĢ": 213,
      "pr": 214,
      "is": 215,
      "entĠ": 216,
      "ÃłĠ": 217,
      "il": 218,
      "e,Ġ": 219,
      "iĠ": 220,
      "el": 221,
      ".ĠĊ": 222,
      "ch": 223,
      "Ã¨": 224,
      "al": 225,
      "om": 226,
      "reĠ": 227,
      "pa": 228,
      "du": 229,
      "ĠĊ": 230,
      "desĠ": 231,
      "l'": 232,
      "Ã©Ġ": 233,
      "it": 234,
      "erĠ": 235,
      "enĠ": 236,
      "queĠ": 237,
      "oi": 238,
      "su": 239,
      "teĠ": 240,
      "ati": 241,
      "con": 242,
      "av": 243,
      "duĠ": 244,
      "pl": 245,
      "d'": 246,
      "si": 247,
      "Ã©r": 248,
      "di": 249,
      "âĢĻ": 250,
      "ent": 251,
      "ceĠ": 252,
      "xĠ": 253,
      "re": 254,
      "ansĠ": 255,
      "dÃ©": 256,
      "li": 257,
      "âĢĶ": 258,
      "antĠ": 259,
      "aitĠ": 260,
      "unĠ": 261,
      "neĠ": 262,
      "meĠ": 263,
      "seĠ": 264,
      "rÃ©": 265,
      "et": 266,
      "ac": 267,
      "at": 268,
      "estĠ": 269,
      "uneĠ": 270,
      "treĠ": 271,
      "âĢĶĠ": 272,
      "Ã©t": 273,
      "s,Ġ": 274,
      "pou": 275,
      "Ãª": 276,
      "com": 277,
      "ilĠ": 278,
      ";Ġ": 279,
      "par": 280,
      "ementĠ": 281,
      "deĠlaĠ": 282,
      "auĠ": 283,
      "ci": 284,
      "onsĠ": 285,
      "ri": 286,
      "ag": 287,
      "ss": 288,
      "dansĠ": 289,
      "parĠ": 290,
      "es,Ġ": 291,
      "ol": 292,
      "ab": 293,
      "am": 294,
      "ontĠ": 295,
      "ec": 296,
      "e.Ġ": 297,
      "eur": 298,
      "ousĠ": 299,
      "ap": 300,
      "quiĠ": 301,
      "our": 302,
      "po": 303,
      "0Ġ": 304,
      "ex": 305,
      "eurĠ": 306,
      "ain": 307,
      "pourĠ": 308,
      "ationĠ": 309,
      "Ġ1": 310,
      "gr": 311,
      "vi": 312,
      "ant": 313,
      "pro": 314,
      "cu": 315,
      "tionĠ": 316,
      "ff": 317,
      "usĠ": 318,
      "Ã©eĠ": 319,
      "onn": 320,
      ":Ġ": 321,
      "ouv": 322,
      "qu'": 323,
      "dĠ": 324,
      "..": 325,
      "sĠdeĠ": 326,
      "tou": 327,
      ")Ġ": 328,
      "auxĠ": 329,
      "im": 330,
      "tu": 331,
      "surĠ": 332,
      "elleĠ": 333,
      "resĠ": 334,
      ".ĠâĢĶĠ": 335,
      "euxĠ": 336,
      "ouĠ": 337,
      "pu": 338,
      "aisĠ": 339,
      ".ĠL": 340,
      "lu": 341,
      "mo": 342,
      "Ã©sĠ": 343,
      "end": 344,
      "plusĠ": 345,
      "lĠ": 346,
      "ser": 347,
      "fi": 348,
      "lâĢĻ": 349,
      "19": 350,
      "prÃ©": 351,
      "Â«": 352,
      "as": 353,
      "Ã©n": 354,
      "ro": 355,
      "gn": 356,
      "deĠl'": 357,
      "por": 358,
      "cesĠ": 359,
      "pasĠ": 360,
      "Â»": 361,
      "de": 362,
      "ter": 363,
      "gu": 364,
      "Ã¨sĠ": 365,
      "sonĠ": 366,
      "nĠ": 367,
      "EĠ": 368,
      "1Ġ": 369,
      "ill": 370,
      "for": 371,
      "aireĠ": 372,
      "Ã©ri": 373,
      "2Ġ": 374,
      "isĠ": 375,
      "ess": 376,
      "tesĠ": 377,
      "ran": 378,
      "sesĠ": 379,
      "ecĠ": 380,
      "peu": 381,
      "yĠ": 382,
      "Â«Ġ": 383,
      "dâĢĻ": 384,
      "st": 385,
      "eursĠ": 386,
      "ement": 387,
      "ÃłĠlaĠ": 388,
      "e.ĠĊ": 389,
      "etteĠ": 390,
      "ĠdeĠ": 391,
      "Ã¨reĠ": 392,
      "ieĠ": 393,
      "ca": 394,
      "avecĠ": 395,
      "sontĠ": 396,
      "s'": 397,
      "5Ġ": 398,
      "SĠ": 399,
      "ob": 400,
      "ver": 401,
      "per": 402,
      "re,Ġ": 403,
      "itÃ©Ġ": 404,
      "18": 405,
      "us": 406,
      "n'": 407,
      "t,Ġ": 408,
      "op": 409,
      "cor": 410,
      "bi": 411,
      "ten": 412,
      "Ã©esĠ": 413,
      "Ã´": 414,
      "lo": 415,
      ".ĠC": 416,
      "3Ġ": 417,
      "no": 418,
      "ad": 419,
      "oitĠ": 420,
      "alĠ": 421,
      "dis": 422,
      "oisĠ": 423,
      "mÃª": 424,
      "ll": 425,
      "res": 426,
      "ell": 427,
      "on,Ġ": 428,
      "min": 429,
      "--": 430,
      "ez": 431,
      "Ã§": 432,
      "4Ġ": 433,
      "aientĠ": 434,
      "se": 435,
      "cl": 436,
      "bl": 437,
      "and": 438,
      "Â°": 439,
      "oÃ": 440,
      "nousĠ": 441,
      "comm": 442,
      "pi": 443,
      "oirĠ": 444,
      "mesĠ": 445,
      "siĠ": 446,
      "ass": 447,
      "IlĠ": 448,
      "Ã©g": 449,
      "Ã¢": 450,
      "oĠ": 451,
      "quesĠ": 452,
      "Ãī": 453,
      "ang": 454,
      "uĠ": 455,
      "6Ġ": 456,
      "s.Ġ": 457,
      "inĠ": 458,
      "p.Ġ": 459,
      "t-": 460,
      "Ã©l": 461,
      "II": 462,
      "ÃªtreĠ": 463,
      "ic": 464,
      "vo": 465,
      "iss": 466,
      "cetteĠ": 467,
      "elĠ": 468,
      "ph": 469,
      "br": 470,
      "um": 471,
      "cr": 472,
      "port": 473,
      "itĠ": 474,
      "ageĠ": 475,
      "LeĠ": 476,
      "mar": 477,
      "parti": 478,
      "saĠ": 479,
      "),Ġ": 480,
      "ev": 481,
      "Ã©,Ġ": 482,
      "leurĠ": 483,
      "tionsĠ": 484,
      "fr": 485,
      "ur": 486,
      "ÃłĠl'": 487,
      "Ã®": 488,
      "ven": 489,
      "7Ġ": 490,
      "ationsĠ": 491,
      "ais": 492,
      "Ã©m": 493,
      "ezĠ": 494,
      "toutĠ": 495,
      "iv": 496,
      "commeĠ": 497,
      "Ã©tÃ©Ġ": 498,
      "cou": 499,
      "oc": 500,
      "mÃªmeĠ": 501,
      ".,Ġ": 502,
      "th": 503,
      "8Ġ": 504,
      "pos": 505,
      "int": 506,
      "tresĠ": 507,
      "jour": 508,
      ".ĠA": 509,
      "gi": 510,
      "Ch": 511,
      "eĠdeĠ": 512,
      "tri": 513,
      "mon": 514,
      "er,Ġ": 515,
      "+Ġ": 516,
      "Â»Ġ": 517,
      "tÃ©Ġ": 518,
      "gÃ©n": 519,
      "co": 520,
      "10": 521,
      "anceĠ": 522,
      "ni": 523,
      "ilsĠ": 524,
      "ce": 525,
      "emp": 526,
      "Â°Ġ": 527,
      "LaĠ": 528,
      "ellesĠ": 529,
      "cour": 530,
      "maisĠ": 531,
      "cons": 532,
      "9Ġ": 533,
      "emb": 534,
      "deuxĠ": 535,
      "ist": 536,
      "ersĠ": 537,
      "ju": 538,
      "jeĠ": 539,
      "nom": 540,
      "aut": 541,
      "cĠ": 542,
      "es.Ġ": 543,
      "sionĠ": 544,
      "dr": 545,
      "ir": 546,
      "etĠdeĠ": 547,
      "enceĠ": 548,
      "sou": 549,
      "ta": 550,
      "LesĠ": 551,
      "ON": 552,
      "cul": 553,
      "iteĠ": 554,
      "ord": 555,
      "abl": 556,
      "fĠ": 557,
      "enn": 558,
      "mÃ©": 559,
      "all": 560,
      "Ã©taitĠ": 561,
      "qu'ilĠ": 562,
      "sur": 563,
      "pe": 564,
      "vousĠ": 565,
      "enti": 566,
      "AĠ": 567,
      "prÃ¨sĠ": 568,
      "cer": 569,
      "ueĠ": 570,
      "fon": 571,
      "car": 572,
      "aiss": 573,
      "ul": 574,
      "luiĠ": 575,
      "sansĠ": 576,
      "gÃ©nÃ©r": 577,
      "17": 578,
      "ESĠ": 579,
      "e-": 580,
      "00": 581,
      "tsĠ": 582,
      "que,Ġ": 583,
      "d'unĠ": 584,
      "15": 585,
      "ineĠ": 586,
      "is,Ġ": 587,
      "d'uneĠ": 588,
      ").ĠĊ": 589,
      "oÃ¹": 590,
      "quel": 591,
      "ay": 592,
      "bienĠ": 593,
      "ation": 594,
      "faitĠ": 595,
      "dontĠ": 596,
      "aleĠ": 597,
      "aiĠ": 598,
      "tin": 599,
      "andĠ": 600,
      "emi": 601,
      "ren": 602,
      "cheĠ": 603,
      "veĠ": 604,
      "insĠ": 605,
      "col": 606,
      "Ã©v": 607,
      "eauĠ": 608,
      "aill": 609,
      ".ĠD": 610,
      "avaitĠ": 611,
      "tĠdeĠ": 612,
      "oÃ¹Ġ": 613,
      "aÃ®": 614,
      "ard": 615,
      "euĠ": 616,
      "eau": 617,
      "os": 618,
      ".ĠP": 619,
      "dansĠlaĠ": 620,
      "prÃ©s": 621,
      "ourĠ": 622,
      "bu": 623,
      "dansĠlesĠ": 624,
      "ER": 625,
      "x,Ġ": 626,
      "t.Ġ": 627,
      "s.ĠĊ": 628,
      "'estĠ": 629,
      "geĠ": 630,
      "man": 631,
      "es.ĠĊ": 632,
      "sol": 633,
      "anc": 634,
      "mi": 635,
      "empl": 636,
      "eff": 637,
      "peutĠ": 638,
      "isi": 639,
      ".ĠE": 640,
      "airesĠ": 641,
      "dansĠleĠ": 642,
      "cri": 643,
      "TI": 644,
      "12": 645,
      "Ġ(": 646,
      "rec": 647,
      "ann": 648,
      "dem": 649,
      "donn": 650,
      "dev": 651,
      "fai": 652,
      "entsĠ": 653,
      "16": 654,
      "fu": 655,
      "gl": 656,
      "entr": 657,
      "omm": 658,
      "AN": 659,
      ".ĠS": 660,
      "ent,Ġ": 661,
      "....": 662,
      "ens": 663,
      "illeĠ": 664,
      "irĠ": 665,
      "EN": 666,
      ",Ġp.Ġ": 667,
      "temp": 668,
      "des": 669,
      "form": 670,
      "----": 671,
      "quâĢĻ": 672,
      "so": 673,
      "ori": 674,
      ".ĠM": 675,
      "trÃ¨sĠ": 676,
      "bli": 677,
      "ableĠ": 678,
      "OnĠ": 679,
      "Ã¨r": 680,
      "entreĠ": 681,
      "Ã©d": 682,
      "contr": 683,
      "oy": 684,
      "titu": 685,
      "ong": 686,
      "lt": 687,
      "pend": 688,
      "AR": 689,
      "faireĠ": 690,
      "seu": 691,
      "ensĠ": 692,
      "dou": 693,
      "rap": 694,
      "pour": 695,
      "13": 696,
      "L'": 697,
      "leursĠ": 698,
      "et,Ġ": 699,
      "arti": 700,
      "mal": 701,
      "14": 702,
      "te": 703,
      "auss": 704,
      "trouv": 705,
      "reĠdeĠ": 706,
      "esĠdeĠ": 707,
      "Ar": 708,
      "premi": 709,
      "serv": 710,
      ".ĠLeĠ": 711,
      "fin": 712,
      "pon": 713,
      "der": 714,
      "!Ġ": 715,
      "jus": 716,
      "qui": 717,
      "iseĠ": 718,
      "conn": 719,
      "ins": 720,
      "Qu": 721,
      "pres": 722,
      "An": 723,
      "rel": 724,
      "aprÃ¨sĠ": 725,
      "trav": 726,
      "ari": 727,
      "teĠdeĠ": 728,
      "don": 729,
      "mentĠ": 730,
      "'Ġ": 731,
      "20": 732,
      "arg": 733,
      "tousĠ": 734,
      "a,Ġ": 735,
      "queĠleĠ": 736,
      "anĠ": 737,
      "lor": 738,
      "Fran": 739,
      "fau": 740,
      "tran": 741,
      "TĠ": 742,
      "pt": 743,
      "Ã¨resĠ": 744,
      "pri": 745,
      "?Ġ": 746,
      "encor": 747,
      "atĠ": 748,
      "ign": 749,
      "fran": 750,
      "ot": 751,
      "sousĠ": 752,
      "itu": 753,
      "etĠlesĠ": 754,
      "posi": 755,
      "IN": 756,
      "ouver": 757,
      "antsĠ": 758,
      "inter": 759,
      "aur": 760,
      "pÃ©": 761,
      "ditĠ": 762,
      "ach": 763,
      "cel": 764,
      "ili": 765,
      "queĠlesĠ": 766,
      "bleĠ": 767,
      "ement,Ġ": 768,
      "ementsĠ": 769,
      "ainĠ": 770,
      "Par": 771,
      "vol": 772,
      "tion": 773,
      "*Ġ": 774,
      "indi": 775,
      "pÃ©ri": 776,
      "DEĠ": 777,
      "peĠ": 778,
      "queĠlaĠ": 779,
      "andeĠ": 780,
      "fer": 781,
      "produ": 782,
      ".ĠLesĠ": 783,
      "iqu": 784,
      "suiv": 785,
      "arr": 786,
      "parĠleĠ": 787,
      "Ã»": 788,
      "aff": 789,
      "nÃ©": 790,
      "pass": 791,
      "versĠ": 792,
      "plu": 793,
      "ant,Ġ": 794,
      "soitĠ": 795,
      "...Ġ": 796,
      "lleĠ": 797,
      "ici": 798,
      ":ĠĊ": 799,
      "fl": 800,
      "rou": 801,
      "peti": 802,
      "Con": 803,
      "endreĠ": 804,
      "off": 805,
      "te,Ġ": 806,
      "bou": 807,
      ").Ġ": 808,
      "erĠlesĠ": 809,
      "Åĵ": 810,
      "eus": 811,
      "puisĠ": 812,
      "poin": 813,
      "etĠlaĠ": 814,
      "ctionĠ": 815,
      "avoirĠ": 816,
      "asĠ": 817,
      ".ĠLaĠ": 818,
      "autreĠ": 819,
      "etĠleĠ": 820,
      "tementĠ": 821,
      "aceĠ": 822,
      "JeĠ": 823,
      "hi": 824,
      "pers": 825,
      "aussiĠ": 826,
      "tru": 827,
      "In": 828,
      "diff": 829,
      "CH": 830,
      "foisĠ": 831,
      "mor": 832,
      "enc": 833,
      "sid": 834,
      "atu": 835,
      "ES": 836,
      "dÃ©c": 837,
      "surĠleĠ": 838,
      "sy": 839,
      "moinsĠ": 840,
      "ventĠ": 841,
      "cal": 842,
      "anteĠ": 843,
      "tantĠ": 844,
      "joursĠ": 845,
      "surĠlaĠ": 846,
      "publi": 847,
      "hom": 848,
      "Ã©ĠdeĠ": 849,
      "encoreĠ": 850,
      "autresĠ": 851,
      "lig": 852,
      "eur,Ġ": 853,
      "cert": 854,
      "erĠlaĠ": 855,
      "voi": 856,
      "Ã©e,Ġ": 857,
      "11": 858,
      "tiv": 859,
      "enf": 860,
      "s-": 861,
      "pay": 862,
      "air": 863,
      "hy": 864,
      "25": 865,
      "coup": 866,
      "00Ġ": 867,
      "pendantĠ": 868,
      "ru": 869,
      "met": 870,
      "UR": 871,
      "sign": 872,
      "breĠ": 873,
      "aineĠ": 874,
      "anti": 875,
      "peuĠ": 876,
      "Sain": 877,
      "parĠlaĠ": 878,
      "sor": 879,
      "(1": 880,
      "oiĠ": 881,
      "heur": 882,
      "erĠleĠ": 883,
      "queĠl'": 884,
      "dro": 885,
      "surĠlesĠ": 886,
      "oireĠ": 887,
      "nouv": 888,
      "23": 889,
      "âĸ": 890,
      "itsĠ": 891,
      "sâĢĻ": 892,
      "arm": 893,
      "Ã¨meĠ": 894,
      "AL": 895,
      "mai": 896,
      "ainsiĠ": 897,
      "parĠlesĠ": 898,
      "âĢ¢": 899,
      "ois": 900,
      ".ĠIlĠ": 901,
      "sÃ©": 902,
      "âĸł": 903,
      "app": 904,
      "ig": 905,
      "eux": 906,
      "val": 907,
      "trai": 908,
      "cess": 909,
      "inf": 910,
      "24": 911,
      "TR": 912,
      "Ġ19": 913,
      "M.Ġ": 914,
      "ber": 915,
      "Mar": 916,
      "fac": 917,
      "prÃ©sent": 918,
      "compl": 919,
      "c'estĠ": 920,
      "rai": 921,
      "main": 922,
      "trans": 923,
      "uiĠ": 924,
      "IĠ": 925,
      ".Ġ(": 926,
      "nonĠ": 927,
      "toutesĠ": 928,
      "gar": 929,
      "amp": 930,
      "vou": 931,
      "etĠdesĠ": 932,
      "prin": 933,
      "cleĠ": 934,
      "contreĠ": 935,
      "&lt": 936,
      "190": 937,
      "rem": 938,
      "Ã©ch": 939,
      "me,Ġ": 940,
      "0.": 941,
      "enteĠ": 942,
      "Ã¯": 943,
      "**": 944,
      "arri": 945,
      "Ã©s,Ġ": 946,
      "do": 947,
      "la": 948,
      "tionn": 949,
      "touteĠ": 950,
      "ect": 951,
      "27": 952,
      "pouv": 953,
      "istr": 954,
      "aj": 955,
      "28": 956,
      "nâĢĻ": 957,
      "onneĠ": 958,
      ".)Ġ": 959,
      "eill": 960,
      "mil": 961,
      "futĠ": 962,
      "dansĠl'": 963,
      "crÃ©": 964,
      "\"Ġ": 965,
      "26": 966,
      "erĠÃłĠ": 967,
      "doitĠ": 968,
      "embl": 969,
      "EnĠ": 970,
      "org": 971,
      "le": 972,
      "iqueĠ": 973,
      "n'estĠ": 974,
      "act": 975,
      "adi": 976,
      "Di": 977,
      "bat": 978,
      "erĠdeĠ": 979,
      "vis": 980,
      "tempsĠ": 981,
      "cher": 982,
      "pagn": 983,
      "moy": 984,
      "yĠaĠ": 985,
      "0,": 986,
      "IS": 987,
      "id": 988,
      "ation,Ġ": 989,
      "nu": 990,
      "voy": 991,
      "29": 992,
      "cau": 993,
      "aire,Ġ": 994,
      "AU": 995,
      "derni": 996,
      "tousĠlesĠ": 997,
      "i,Ġ": 998,
      "oir": 999,
      "aqueĠ": 1000,
      "deĠlâĢĻ": 1001,
      "anci": 1002,
      "ques": 1003,
      "it,Ġ": 1004,
      "omb": 1005,
      "servi": 1006,
      "uti": 1007,
      "appar": 1008,
      "agesĠ": 1009,
      "essi": 1010,
      "ing": 1011,
      ".ĠT": 1012,
      "tre,Ġ": 1013,
      "fautĠ": 1014,
      "ourn": 1015,
      "10Ġ": 1016,
      "orsĠ": 1017,
      "lÃ©g": 1018,
      "33": 1019,
      "raĠ": 1020,
      "e;Ġ": 1021,
      "Ã©tr": 1022,
      "liv": 1023,
      "est": 1024,
      "20Ġ": 1025,
      "ont": 1026,
      "nosĠ": 1027,
      "ali": 1028,
      "alementĠ": 1029,
      "seraĠ": 1030,
      "Ã©cu": 1031,
      "euseĠ": 1032,
      "siÃ¨": 1033,
      "Su": 1034,
      "ment": 1035,
      "troisĠ": 1036,
      "notreĠ": 1037,
      "Au": 1038,
      "intÃ©r": 1039,
      "ceĠquiĠ": 1040,
      "cit": 1041,
      "alesĠ": 1042,
      ",ĠleĠ": 1043,
      "esseĠ": 1044,
      "hab": 1045,
      "atta": 1046,
      "pourĠlesĠ": 1047,
      ")ĠĊ": 1048,
      "tiqueĠ": 1049,
      "chezĠ": 1050,
      "NousĠ": 1051,
      "eux,Ġ": 1052,
      "dreĠ": 1053,
      "oÃ»": 1054,
      "trop": 1055,
      "Al": 1056,
      "OR": 1057,
      "olo": 1058,
      "rÃ©gi": 1059,
      "aĠÃ©tÃ©Ġ": 1060,
      "comp": 1061,
      "Ã©p": 1062,
      "illesĠ": 1063,
      "0ĠĊ": 1064,
      "eureĠ": 1065,
      "oup": 1066,
      ".ĠB": 1067,
      "Ã¨re,Ġ": 1068,
      "ce,Ġ": 1069,
      "quelquesĠ": 1070,
      "2,Ġ": 1071,
      "ilĠestĠ": 1072,
      "e.ĠâĢĶĠ": 1073,
      "esĠetĠ": 1074,
      "Ã©ĠÃłĠ": 1075,
      "gÃ©nÃ©ralĠ": 1076,
      "prim": 1077,
      "seul": 1078,
      "TION": 1079,
      "tureĠ": 1080,
      "embreĠ": 1081,
      "doncĠ": 1082,
      "e.ĠC": 1083,
      "al,Ġ": 1084,
      "souv": 1085,
      "sub": 1086,
      "re.ĠĊ": 1087,
      "avantĠ": 1088,
      "--------": 1089,
      "UnĠ": 1090,
      "tionĠdeĠ": 1091,
      "princi": 1092,
      "in,Ġ": 1093,
      "cationĠ": 1094,
      "ciĠ": 1095,
      "mati": 1096,
      "sal": 1097,
      "cÃ´": 1098,
      "monĠ": 1099,
      "&lt;": 1100,
      "1,Ġ": 1101,
      "ardĠ": 1102,
      "pris": 1103,
      "itÃ©sĠ": 1104,
      "Â»ĠĊ": 1105,
      "droitĠ": 1106,
      "celleĠ": 1107,
      "sim": 1108,
      "QU": 1109,
      "j'": 1110,
      "auc": 1111,
      ".ĠI": 1112,
      "OU": 1113,
      "ainsĠ": 1114,
      "ier": 1115,
      "189": 1116,
      "che": 1117,
      "etsĠ": 1118,
      "Saint-": 1119,
      "pourĠlaĠ": 1120,
      "sec": 1121,
      "toujoursĠ": 1122,
      "1ĠĊ": 1123,
      "Ã´tĠ": 1124,
      "auv": 1125,
      "can": 1126,
      "formeĠ": 1127,
      "Åĵu": 1128,
      "alis": 1129,
      "prÃ©c": 1130,
      "enneĠ": 1131,
      "35": 1132,
      "itÃ©": 1133,
      "cro": 1134,
      "franÃ§": 1135,
      "DansĠ": 1136,
      "terĠ": 1137,
      "possi": 1138,
      "vers": 1139,
      "personn": 1140,
      "Ġ1Ġ": 1141,
      "fsĠ": 1142,
      "casĠ": 1143,
      "parĠl'": 1144,
      "entĠdeĠ": 1145,
      "long": 1146,
      "az": 1147,
      "qu'onĠ": 1148,
      "const": 1149,
      "Je": 1150,
      "cep": 1151,
      "ablesĠ": 1152,
      "niĠ": 1153,
      ";ĠĊ": 1154,
      "umĠ": 1155,
      "atsĠ": 1156,
      "e,ĠetĠ": 1157,
      "cetĠ": 1158,
      "En": 1159,
      "direc": 1160,
      "en,Ġ": 1161,
      "visi": 1162,
      "uni": 1163,
      "ail": 1164,
      "Com": 1165,
      "jusqu'": 1166,
      "cap": 1167,
      "eauxĠ": 1168,
      "hu": 1169,
      "nÃ©cess": 1170,
      "mes": 1171,
      "gt": 1172,
      ".ĠR": 1173,
      "tion,Ġ": 1174,
      "pren": 1175,
      "ordĠ": 1176,
      "direĠ": 1177,
      "ancesĠ": 1178,
      "1.": 1179,
      "000Ġ": 1180,
      "march": 1181,
      "rÃ©su": 1182,
      ":ĠÂ«Ġ": 1183,
      "corp": 1184,
      "Ã©es,Ġ": 1185,
      "EĠĊ": 1186,
      "mis": 1187,
      "jeu": 1188,
      "appl": 1189,
      "Ã©tu": 1190,
      "cho": 1191,
      "34": 1192,
      "mÃ¨": 1193,
      "i-": 1194,
      "pen": 1195,
      "sup": 1196,
      "III": 1197,
      "oci": 1198,
      "doĠ": 1199,
      "ÃªteĠ": 1200,
      "amb": 1201,
      "plac": 1202,
      "mĠ": 1203,
      "guer": 1204,
      "30": 1205,
      "organ": 1206,
      "ress": 1207,
      ",ĠetĠ": 1208,
      "expl": 1209,
      "oli": 1210,
      "EM": 1211,
      "fem": 1212,
      "36": 1213,
      "pul": 1214,
      "soci": 1215,
      "ationĠdeĠ": 1216,
      "men": 1217,
      "seign": 1218,
      "grandĠ": 1219,
      "Ã©taientĠ": 1220,
      "Ã¨v": 1221,
      "Ã©qu": 1222,
      "constitu": 1223,
      "ret": 1224,
      "38": 1225,
      "partieĠ": 1226,
      "opÃ©r": 1227,
      "suc": 1228,
      "gneĠ": 1229,
      ".ĠV": 1230,
      "ministr": 1231,
      "to": 1232,
      "cat": 1233,
      "&gt": 1234,
      "37": 1235,
      "eurs,Ġ": 1236,
      "IL": 1237,
      "commun": 1238,
      "chesĠ": 1239,
      "import": 1240,
      "mÃ©di": 1241,
      "ationĠdesĠ": 1242,
      "loiĠ": 1243,
      "deĠM": 1244,
      "ÃłĠlâĢĻ": 1245,
      "spÃ©": 1246,
      "grandeĠ": 1247,
      "y,Ġ": 1248,
      "actionĠ": 1249,
      "pointĠ": 1250,
      "gĠ": 1251,
      "command": 1252,
      "ellementĠ": 1253,
      "cin": 1254,
      "rÃ¨": 1255,
      "pourĠleĠ": 1256,
      "âĢĶĠĊ": 1257,
      "chaqueĠ": 1258,
      "ein": 1259,
      "lis": 1260,
      "nesĠ": 1261,
      "IV": 1262,
      "etĠl'": 1263,
      "culi": 1264,
      "ceuxĠ": 1265,
      "termin": 1266,
      "iti": 1267,
      "diffÃ©r": 1268,
      "MaisĠ": 1269,
      "celuiĠ": 1270,
      "beau": 1271,
      "pens": 1272,
      "fond": 1273,
      "let": 1274,
      "aux": 1275,
      "consid": 1276,
      "chi": 1277,
      "ailĠ": 1278,
      "22": 1279,
      "aÃ§": 1280,
      "No": 1281,
      "avonsĠ": 1282,
      "blesĠ": 1283,
      "mani": 1284,
      "esp": 1285,
      "ais,Ġ": 1286,
      "Ãªt": 1287,
      "condi": 1288,
      "partĠ": 1289,
      "etĠduĠ": 1290,
      "jourĠ": 1291,
      "........": 1292,
      "quandĠ": 1293,
      "etc": 1294,
      "eurĠdeĠ": 1295,
      "+Ġ+Ġ": 1296,
      "de,Ġ": 1297,
      "itÃ©,Ġ": 1298,
      "..Ġ": 1299,
      "particuli": 1300,
      "charg": 1301,
      "erieĠ": 1302,
      "fam": 1303,
      "oni": 1304,
      "positionĠ": 1305,
      "arĠ": 1306,
      "mom": 1307,
      "spÃ©ci": 1308,
      "qu'elleĠ": 1309,
      "leĠdeĠ": 1310,
      "tir": 1311,
      "voirĠ": 1312,
      "dâĢĻunĠ": 1313,
      "m'": 1314,
      "terr": 1315,
      "cir": 1316,
      ".ĠG": 1317,
      "quelĠ": 1318,
      "EtĠ": 1319,
      "11Ġ": 1320,
      "eraĠ": 1321,
      "PR": 1322,
      "EL": 1323,
      "dom": 1324,
      "Ã¨rentĠ": 1325,
      "quelleĠ": 1326,
      "ons,Ġ": 1327,
      "3,Ġ": 1328,
      "hĠ": 1329,
      "suff": 1330,
      "45": 1331,
      "portĠ": 1332,
      "alorsĠ": 1333,
      "maĠ": 1334,
      "nÂ°Ġ": 1335,
      "CO": 1336,
      "dansĠunĠ": 1337,
      "proc": 1338,
      "antĠlaĠ": 1339,
      "ale,Ġ": 1340,
      "queĠdeĠ": 1341,
      "toutesĠlesĠ": 1342,
      "sionsĠ": 1343,
      "queĠnousĠ": 1344,
      "mÃ©t": 1345,
      "tro": 1346,
      "alitÃ©Ġ": 1347,
      "dâĢĻuneĠ": 1348,
      "hum": 1349,
      "Tou": 1350,
      "ementĠdeĠ": 1351,
      "eusesĠ": 1352,
      "rig": 1353,
      "39": 1354,
      "mat": 1355,
      "TA": 1356,
      "dÃ©f": 1357,
      "hau": 1358,
      "Or": 1359,
      "lÃ©": 1360,
      "sĠdeĠl'": 1361,
      "cur": 1362,
      "odeĠ": 1363,
      "considÃ©r": 1364,
      "gram": 1365,
      "fix": 1366,
      "coursĠ": 1367,
      "188": 1368,
      "15Ġ": 1369,
      ".ĠL'": 1370,
      "30Ġ": 1371,
      "embleĠ": 1372,
      "erĠdesĠ": 1373,
      "depuisĠ": 1374,
      "antesĠ": 1375,
      "respon": 1376,
      "aci": 1377,
      "dÃ©j": 1378,
      "eri": 1379,
      "lÃłĠ": 1380,
      "grap": 1381,
      "les": 1382,
      "qui,Ġ": 1383,
      "UneĠ": 1384,
      "lon": 1385,
      "conc": 1386,
      "LEĠ": 1387,
      "antĠleĠ": 1388,
      "vel": 1389,
      "ĠD": 1390,
      "atureĠ": 1391,
      ".ĠH": 1392,
      "gag": 1393,
      "2.": 1394,
      "(1)Ġ": 1395,
      "soi": 1396,
      "chev": 1397,
      "isteĠ": 1398,
      "erĠl'": 1399,
      "prendreĠ": 1400,
      "Re": 1401,
      "Ã©eĠdeĠ": 1402,
      "suiteĠ": 1403,
      "gueĠ": 1404,
      "50Ġ": 1405,
      "str": 1406,
      "cont": 1407,
      "vieĠ": 1408,
      "cid": 1409,
      "lsĠ": 1410,
      "tribu": 1411,
      "LAĠ": 1412,
      "tÃ©": 1413,
      "(2": 1414,
      "2ĠĊ": 1415,
      "mu": 1416,
      "qua": 1417,
      "seĠdeĠ": 1418,
      "PourĠ": 1419,
      "moi": 1420,
      "ĠetĠ": 1421,
      "elle,Ġ": 1422,
      "aÃ®treĠ": 1423,
      "fais": 1424,
      "occu": 1425,
      "lors": 1426,
      "att": 1427,
      "feu": 1428,
      "Â»,Ġ": 1429,
      "pas": 1430,
      "IR": 1431,
      "assezĠ": 1432,
      "tenantĠ": 1433,
      "lev": 1434,
      "autr": 1435,
      "carĠ": 1436,
      "char": 1437,
      "ond": 1438,
      "elsĠ": 1439,
      "piÃ¨": 1440,
      "extr": 1441,
      "dit": 1442,
      "44": 1443,
      "esti": 1444,
      "porteĠ": 1445,
      "lieu": 1446,
      "obj": 1447,
      "vientĠ": 1448,
      "exc": 1449,
      "=Ġ": 1450,
      "etĠÃłĠ": 1451,
      "prisĠ": 1452,
      "ques,Ġ": 1453,
      "prof": 1454,
      "Ġ10": 1455,
      "parĠunĠ": 1456,
      "bil": 1457,
      "vill": 1458,
      "Ġ18": 1459,
      "ne,Ġ": 1460,
      "adeĠ": 1461,
      "3ĠĊ": 1462,
      "peuventĠ": 1463,
      "est-": 1464,
      "laiss": 1465,
      "vari": 1466,
      "administr": 1467,
      "ireĠ": 1468,
      "ainesĠ": 1469,
      "viv": 1470,
      "surtoutĠ": 1471,
      "secon": 1472,
      "souventĠ": 1473,
      "antĠlesĠ": 1474,
      "puis": 1475,
      "exÃ©cu": 1476,
      "solu": 1477,
      "0,Ġ": 1478,
      "qu'ilsĠ": 1479,
      "tenirĠ": 1480,
      "caract": 1481,
      "Ã©cri": 1482,
      "ETĠ": 1483,
      "Gu": 1484,
      "tourĠ": 1485,
      "sti": 1486,
      "5,Ġ": 1487,
      "8,Ġ": 1488,
      "ouvern": 1489,
      "ateĠ": 1490,
      "vin": 1491,
      ".Ġ19": 1492,
      "ativ": 1493,
      "raitĠ": 1494,
      "jam": 1495,
      "tan": 1496,
      "contin": 1497,
      "7,Ġ": 1498,
      "e.ĠIlĠ": 1499,
      "vir": 1500,
      "deĠB": 1501,
      "queĠjeĠ": 1502,
      "suj": 1503,
      "poli": 1504,
      "ayantĠ": 1505,
      "sieursĠ": 1506,
      "IT": 1507,
      "49": 1508,
      "offici": 1509,
      "bour": 1510,
      "Comm": 1511,
      "misĠ": 1512,
      "asseĠ": 1513,
      "reg": 1514,
      "e,ĠleĠ": 1515,
      "ct": 1516,
      "oin": 1517,
      "SiĠ": 1518,
      "DeĠ": 1519,
      "12Ġ": 1520,
      "beaucoup": 1521,
      "premierĠ": 1522,
      "a-": 1523,
      "46": 1524,
      "ax": 1525,
      "entre": 1526,
      "coll": 1527,
      "etĠd'": 1528,
      "ge": 1529,
      "hommeĠ": 1530,
      "premiÃ¨reĠ": 1531,
      "25Ġ": 1532,
      "osĠ": 1533,
      "ÃĪ": 1534,
      "4,Ġ": 1535,
      "ationĠduĠ": 1536,
      "dÃ©jÃłĠ": 1537,
      "som": 1538,
      "fonc": 1539,
      "ois,Ġ": 1540,
      "corpsĠ": 1541,
      "juill": 1542,
      "ouvri": 1543,
      "nation": 1544,
      "ait,Ġ": 1545,
      "avaientĠ": 1546,
      "ty": 1547,
      "el,Ġ": 1548,
      "seraitĠ": 1549,
      "grand": 1550,
      "ed": 1551,
      "doi": 1552,
      "jou": 1553,
      "antĠdeĠ": 1554,
      "tropĠ": 1555,
      "articleĠ": 1556,
      "âĢĻestĠ": 1557,
      "âĢ¢Ġ": 1558,
      "ElleĠ": 1559,
      "autor": 1560,
      "Pro": 1561,
      "succ": 1562,
      "tuĠ": 1563,
      "parĠdesĠ": 1564,
      "5ĠĊ": 1565,
      "vu": 1566,
      "reli": 1567,
      "supÃ©ri": 1568,
      "princip": 1569,
      "velop": 1570,
      "ÃłĠuneĠ": 1571,
      "n'estĠpasĠ": 1572,
      "employ": 1573,
      "ÃłĠunĠ": 1574,
      "connaiss": 1575,
      "capit": 1576,
      "lim": 1577,
      "faceĠ": 1578,
      ";ĠâĢĶĠ": 1579,
      "dansĠuneĠ": 1580,
      "observ": 1581,
      "parl": 1582,
      "commer": 1583,
      "onĠdeĠ": 1584,
      "mettreĠ": 1585,
      "aire": 1586,
      "avant": 1587,
      "hÃ©": 1588,
      ".-": 1589,
      "ectionĠ": 1590,
      "n'aĠ": 1591,
      "ers": 1592,
      "aux,Ġ": 1593,
      "Ã¨neĠ": 1594,
      "o-": 1595,
      "cherĠ": 1596,
      "seulementĠ": 1597,
      "RÃ©": 1598,
      "^Ġ": 1599,
      "Ã¨rementĠ": 1600,
      ".ĠOnĠ": 1601,
      "MA": 1602,
      "rom": 1603,
      ";ĠilĠ": 1604,
      "rÃ©pon": 1605,
      "rienĠ": 1606,
      "organis": 1607,
      "Ã©mentĠ": 1608,
      "eilĠ": 1609,
      "Ãł-": 1610,
      "plusieursĠ": 1611,
      "48": 1612,
      "hist": 1613,
      "ensi": 1614,
      "ceĠdeĠ": 1615,
      "situ": 1616,
      "il,Ġ": 1617,
      "prÃ¨": 1618,
      "D'": 1619,
      "arriv": 1620,
      "onc": 1621,
      "demand": 1622,
      "UĠ": 1623,
      "avr": 1624,
      "oblig": 1625,
      "AP": 1626,
      "age,Ġ": 1627,
      "dÃ©cl": 1628,
      "finĠ": 1629,
      "bar": 1630,
      "compagn": 1631,
      ".ĠF": 1632,
      "dessu": 1633,
      "mesu": 1634,
      "DÃ©": 1635,
      "not": 1636,
      ").ĠâĢĶĠ": 1637,
      "6,Ġ": 1638,
      "7ĠĊ": 1639,
      "?ĠĊ": 1640,
      "ra": 1641,
      "pai": 1642,
      "9,Ġ": 1643,
      "rempl": 1644,
      "eutĠ": 1645,
      "encesĠ": 1646,
      "itesĠ": 1647,
      "rÃ©eĠ": 1648,
      "art.Ġ": 1649,
      "propri": 1650,
      "Ã¨re": 1651,
      "idÃ©": 1652,
      "reprÃ©sent": 1653,
      "etĠdeĠlaĠ": 1654,
      "ine,Ġ": 1655,
      "entĠlesĠ": 1656,
      "o,Ġ": 1657,
      "lieuĠ": 1658,
      "vueĠ": 1659,
      "od": 1660,
      "pÃ©r": 1661,
      "out": 1662,
      "avi": 1663,
      "pritĠ": 1664,
      "ementĠdesĠ": 1665,
      "leĠplusĠ": 1666,
      "euv": 1667,
      "2,": 1668,
      "XV": 1669,
      "gau": 1670,
      "parĠuneĠ": 1671,
      "ectu": 1672,
      "assi": 1673,
      "faÃ§": 1674,
      "indu": 1675,
      "oct": 1676,
      "tatĠ": 1677,
      "ba": 1678,
      "orĠ": 1679,
      "nat": 1680,
      "thÃ©": 1681,
      "difi": 1682,
      "atte": 1683,
      "1,": 1684,
      "quâĢĻilĠ": 1685,
      "seĠtrouv": 1686,
      "auraitĠ": 1687,
      "mouv": 1688,
      "AuĠ": 1689,
      "andesĠ": 1690,
      "Ã©tatĠ": 1691,
      "meĠdeĠ": 1692,
      "tÃ©sĠ": 1693,
      "Lou": 1694,
      "exer": 1695,
      "9ĠĊ": 1696,
      "e,ĠlaĠ": 1697,
      "ich": 1698,
      "qĠ": 1699,
      "ÃªtĠ": 1700,
      "oÃ»tĠ": 1701,
      "XĠ": 1702,
      "quelqueĠ": 1703,
      "ers,Ġ": 1704,
      ".ĠdeĠ": 1705,
      "rueĠ": 1706,
      "ecti": 1707,
      "40": 1708,
      "lan": 1709,
      "ennentĠ": 1710,
      "abli": 1711,
      "etĠenĠ": 1712,
      "jamaisĠ": 1713,
      "moin": 1714,
      "prati": 1715,
      "****": 1716,
      "leĠs": 1717,
      "erĠunĠ": 1718,
      "inst": 1719,
      "que.Ġ": 1720,
      "FranceĠ": 1721,
      "Ã©lÃ©": 1722,
      "hommesĠ": 1723,
      "bes": 1724,
      "votreĠ": 1725,
      "grav": 1726,
      "Et": 1727,
      "16Ġ": 1728,
      "fÃ©r": 1729,
      "oul": 1730,
      "Ã©trang": 1731,
      "LE": 1732,
      "aires,Ġ": 1733,
      "beĠ": 1734,
      "Ġ17": 1735,
      "csĠ": 1736,
      "zĠ": 1737,
      "entesĠ": 1738,
      "part": 1739,
      "itÃ©ĠdeĠ": 1740,
      "hÃ©r": 1741,
      "All": 1742,
      "chem": 1743,
      "aÃ®tĠ": 1744,
      "vÃ©r": 1745,
      ".Ġ.Ġ": 1746,
      "divisi": 1747,
      "quatreĠ": 1748,
      "laquelleĠ": 1749,
      "Ã©tabl": 1750,
      "jug": 1751,
      "neĠpeutĠ": 1752,
      "Tr": 1753,
      "47": 1754,
      "ah": 1755,
      "c'": 1756,
      "nombr": 1757,
      "dess": 1758,
      "Es": 1759,
      "erĠuneĠ": 1760,
      "gen": 1761,
      "propr": 1762,
      "rÃ©s": 1763,
      "ern": 1764,
      "prÃ©par": 1765,
      "ÃłĠceĠ": 1766,
      "pir": 1767,
      ".ĠJ": 1768,
      "erĠenĠ": 1769,
      "rÃ©qu": 1770,
      "tifi": 1771,
      "inesĠ": 1772,
      ".ĠCeĠ": 1773,
      "ett": 1774,
      "Cl": 1775,
      "FranÃ§": 1776,
      "18Ġ": 1777,
      "pleĠ": 1778,
      "Ã©ĠenĠ": 1779,
      "oÃ¯": 1780,
      "trou": 1781,
      "Paris,Ġ": 1782,
      "3.": 1783,
      "volu": 1784,
      "reÃ§": 1785,
      "teĠduĠ": 1786,
      "orig": 1787,
      "cam": 1788,
      "placeĠ": 1789,
      "ouĠdeĠ": 1790,
      "puiss": 1791,
      "&amp": 1792,
      "accor": 1793,
      "ontĠÃ©tÃ©Ġ": 1794,
      "pourĠl'": 1795,
      "actu": 1796,
      "ologi": 1797,
      "juin": 1798,
      "celaĠ": 1799,
      "leĠdÃ©": 1800,
      "pressionĠ": 1801,
      "minu": 1802,
      "dÃ©clar": 1803,
      "desĠm": 1804,
      "oll": 1805,
      "Ann": 1806,
      "IC": 1807,
      ".ĠN": 1808,
      "onsĠdeĠ": 1809,
      "ordin": 1810,
      "surĠl'": 1811,
      "55": 1812,
      "erĠetĠ": 1813,
      "ordreĠ": 1814,
      "g.Ġ": 1815,
      "lesĠplusĠ": 1816,
      "lib": 1817,
      "Ex": 1818,
      "milit": 1819,
      "jĠ": 1820,
      "dÃ©termin": 1821,
      "tis": 1822,
      ".ĠAĠ": 1823,
      "pasĠdeĠ": 1824,
      "Mon": 1825,
      "che,Ġ": 1826,
      "4ĠĊ": 1827,
      "Ã©tantĠ": 1828,
      "Li": 1829,
      "RE": 1830,
      "velopp": 1831,
      "Ou": 1832,
      "concer": 1833,
      "crip": 1834,
      "bon": 1835,
      "e.ĠLeĠ": 1836,
      "inc": 1837,
      "oss": 1838,
      "venirĠ": 1839,
      "es-": 1840,
      "puĠ": 1841,
      "conditionsĠ": 1842,
      "prom": 1843,
      "compt": 1844,
      "condu": 1845,
      "jan": 1846,
      "e)Ġ": 1847,
      "fortĠ": 1848,
      "LA": 1849,
      "Char": 1850,
      "aiseĠ": 1851,
      ",ĠenĠ": 1852,
      "presqueĠ": 1853,
      "14Ġ": 1854,
      "ammentĠ": 1855,
      "dÃ¨sĠ": 1856,
      ".ĠMaisĠ": 1857,
      "eĠetĠ": 1858,
      "montr": 1859,
      "prÃ©ci": 1860,
      "gouvern": 1861,
      "3,": 1862,
      "oign": 1863,
      "thÃ¨": 1864,
      ",ĠĊ": 1865,
      "prixĠ": 1866,
      "LESĠ": 1867,
      "quiĠseĠ": 1868,
      "siÃ¨cl": 1869,
      "chang": 1870,
      "56": 1871,
      "Ã©lev": 1872,
      "24Ġ": 1873,
      "ini": 1874,
      "Ġ16": 1875,
      "momentĠ": 1876,
      "dÃ©t": 1877,
      "1.ĠĊ": 1878,
      "donneĠ": 1879,
      "envir": 1880,
      "fil": 1881,
      "tionĠdesĠ": 1882,
      "Ã©li": 1883,
      "travailĠ": 1884,
      "CeĠ": 1885,
      "21Ġ": 1886,
      "Em": 1887,
      "paysĠ": 1888,
      "itt": 1889,
      "raisonĠ": 1890,
      "es,ĠlesĠ": 1891,
      "aul": 1892,
      "rÃ©g": 1893,
      "ailleursĠ": 1894,
      "cellesĠ": 1895,
      "neĠs": 1896,
      ",ĠilĠ": 1897,
      "og": 1898,
      "marsĠ": 1899,
      "serontĠ": 1900,
      "Åĵuv": 1901,
      "assur": 1902,
      "ris": 1903,
      "point": 1904,
      "Ã©rieur": 1905,
      "nombreĠ": 1906,
      "tabl": 1907,
      "ite,Ġ": 1908,
      "err": 1909,
      "ouvr": 1910,
      "es;Ġ": 1911,
      "tructionĠ": 1912,
      "alĠdeĠ": 1913,
      "ÃłĠdesĠ": 1914,
      "Ã©con": 1915,
      "28Ġ": 1916,
      "istreĠ": 1917,
      "possibleĠ": 1918,
      "figu": 1919,
      "8ĠĊ": 1920,
      "qu'unĠ": 1921,
      "seilĠ": 1922,
      "fav": 1923,
      "armÃ©eĠ": 1924,
      "mag": 1925,
      "airĠ": 1926,
      "petitĠ": 1927,
      "âĸłĠ": 1928,
      "2Â°Ġ": 1929,
      "fur": 1930,
      "17Ġ": 1931,
      "que": 1932,
      "longu": 1933,
      "ban": 1934,
      "bonĠ": 1935,
      "avecĠlesĠ": 1936,
      "suffis": 1937,
      "endu": 1938,
      ",ĠlaĠ": 1939,
      "mer": 1940,
      "tientĠ": 1941,
      "haut": 1942,
      "22Ġ": 1943,
      "poss": 1944,
      "!ĠĊ": 1945,
      "t-ilĠ": 1946,
      "50": 1947,
      "Ã©tabli": 1948,
      "sac": 1949,
      "cÃ´tÃ©Ġ": 1950,
      "fitĠ": 1951,
      "13Ġ": 1952,
      "parceĠ": 1953,
      "cy": 1954,
      "distin": 1955,
      "sembl": 1956,
      "positionsĠ": 1957,
      "civ": 1958,
      "avecĠlaĠ": 1959,
      "quiĠestĠ": 1960,
      "LO": 1961,
      "deĠcesĠ": 1962,
      "eti": 1963,
      "Pl": 1964,
      "ograp": 1965,
      "d'h": 1966,
      "group": 1967,
      "nov": 1968,
      "devantĠ": 1969,
      "pec": 1970,
      "confi": 1971,
      "rÃ©sult": 1972,
      "Ã©cl": 1973,
      "appel": 1974,
      "oit": 1975,
      "d,Ġ": 1976,
      "sÃ©ri": 1977,
      "MĠ": 1978,
      "zeĠ": 1979,
      "elle-": 1980,
      "Ã©galementĠ": 1981,
      "&gt;": 1982,
      "sieĠ": 1983,
      "mont": 1984,
      "queĠdesĠ": 1985,
      "mul": 1986,
      "aires": 1987,
      "utĠ": 1988,
      "abil": 1989,
      "rais": 1990,
      "mÃªmesĠ": 1991,
      "erĠauĠ": 1992,
      "veill": 1993,
      "seulĠ": 1994,
      "applic": 1995,
      "avecĠleĠ": 1996,
      "ÃłĠsonĠ": 1997,
      "Ã«": 1998,
      "Pr": 1999,
      "pÃ©n": 2000,
      "Ã©.ĠĊ": 2001,
      "milli": 2002,
      "mun": 2003,
      "ox": 2004,
      "moyenĠ": 2005,
      "Ã»tĠ": 2006,
      "anim": 2007,
      "ants,Ġ": 2008,
      "d'ab": 2009,
      "Ã¢t": 2010,
      "chac": 2011,
      "er.ĠĊ": 2012,
      "2.ĠĊ": 2013,
      "journ": 2014,
      "Ã©e.Ġ": 2015,
      ".ĠEnĠ": 2016,
      "-dessu": 2017,
      "rÃ©du": 2018,
      "vuĠ": 2019,
      "sus": 2020,
      "complÃ¨": 2021,
      "doiventĠ": 2022,
      "Ã©di": 2023,
      "Jean": 2024,
      "allem": 2025,
      "Ã©ĠparĠ": 2026,
      "Â§": 2027,
      "beaucoupĠ": 2028,
      "prot": 2029,
      "rest": 2030,
      "chap": 2031,
      "sul": 2032,
      "compteĠ": 2033,
      "villeĠ": 2034,
      "ence,Ġ": 2035,
      "----------------": 2036,
      ".ĠC'estĠ": 2037,
      "religi": 2038,
      "arqu": 2039,
      "essionĠ": 2040,
      "mentsĠ": 2041,
      "DESĠ": 2042,
      "ez-": 2043,
      "prendĠ": 2044,
      "aucuneĠ": 2045,
      "continu": 2046,
      "grÃ©Ġ": 2047,
      "26Ġ": 2048,
      "4,": 2049,
      "57": 2050,
      "chau": 2051,
      "iciĠ": 2052,
      "100Ġ": 2053,
      "syst": 2054,
      "dÃ©s": 2055,
      "SE": 2056,
      "58": 2057,
      "Du": 2058,
      "6ĠĊ": 2059,
      "abri": 2060,
      "indiqu": 2061,
      "etĠquiĠ": 2062,
      "nÂ°": 2063,
      "intÃ©ress": 2064,
      "Bi": 2065,
      "entreĠlesĠ": 2066,
      "ennem": 2067,
      "ans,Ġ": 2068,
      "ligneĠ": 2069,
      "deĠsonĠ": 2070,
      "ance,Ġ": 2071,
      "Allem": 2072,
      "phy": 2073,
      "mili": 2074,
      "Am": 2075,
      "pointĠdeĠ": 2076,
      "ationĠdeĠlaĠ": 2077,
      ",ĠlesĠ": 2078,
      "ateurĠ": 2079,
      "nomb": 2080,
      "esĠduĠ": 2081,
      "fÃ©v": 2082,
      "ram": 2083,
      "Ã©eĠÃłĠ": 2084,
      ",ĠÃłĠ": 2085,
      "mÃ¨tresĠ": 2086,
      "faÃ§onĠ": 2087,
      "hor": 2088,
      "Ã©s": 2089,
      "dÃ©fin": 2090,
      "plusĠdeĠ": 2091,
      "40Ġ": 2092,
      "habit": 2093,
      "aisonĠ": 2094,
      "C'estĠ": 2095,
      "aucunĠ": 2096,
      "Ph": 2097,
      "sĠetĠ": 2098,
      "unĠpeuĠ": 2099,
      "lign": 2100,
      "tend": 2101,
      "tomb": 2102,
      "teurĠ": 2103,
      "miĠ": 2104,
      "exeĠ": 2105,
      "assu": 2106,
      "pit": 2107,
      "(3": 2108,
      "sain": 2109,
      "27Ġ": 2110,
      "bÃ©n": 2111,
      "IER": 2112,
      "natur": 2113,
      "J'": 2114,
      "Ã©ĠetĠ": 2115,
      "tesĠdeĠ": 2116,
      "TE": 2117,
      "homm": 2118,
      "aisseĠ": 2119,
      "roy": 2120,
      "pal": 2121,
      "Ã©po": 2122,
      "neu": 2123,
      "Ã©ĠauĠ": 2124,
      "maj": 2125,
      "proch": 2126,
      "23Ġ": 2127,
      "poseĠ": 2128,
      "s'ilĠ": 2129,
      "TO": 2130,
      "s'estĠ": 2131,
      "proj": 2132,
      "entĠÃłĠ": 2133,
      "blan": 2134,
      "ne": 2135,
      "aug": 2136,
      "occup": 2137,
      "ens,Ġ": 2138,
      "gieĠ": 2139,
      "queĠvousĠ": 2140,
      "l'onĠ": 2141,
      "cationsĠ": 2142,
      "conserv": 2143,
      "boisĠ": 2144,
      "prouv": 2145,
      "modifi": 2146,
      "disĠ": 2147,
      "quoiĠ": 2148,
      "rĠdeĠ": 2149,
      "senti": 2150,
      "29Ġ": 2151,
      "Ã©conom": 2152,
      "iment": 2153,
      "Ju": 2154,
      "pouvoirĠ": 2155,
      "prÃ©senteĠ": 2156,
      "activ": 2157,
      "fus": 2158,
      "]Ġ": 2159,
      "PAR": 2160,
      "certainsĠ": 2161,
      "Ã©sĠdeĠ": 2162,
      "XX": 2163,
      "prÃ©t": 2164,
      "exam": 2165,
      "petiteĠ": 2166,
      "inĠdeĠ": 2167,
      "queĠl'onĠ": 2168,
      "aoÃ»tĠ": 2169,
      "si,Ġ": 2170,
      "Eu": 2171,
      "Â».ĠĊ": 2172,
      "correspon": 2173,
      "stri": 2174,
      "mod": 2175,
      "e.ĠLesĠ": 2176,
      "e.ĠLaĠ": 2177,
      "deĠdeĠ": 2178,
      "Ã©lÃ©m": 2179,
      "AC": 2180,
      "acc": 2181,
      "rar": 2182,
      "59": 2183,
      "antĠÃłĠ": 2184,
      "sept": 2185,
      "at,Ġ": 2186,
      "ENT": 2187,
      "PrÃ©": 2188,
      "resteĠ": 2189,
      "OĠ": 2190,
      "ron": 2191,
      "31Ġ": 2192,
      "aitĠdeĠ": 2193,
      "alli": 2194,
      "avrilĠ": 2195,
      "mÃ©d": 2196,
      "lar": 2197,
      "frÃ©qu": 2198,
      "Ã©ĠleĠ": 2199,
      "Soci": 2200,
      "e,ĠilĠ": 2201,
      "issementĠ": 2202,
      "ordonn": 2203,
      "edĠ": 2204,
      "e,ĠenĠ": 2205,
      "suisĠ": 2206,
      "gesĠ": 2207,
      "quelsĠ": 2208,
      "acqu": 2209,
      "juilletĠ": 2210,
      "iesĠ": 2211,
      "atis": 2212,
      "Ã´leĠ": 2213,
      "rapportĠ": 2214,
      "rentĠ": 2215,
      "19Ġ": 2216,
      "destin": 2217,
      "quiĠneĠ": 2218,
      "dam": 2219,
      "peut-": 2220,
      "187": 2221,
      "tes,Ġ": 2222,
      "bas": 2223,
      "TREĠ": 2224,
      "3.ĠĊ": 2225,
      "ESĠĊ": 2226,
      "avecĠuneĠ": 2227,
      "maisonĠ": 2228,
      "SI": 2229,
      "mou": 2230,
      "ierĠ": 2231,
      "resĠdeĠ": 2232,
      "Ã¨res,Ġ": 2233,
      "attein": 2234,
      "mieuxĠ": 2235,
      "oid": 2236,
      "j'aiĠ": 2237,
      ".ĠâĢĶĠC": 2238,
      "octob": 2239,
      "tionĠduĠ": 2240,
      "truc": 2241,
      "m.Ġ": 2242,
      ".ĠCh": 2243,
      "espÃ¨": 2244,
      "LĠ": 2245,
      "e,ĠlesĠ": 2246,
      "cherch": 2247,
      "f,Ġ": 2248,
      "ut": 2249,
      "voul": 2250,
      "serviceĠ": 2251,
      "ÃīR": 2252,
      "lettreĠ": 2253,
      "tÃ©ĠdeĠ": 2254,
      "Ã©rieurĠ": 2255,
      "butĠ": 2256,
      "cas,Ġ": 2257,
      "arch": 2258,
      "fois,Ġ": 2259,
      "dÃ©velopp": 2260,
      "Ã©cr": 2261,
      "nomĠ": 2262,
      "in-": 2263,
      "ors": 2264,
      "tiquesĠ": 2265,
      "kil": 2266,
      "on.ĠĊ": 2267,
      "viol": 2268,
      "inv": 2269,
      "EĠDEĠ": 2270,
      ";ĠmaisĠ": 2271,
      "arrÃª": 2272,
      "larg": 2273,
      "consÃ©qu": 2274,
      "plan": 2275,
      ".ĠCetteĠ": 2276,
      "priv": 2277,
      "fondĠ": 2278,
      "moisĠ": 2279,
      "Ã©eĠenĠ": 2280,
      "sel": 2281,
      "comb": 2282,
      "ablementĠ": 2283,
      "bonneĠ": 2284,
      "conven": 2285,
      "issionĠ": 2286,
      "guerreĠ": 2287,
      "janvi": 2288,
      "valeurĠ": 2289,
      "reconn": 2290,
      "tenuĠ": 2291,
      "rierĠ": 2292,
      "sin": 2293,
      "qu'uneĠ": 2294,
      "lin": 2295,
      "oneĠ": 2296,
      "elleĠestĠ": 2297,
      "e),Ġ": 2298,
      "kĠ": 2299,
      "tonĠ": 2300,
      "d'A": 2301,
      "IlsĠ": 2302,
      "rÃ©gu": 2303,
      "67": 2304,
      "ard,Ġ": 2305,
      "DI": 2306,
      ".ĠDansĠ": 2307,
      "~Ġ": 2308,
      "pas,Ġ": 2309,
      "liqui": 2310,
      "prÃª": 2311,
      "sci": 2312,
      "maniÃ¨reĠ": 2313,
      "aujour": 2314,
      "produitĠ": 2315,
      "quellesĠ": 2316,
      "5,": 2317,
      "eil": 2318,
      "dat": 2319,
      "olu": 2320,
      "dÃ©si": 2321,
      "de-": 2322,
      "fourn": 2323,
      "VI": 2324,
      "armÃ©": 2325,
      "cinqĠ": 2326,
      "nor": 2327,
      "luĠ": 2328,
      "Pier": 2329,
      "Ã©tÃ©sĠ": 2330,
      "otĠ": 2331,
      "ailleĠ": 2332,
      "mes,Ġ": 2333,
      "derĠ": 2334,
      "c,Ġ": 2335,
      "effor": 2336,
      "vaĠ": 2337,
      "60": 2338,
      ";ĠlesĠ": 2339,
      "diver": 2340,
      "somm": 2341,
      "yn": 2342,
      "eau,Ġ": 2343,
      "tour": 2344,
      "68": 2345,
      "annÃ©eĠ": 2346,
      "TIONĠ": 2347,
      "69": 2348,
      "r,Ġ": 2349,
      "Th": 2350,
      "dÃ©l": 2351,
      "sep": 2352,
      "ativeĠ": 2353,
      "titreĠ": 2354,
      "part,Ġ": 2355,
      "jeuneĠ": 2356,
      "omÃ¨": 2357,
      "sembleĠ": 2358,
      "...ĠĊ": 2359,
      "nou": 2360,
      "terreĠ": 2361,
      "anal": 2362,
      "simpl": 2363,
      "exemp": 2364,
      "facil": 2365,
      "Ã´t": 2366,
      "trib": 2367,
      "dernierĠ": 2368,
      "mÃªme,Ġ": 2369,
      "prÃ©cÃ©d": 2370,
      "est-Ãł-": 2371,
      "fontĠ": 2372,
      "tur": 2373,
      "ET": 2374,
      "maladi": 2375,
      "tions,Ġ": 2376,
      "progr": 2377,
      "4.": 2378,
      "tor": 2379,
      "c.Ġ": 2380,
      "tex": 2381,
      "nÃ©g": 2382,
      "effet,Ġ": 2383,
      "Ã¨leĠ": 2384,
      "CĠ": 2385,
      "ii": 2386,
      "parfoisĠ": 2387,
      "LâĢĻ": 2388,
      "/Ġ": 2389,
      ";ĠleĠ": 2390,
      "roiĠ": 2391,
      "angl": 2392,
      "surĠunĠ": 2393,
      "ille,Ġ": 2394,
      "aitĠÃłĠ": 2395,
      "Car": 2396,
      "RO": 2397,
      "dontĠlaĠ": 2398,
      "CI": 2399,
      "ving": 2400,
      "clesĠ": 2401,
      "priseĠ": 2402,
      "(Ġ": 2403,
      "d'ÃªtreĠ": 2404,
      "rend": 2405,
      "rÃ©serv": 2406,
      "pouss": 2407,
      "rontĠ": 2408,
      "quanti": 2409,
      "demandeĠ": 2410,
      "aireĠdeĠ": 2411,
      "ie,Ġ": 2412,
      "tÃªteĠ": 2413,
      ".ĠJeĠ": 2414,
      "IIĠ": 2415,
      "d'autresĠ": 2416,
      "ParisĠ": 2417,
      "femmeĠ": 2418,
      "ges": 2419,
      "vois": 2420,
      "atten": 2421,
      "troup": 2422,
      "es,ĠetĠ": 2423,
      "ans": 2424,
      "doitĠÃªtreĠ": 2425,
      "fici": 2426,
      "dÃ©b": 2427,
      "IQU": 2428,
      "eusementĠ": 2429,
      "sem": 2430,
      "utilis": 2431,
      "Rou": 2432,
      "popul": 2433,
      "sĠdesĠ": 2434,
      "AG": 2435,
      "cus": 2436,
      "centi": 2437,
      "engag": 2438,
      "ner": 2439,
      "ilĠfautĠ": 2440,
      "sÃ©par": 2441,
      "oi,Ġ": 2442,
      "Ã©ĠdesĠ": 2443,
      "travauxĠ": 2444,
      "Ã©ĠlaĠ": 2445,
      "AS": 2446,
      "loiĠduĠ": 2447,
      ".ĠElleĠ": 2448,
      ":Ġ1": 2449,
      "cÃ©r": 2450,
      "duĠC": 2451,
      "reven": 2452,
      "ations,Ġ": 2453,
      "lui-": 2454,
      ".ĠQu": 2455,
      "AM": 2456,
      "espritĠ": 2457,
      "adu": 2458,
      "t.ĠĊ": 2459,
      "abb": 2460,
      "quiĠaĠ": 2461,
      "le,Ġ": 2462,
      "Ã©ris": 2463,
      "faiteĠ": 2464,
      "oiresĠ": 2465,
      "ys": 2466,
      "Pu": 2467,
      "aisi": 2468,
      "mir": 2469,
      "exempl": 2470,
      "ray": 2471,
      "bal": 2472,
      "sc": 2473,
      "pel": 2474,
      "moiĠ": 2475,
      "ceuxĠquiĠ": 2476,
      ";ĠlaĠ": 2477,
      "Fig": 2478,
      "matÃ©ri": 2479,
      "queĠlâĢĻ": 2480,
      "Ã©esĠdeĠ": 2481,
      "CON": 2482,
      "souff": 2483,
      "natureĠ": 2484,
      "trouveĠ": 2485,
      "mainĠ": 2486,
      "VoirĠ": 2487,
      "II,Ġ": 2488,
      "Min": 2489,
      "CetteĠ": 2490,
      "neĠsontĠ": 2491,
      "s'ag": 2492,
      "causeĠ": 2493,
      "inten": 2494,
      "5.": 2495,
      "sous-": 2496,
      "PO": 2497,
      "onĠaĠ": 2498,
      "fru": 2499,
      "pĠ": 2500,
      "grandsĠ": 2501,
      "atĠdeĠ": 2502,
      "E.ĠĊ": 2503,
      "envoy": 2504,
      "eursĠdeĠ": 2505,
      "bran": 2506,
      "rÃ©p": 2507,
      "del": 2508,
      "eilleĠ": 2509,
      "nouvelleĠ": 2510,
      "câĢĻestĠ": 2511,
      "&gt;Ġ": 2512,
      "deĠsesĠ": 2513,
      "Cor": 2514,
      "lÃł": 2515,
      "rac": 2516,
      "eux-": 2517,
      "Ser": 2518,
      "esĠÃłĠ": 2519,
      "d'aprÃ¨sĠ": 2520,
      "post": 2521,
      "Ã©lec": 2522,
      "malĠ": 2523,
      "(2)Ġ": 2524,
      "able,Ġ": 2525,
      "Ã¨veĠ": 2526,
      "aus": 2527,
      "sousĠleĠ": 2528,
      "mais": 2529,
      "AT": 2530,
      "est-Ãł-direĠ": 2531,
      "aÃ¯": 2532,
      "neĠpasĠ": 2533,
      "5.ĠĊ": 2534,
      "artill": 2535,
      "casĠdeĠ": 2536,
      "prend": 2537,
      "auraĠ": 2538,
      "dÃ©cr": 2539,
      "compos": 2540,
      "60Ġ": 2541,
      "ain,Ġ": 2542,
      "loĠ": 2543,
      "ement.ĠĊ": 2544,
      "sĠduĠ": 2545,
      "rÃ©alis": 2546,
      "FR": 2547,
      "DĠ": 2548,
      "fri": 2549,
      "piÃ¨cesĠ": 2550,
      "1Ġ1": 2551,
      "neĠseĠ": 2552,
      "iquesĠ": 2553,
      "mÃ©th": 2554,
      "rapport": 2555,
      "179": 2556,
      "rÃ©gionĠ": 2557,
      "ageĠdeĠ": 2558,
      ".ĠâĢĶĠLeĠ": 2559,
      "Ã©eĠparĠ": 2560,
      "furentĠ": 2561,
      "vr": 2562,
      ".ĠâĢĶĠLesĠ": 2563,
      "memb": 2564,
      "Vi": 2565,
      "chefĠ": 2566,
      "est,Ġ": 2567,
      "nouveauĠ": 2568,
      "cependantĠ": 2569,
      "seuleĠ": 2570,
      "bor": 2571,
      "mett": 2572,
      "four": 2573,
      "ge,Ġ": 2574,
      "4.ĠĊ": 2575,
      "Ber": 2576,
      "1-": 2577,
      "tiersĠ": 2578,
      "2eĠ": 2579,
      "artĠ": 2580,
      "n'enĠ": 2581,
      "MM": 2582,
      "Bu": 2583,
      "ileĠ": 2584,
      "ementĠduĠ": 2585,
      "ante,Ġ": 2586,
      "nombreĠdeĠ": 2587,
      "constat": 2588,
      "oph": 2589,
      "onĠpeutĠ": 2590,
      "me.Ġ": 2591,
      "an,Ġ": 2592,
      "ts,Ġ": 2593,
      "commenc": 2594,
      "ieĠdeĠ": 2595,
      "dansĠsonĠ": 2596,
      "iÃ¨meĠ": 2597,
      "adesĠ": 2598,
      "miseĠ": 2599,
      "enceĠdeĠ": 2600,
      "influ": 2601,
      ".),Ġ": 2602,
      "77": 2603,
      "pein": 2604,
      "antĠdesĠ": 2605,
      "dispar": 2606,
      "ifi": 2607,
      "erreĠ": 2608,
      "grandesĠ": 2609,
      "appliqu": 2610,
      "droit": 2611,
      "Lu": 2612,
      "ajou": 2613,
      "Le": 2614,
      "El": 2615,
      "SĠĊ": 2616,
      "DieuĠ": 2617,
      "tric": 2618,
      "ameĠ": 2619,
      "rirĠ": 2620,
      "choseĠ": 2621,
      "sau": 2622,
      "3Â°Ġ": 2623,
      "telleĠ": 2624,
      "quin": 2625,
      "66": 2626,
      "VousĠ": 2627,
      "och": 2628,
      "recev": 2629,
      "DesĠ": 2630,
      "Se": 2631,
      "industri": 2632,
      "autantĠ": 2633,
      "SurĠ": 2634,
      "yeuxĠ": 2635,
      "(C": 2636,
      "augment": 2637,
      "lequelĠ": 2638,
      "enfantsĠ": 2639,
      "ilĠyĠaĠ": 2640,
      "stitu": 2641,
      "Ã¢ti": 2642,
      "clam": 2643,
      "aÃ®n": 2644,
      "class": 2645,
      ".)ĠĊ": 2646,
      "beso": 2647,
      "estĠdeĠ": 2648,
      "taĠ": 2649,
      "oieĠ": 2650,
      "rendreĠ": 2651,
      "entĠdesĠ": 2652,
      "ettreĠ": 2653,
      "HĠ": 2654,
      "DE": 2655,
      "dontĠlesĠ": 2656,
      "sensĠ": 2657,
      "voitĠ": 2658,
      "pouvaitĠ": 2659,
      "sang": 2660,
      "78": 2661,
      "Ã¨reĠdeĠ": 2662,
      "merĠ": 2663,
      "JĠ": 2664,
      "rÃ©sul": 2665,
      "parmiĠ": 2666,
      "peut-ÃªtreĠ": 2667,
      "acideĠ": 2668,
      "DU": 2669,
      ".ĠO": 2670,
      "bĠ": 2671,
      "mondeĠ": 2672,
      "ParĠ": 2673,
      "ilĠneĠ": 2674,
      "mari": 2675,
      "coul": 2676,
      "dÃ©pend": 2677,
      "Angl": 2678,
      "Gran": 2679,
      "Ã©sĠÃłĠ": 2680,
      "vrai": 2681,
      "entĠlaĠ": 2682,
      "dontĠleĠ": 2683,
      "tot": 2684,
      "exis": 2685,
      "avecĠunĠ": 2686,
      "dur": 2687,
      "partiesĠ": 2688,
      "Ã¨res": 2689,
      "correspond": 2690,
      "Br": 2691,
      "+Ġ1": 2692,
      "queĠceĠ": 2693,
      "certainesĠ": 2694,
      "pol": 2695,
      "allu": 2696,
      "LI": 2697,
      "fig.Ġ": 2698,
      "sch": 2699,
      "aĠlaĠ": 2700,
      "ani": 2701,
      "cli": 2702,
      "(M": 2703,
      "droiteĠ": 2704,
      "Rom": 2705,
      "dieĠ": 2706,
      "pect": 2707,
      "ov": 2708,
      "pauv": 2709,
      "serveĠ": 2710,
      "S.Ġ": 2711,
      "lour": 2712,
      "hypo": 2713,
      "ÃłĠM": 2714,
      "BR": 2715,
      "Ã©rieureĠ": 2716,
      "EtatĠ": 2717,
      "oire,Ġ": 2718,
      "que.ĠĊ": 2719,
      "IlĠestĠ": 2720,
      "fonctionn": 2721,
      "dÃ©li": 2722,
      "aign": 2723,
      "s,ĠlesĠ": 2724,
      "fol": 2725,
      "adress": 2726,
      ".ĠCesĠ": 2727,
      "f.Ġ": 2728,
      "79": 2729,
      "itÃ©ĠdesĠ": 2730,
      "43": 2731,
      "sousĠlaĠ": 2732,
      "habitu": 2733,
      "1.Ġ": 2734,
      "ui-": 2735,
      "certainĠ": 2736,
      "embreĠ19": 2737,
      "elles,Ġ": 2738,
      "gÃ©nÃ©raleĠ": 2739,
      "rÃ©gl": 2740,
      "SO": 2741,
      "Art.Ġ": 2742,
      "qu'enĠ": 2743,
      "immÃ©di": 2744,
      "CHAP": 2745,
      "-M": 2746,
      "euse,Ġ": 2747,
      "uesĠ": 2748,
      "88": 2749,
      "Fig.Ġ": 2750,
      "BĠ": 2751,
      "n.Ġ": 2752,
      "France,Ġ": 2753,
      "missionĠ": 2754,
      "oupeĠ": 2755,
      "a)Ġ": 2756,
      "Â§Ġ": 2757,
      "rÃ©sĠ": 2758,
      "Col": 2759,
      "phÃ©n": 2760,
      "pron": 2761,
      "Ã¨n": 2762,
      "chef": 2763,
      "honn": 2764,
      "Ã©volu": 2765,
      "voqu": 2766,
      "formesĠ": 2767,
      "chiff": 2768,
      "remarqu": 2769,
      "agri": 2770,
      "bÃ©nÃ©": 2771,
      "dansĠceĠ": 2772,
      "tt": 2773,
      "etĠdeĠl'": 2774,
      "s;Ġ": 2775,
      "rev": 2776,
      "Â£": 2777,
      "ales,Ġ": 2778,
      "enne,Ġ": 2779,
      "gÃ©": 2780,
      "exploit": 2781,
      "ismeĠ": 2782,
      "UN": 2783,
      "unĠdesĠ": 2784,
      "fr.Ġ": 2785,
      "entĠenĠ": 2786,
      "peutĠÃªtreĠ": 2787,
      "deĠceĠ": 2788,
      "Ã©ĠduĠ": 2789,
      "se,Ġ": 2790,
      "marqu": 2791,
      "tifĠ": 2792,
      "indivi": 2793,
      "ble,Ġ": 2794,
      "Ver": 2795,
      "frontĠ": 2796,
      "jet": 2797,
      "SĠDEĠ": 2798,
      "excep": 2799,
      "GR": 2800,
      "Ã¹": 2801,
      "aitĠpasĠ": 2802,
      "ÃªtesĠ": 2803,
      "tal": 2804,
      "appu": 2805,
      "ureĠ": 2806,
      ".ĠLâĢĻ": 2807,
      "sion,Ġ": 2808,
      "forc": 2809,
      "Ã©du": 2810,
      "dansĠlâĢĻ": 2811,
      "Ã©eĠauĠ": 2812,
      "ensembleĠ": 2813,
      "sixĠ": 2814,
      "occa": 2815,
      "Hu": 2816,
      "gard": 2817,
      "ConseilĠ": 2818,
      "heureĠ": 2819,
      "QueĠ": 2820,
      "janvierĠ": 2821,
      "LouisĠ": 2822,
      ".000Ġ": 2823,
      "octobreĠ": 2824,
      "89": 2825,
      "istanceĠ": 2826,
      "rapid": 2827,
      "%Ġ": 2828,
      "ÅĵurĠ": 2829,
      "ym": 2830,
      "tres,Ġ": 2831,
      "exist": 2832,
      "ast": 2833,
      "join": 2834,
      "sav": 2835,
      "JeanĠ": 2836,
      "systÃ¨meĠ": 2837,
      "54": 2838,
      "sion": 2839,
      "70": 2840,
      "ettesĠ": 2841,
      "exac": 2842,
      "rÃ¨g": 2843,
      "ont,Ġ": 2844,
      "sym": 2845,
      "existeĠ": 2846,
      "exi": 2847,
      "questionĠ": 2848,
      "agn": 2849,
      "champ": 2850,
      "centr": 2851,
      "perm": 2852,
      "desc": 2853,
      "tent": 2854,
      "gaucheĠ": 2855,
      "my": 2856,
      "aigu": 2857,
      "Â»Ġ(": 2858,
      "oixĠ": 2859,
      "jusqu'ÃłĠ": 2860,
      "petitsĠ": 2861,
      "respons": 2862,
      "tranch": 2863,
      "tirĠ": 2864,
      "riĠ": 2865,
      "prisesĠ": 2866,
      ".)": 2867,
      "toutĠleĠ": 2868,
      "voieĠ": 2869,
      "capa": 2870,
      "ation.ĠĊ": 2871,
      "sieurĠ": 2872,
      ",ĠdeĠ": 2873,
      "auxĠdeĠ": 2874,
      "cav": 2875,
      "tĠÃłĠ": 2876,
      "quementĠ": 2877,
      "Ãªch": 2878,
      "press": 2879,
      "oÃ¹ĠilĠ": 2880,
      "till": 2881,
      "dor": 2882,
      "s'enĠ": 2883,
      "din": 2884,
      "sommesĠ": 2885,
      "ple": 2886,
      "deven": 2887,
      "pur": 2888,
      "6,": 2889,
      "autoris": 2890,
      "liber": 2891,
      "gr.Ġ": 2892,
      "tĠetĠ": 2893,
      "isl": 2894,
      "prob": 2895,
      "libÃ©r": 2896,
      "Si": 2897,
      "quiĠsontĠ": 2898,
      "Ã¼": 2899,
      "rÃ©guli": 2900,
      "Ã©tudi": 2901,
      "coleĠ": 2902,
      "ey": 2903,
      ".ĠEn": 2904,
      "Ã©vit": 2905,
      "FĠ": 2906,
      ".ĠEtĠ": 2907,
      "Bou": 2908,
      "Bour": 2909,
      "meu": 2910,
      "douteĠ": 2911,
      "niv": 2912,
      "grÃ¢": 2913,
      "lou": 2914,
      "surĠuneĠ": 2915,
      "trait": 2916,
      "ensuiteĠ": 2917,
      "Av": 2918,
      "tre": 2919,
      "rÃ©t": 2920,
      "propriÃ©t": 2921,
      "faitsĠ": 2922,
      "2Ġ1": 2923,
      "actionsĠ": 2924,
      "DUĠ": 2925,
      "feuillesĠ": 2926,
      "pÃ©riodeĠ": 2927,
      "bru": 2928,
      "laĠplusĠ": 2929,
      "mÃ©dec": 2930,
      "cad": 2931,
      "airementĠ": 2932,
      "circul": 2933,
      "oh": 2934,
      "en-": 2935,
      "esĠd'": 2936,
      "e.ĠOnĠ": 2937,
      "fabri": 2938,
      "pourraitĠ": 2939,
      "teĠetĠ": 2940,
      "Ad": 2941,
      "dÃ»": 2942,
      "umÃ©r": 2943,
      "intÃ©rÃªtĠ": 2944,
      "traitementĠ": 2945,
      "dang": 2946,
      "antĠl'": 2947,
      "mesureĠ": 2948,
      "justi": 2949,
      "attaqueĠ": 2950,
      "dÃ©p": 2951,
      "plusĠt": 2952,
      "oxy": 2953,
      "dÃ©cisi": 2954,
      "institu": 2955,
      "mÃ©n": 2956,
      "franc": 2957,
      "+Ġ+Ġ+Ġ+Ġ": 2958,
      "nâĢĻestĠ": 2959,
      "dateĠ": 2960,
      "oire": 2961,
      "I,Ġ": 2962,
      "erĠduĠ": 2963,
      "peineĠ": 2964,
      "productionĠ": 2965,
      "simpleĠ": 2966,
      "conse": 2967,
      "sĠdeĠlaĠ": 2968,
      "coloni": 2969,
      "&amp;": 2970,
      "milieuĠ": 2971,
      "Ã©e.ĠĊ": 2972,
      "e.ĠS": 2973,
      "enfinĠ": 2974,
      "Ã©s.Ġ": 2975,
      "fou": 2976,
      "................": 2977,
      "diversĠ": 2978,
      "forceĠ": 2979,
      "cru": 2980,
      ".ĠAuĠ": 2981,
      "arrÃªt": 2982,
      "gal": 2983,
      "aud": 2984,
      "euveĠ": 2985,
      "aĠdeĠ": 2986,
      "âĢŀ": 2987,
      "d'abordĠ": 2988,
      "emploiĠ": 2989,
      "as,Ġ": 2990,
      "familleĠ": 2991,
      "Åĵur": 2992,
      "Hen": 2993,
      "donnÃ©Ġ": 2994,
      "rÃ¨gl": 2995,
      "s.ĠâĢĶĠ": 2996,
      "entĠleĠ": 2997,
      "amen": 2998,
      "effectu": 2999,
      "dansĠdesĠ": 3000,
      "ateĠdeĠ": 3001,
      "temps,Ġ": 3002,
      "tempÃ©r": 3003,
      "icul": 3004,
      "phil": 3005,
      "bri": 3006,
      "entĠpasĠ": 3007,
      "util": 3008,
      "vÃ©rit": 3009,
      "99": 3010,
      "500Ġ": 3011,
      "bataill": 3012,
      "arb": 3013,
      "dÃ©pen": 3014,
      "cept": 3015,
      "favor": 3016,
      "pru": 3017,
      "heuresĠ": 3018,
      "t'": 3019,
      "soli": 3020,
      "papi": 3021,
      "ger": 3022,
      "80": 3023,
      "theĠ": 3024,
      "seĠre": 3025,
      "opÃ©rationsĠ": 3026,
      "selonĠ": 3027,
      "couver": 3028,
      "cent": 3029,
      "prÃ©sid": 3030,
      "autourĠ": 3031,
      "Ã¨deĠ": 3032,
      "devaitĠ": 3033,
      "telĠ": 3034,
      "dic": 3035,
      "CHAPI": 3036,
      "gri": 3037,
      "enĠ19": 3038,
      "Ã©eĠduĠ": 3039,
      "mauv": 3040,
      "aine,Ġ": 3041,
      "SociÃ©tÃ©Ġ": 3042,
      "radi": 3043,
      "TH": 3044,
      "touteĠlaĠ": 3045,
      "mortĠ": 3046,
      "eb": 3047,
      "orr": 3048,
      "aliment": 3049,
      "âĢĵ": 3050,
      "'ĠĊ": 3051,
      "deĠS": 3052,
      "accid": 3053,
      "Ri": 3054,
      "enseign": 3055,
      "donnerĠ": 3056,
      "existen": 3057,
      "passeĠ": 3058,
      "apport": 3059,
      "vit": 3060,
      "g,Ġ": 3061,
      "vas": 3062,
      "situationĠ": 3063,
      "n,Ġ": 3064,
      "mÃ©Ġ": 3065,
      "7,": 3066,
      "vosĠ": 3067,
      "plant": 3068,
      "Ã©dÃ©": 3069,
      "plesĠ": 3070,
      "....Ġ": 3071,
      "jâĢĻ": 3072,
      "sontĠlesĠ": 3073,
      "chosesĠ": 3074,
      "1erĠ": 3075,
      "ectionsĠ": 3076,
      "manif": 3077,
      "mur": 3078,
      ".ĠÂ»ĠĊ": 3079,
      "chlor": 3080,
      "conv": 3081,
      "ateursĠ": 3082,
      "&lt;Ġ": 3083,
      "ext": 3084,
      "her": 3085,
      "ANC": 3086,
      "seĠdÃ©": 3087,
      "65": 3088,
      "plusĠouĠ": 3089,
      "associ": 3090,
      "ferĠ": 3091,
      "Ã©eĠetĠ": 3092,
      "Tri": 3093,
      "deĠL": 3094,
      "essiv": 3095,
      "suit": 3096,
      "oir,Ġ": 3097,
      "Ã©tabliss": 3098,
      "n'aĠpasĠ": 3099,
      ")Ġ;Ġ": 3100,
      "VĠ": 3101,
      "dispositionsĠ": 3102,
      "rÃ©ti": 3103,
      "IEĠ": 3104,
      "35Ġ": 3105,
      "eraitĠ": 3106,
      "0Ġ0Ġ": 3107,
      "procÃ©d": 3108,
      "diversesĠ": 3109,
      "estĠleĠ": 3110,
      "siÃ¨cleĠ": 3111,
      "Ã©nÃ©r": 3112,
      "pagneĠ": 3113,
      "pied": 3114,
      "trodu": 3115,
      "personneĠ": 3116,
      "transport": 3117,
      "es.ĠâĢĶĠ": 3118,
      "environĠ": 3119,
      "deĠcetteĠ": 3120,
      "renseign": 3121,
      "eur.ĠĊ": 3122,
      "clo": 3123,
      "derniÃ¨reĠ": 3124,
      "pourraĠ": 3125,
      "l'in": 3126,
      "path": 3127,
      "olĠ": 3128,
      "75": 3129,
      "quiĠluiĠ": 3130,
      "80Ġ": 3131,
      "jau": 3132,
      "franÃ§aisĠ": 3133,
      "me": 3134,
      ".ĠÂ»Ġ": 3135,
      "planĠ": 3136,
      "ennemiĠ": 3137,
      "sour": 3138,
      "oisĠdeĠ": 3139,
      "quiĠs'": 3140,
      "ommeĠ": 3141,
      ".ĠPourĠ": 3142,
      "********": 3143,
      "lui,Ġ": 3144,
      "veutĠ": 3145,
      "gaz": 3146,
      "Im": 3147,
      "estĠunĠ": 3148,
      "ONĠ": 3149,
      "io": 3150,
      "hÃ©m": 3151,
      "CHAPITREĠ": 3152,
      "abilitÃ©Ġ": 3153,
      "annÃ©esĠ": 3154,
      "deux": 3155,
      "poid": 3156,
      "CesĠ": 3157,
      "dÃ©sign": 3158,
      "Por": 3159,
      ".ĠAu": 3160,
      "bure": 3161,
      "chezĠlesĠ": 3162,
      "mÃ©l": 3163,
      "finĠdeĠ": 3164,
      "d.Ġ": 3165,
      "IG": 3166,
      "groupeĠ": 3167,
      "avezĠ": 3168,
      "cop": 3169,
      "rav": 3170,
      "L.Ġ": 3171,
      "sionn": 3172,
      "ÃªmeĠ": 3173,
      "ministreĠ": 3174,
      "Arch": 3175,
      "colon": 3176,
      "meill": 3177,
      "Fr": 3178,
      "art": 3179,
      "dÃ©m": 3180,
      "desĠb": 3181,
      "Ã©sĠenĠ": 3182,
      "1Â°Ġ": 3183,
      "n'ontĠ": 3184,
      "multi": 3185,
      "eli": 3186,
      ".ĠSiĠ": 3187,
      "horsĠ": 3188,
      "ograph": 3189,
      "URĠ": 3190,
      "effetĠ": 3191,
      "a.ĠĊ": 3192,
      "droitsĠ": 3193,
      "sensi": 3194,
      "auĠmoinsĠ": 3195,
      "cultureĠ": 3196,
      "lieuĠdeĠ": 3197,
      "quiĠontĠ": 3198,
      "solutionĠ": 3199,
      "hautĠ": 3200,
      "Ã©lÃ©mentsĠ": 3201,
      "prÃ¨sĠdeĠ": 3202,
      "ceĠqueĠ": 3203,
      "vid": 3204,
      "agneĠ": 3205,
      "juinĠ19": 3206,
      "endĠ": 3207,
      "imp": 3208,
      "ennesĠ": 3209,
      "duĠb": 3210,
      "illu": 3211,
      "urĠ": 3212,
      "dansĠsaĠ": 3213,
      "ATION": 3214,
      "diĠ": 3215,
      "jeĠneĠ": 3216,
      "rÃ©gimeĠ": 3217,
      "circonst": 3218,
      "tique,Ġ": 3219,
      "aÃ®tr": 3220,
      "queĠetĠ": 3221,
      "dansĠcetteĠ": 3222,
      "ÃłĠsaĠ": 3223,
      "PRO": 3224,
      "attend": 3225,
      "Ã©dit": 3226,
      "compar": 3227,
      "attach": 3228,
      "piedĠ": 3229,
      "Ã©tudeĠ": 3230,
      "vĠ": 3231,
      ".ĠAr": 3232,
      "commeĠunĠ": 3233,
      "connaissanceĠ": 3234,
      "syn": 3235,
      "enfantĠ": 3236,
      "absol": 3237,
      "judi": 3238,
      "territ": 3239,
      "AnnexeĠ": 3240,
      "plusĠouĠmoinsĠ": 3241,
      "assembl": 3242,
      "go": 3243,
      "200Ġ": 3244,
      "physi": 3245,
      "IM": 3246,
      "sÃ»": 3247,
      "Sou": 3248,
      "attribu": 3249,
      "emmentĠ": 3250,
      "fÃ©vrierĠ": 3251,
      "tÃ´tĠ": 3252,
      "jeunesĠ": 3253,
      "ÃłĠcetteĠ": 3254,
      "cti": 3255,
      "d'in": 3256,
      "enirĠ": 3257,
      "PĠ": 3258,
      "docu": 3259,
      "centĠ": 3260,
      "travaill": 3261,
      "ementĠdeĠlaĠ": 3262,
      "c'est-Ãł-direĠ": 3263,
      "ak": 3264,
      "tonn": 3265,
      "atifĠ": 3266,
      "acĠ": 3267,
      "log": 3268,
      "nÂ°Ġ1": 3269,
      "tÃ©lÃ©": 3270,
      "avaitĠÃ©tÃ©Ġ": 3271,
      "76": 3272,
      "auĠcontr": 3273,
      "qu'ellesĠ": 3274,
      "rich": 3275,
      "conf": 3276,
      "caractÃ¨reĠ": 3277,
      "nomĠdeĠ": 3278,
      "lav": 3279,
      "nav": 3280,
      "n'yĠ": 3281,
      "aband": 3282,
      "conclu": 3283,
      "individu": 3284,
      "droitĠdeĠ": 3285,
      "paraÃ®tĠ": 3286,
      "viennentĠ": 3287,
      "tandisĠ": 3288,
      ".ĠâĢĶĠLaĠ": 3289,
      "aitĠleĠ": 3290,
      "fÃ©": 3291,
      "ents,Ġ": 3292,
      "eĠD": 3293,
      "YĠ": 3294,
      "jusquâĢĻ": 3295,
      "tribun": 3296,
      "d'ailleursĠ": 3297,
      "avecĠdesĠ": 3298,
      "Cham": 3299,
      "tion.ĠĊ": 3300,
      "(S": 3301,
      "cĠdeĠ": 3302,
      "90": 3303,
      "teĠdesĠ": 3304,
      "grammesĠ": 3305,
      "avecĠl'": 3306,
      "ENTĠ": 3307,
      "Ro": 3308,
      "de.ĠĊ": 3309,
      ".ĠNousĠ": 3310,
      "Ãĩ": 3311,
      "Paris": 3312,
      "remplac": 3313,
      "oleĠ": 3314,
      "-L": 3315,
      "riÃ¨reĠ": 3316,
      "e,ĠmaisĠ": 3317,
      "impos": 3318,
      "francsĠ": 3319,
      "tach": 3320,
      "dirig": 3321,
      "ce.Ġ": 3322,
      "queĠduĠ": 3323,
      "EU": 3324,
      "lesĠdeĠ": 3325,
      "plus,Ġ": 3326,
      "dispos": 3327,
      "3Ġ1": 3328,
      "petitesĠ": 3329,
      "signal": 3330,
      "dixĠ": 3331,
      "grosĠ": 3332,
      "difficul": 3333,
      "exerci": 3334,
      "aĠleĠ": 3335,
      "peuĠdeĠ": 3336,
      "croy": 3337,
      "propor": 3338,
      "expÃ©ri": 3339,
      "premiersĠ": 3340,
      "pÃ©di": 3341,
      "tÃ©,Ġ": 3342,
      "ent.ĠĊ": 3343,
      "d'huiĠ": 3344,
      "tourn": 3345,
      "recher": 3346,
      "antĠenĠ": 3347,
      "Jac": 3348,
      "satis": 3349,
      "longtempsĠ": 3350,
      "eu,Ġ": 3351,
      "artillerieĠ": 3352,
      "lumi": 3353,
      "Mont": 3354,
      "domin": 3355,
      "malgrÃ©Ġ": 3356,
      "rieĠ": 3357,
      "Sal": 3358,
      "esĠenĠ": 3359,
      "pli": 3360,
      "pÃ¨reĠ": 3361,
      "Ab": 3362,
      ")ĠetĠ": 3363,
      "sui": 3364,
      "aisĠdeĠ": 3365,
      "franÃ§ais": 3366,
      "axim": 3367,
      "QuandĠ": 3368,
      "color": 3369,
      "origineĠ": 3370,
      "8,": 3371,
      "concern": 3372,
      "Ã©sĠetĠ": 3373,
      "exclu": 3374,
      ".ĠDeĠ": 3375,
      "expos": 3376,
      "erĠÃłĠlaĠ": 3377,
      ":ĠleĠ": 3378,
      "aitĠlaĠ": 3379,
      "mand": 3380,
      "relativ": 3381,
      "exig": 3382,
      "Ass": 3383,
      "har": 3384,
      ");Ġ": 3385,
      "(4": 3386,
      "ancienĠ": 3387,
      "esĠdesĠ": 3388,
      "auri": 3389,
      "tteĠ": 3390,
      "diminu": 3391,
      "qu'ÃłĠ": 3392,
      "tiss": 3393,
      "dress": 3394,
      "Ã©ner": 3395,
      "ef": 3396,
      "bien": 3397,
      "agin": 3398,
      "politiqueĠ": 3399,
      "bless": 3400,
      "PH": 3401,
      "etĠuneĠ": 3402,
      "indig": 3403,
      "2-": 3404,
      "til": 3405,
      "erontĠ": 3406,
      "Uni": 3407,
      "livr": 3408,
      "ideĠ": 3409,
      ".,": 3410,
      ".ĠÂ«Ġ": 3411,
      "prol": 3412,
      "III,Ġ": 3413,
      "essenti": 3414,
      "St": 3415,
      "entu": 3416,
      "celui-": 3417,
      "nÃ©cessaireĠ": 3418,
      "70Ġ": 3419,
      "Ã©ni": 3420,
      "sseĠ": 3421,
      "Ã©ĠlesĠ": 3422,
      "erĠauxĠ": 3423,
      "ez-vousĠ": 3424,
      "dist": 3425,
      "Saint": 3426,
      "dontĠilĠ": 3427,
      "demi": 3428,
      "ost": 3429,
      "suivantĠ": 3430,
      "divisionĠ": 3431,
      "aim": 3432,
      "ologieĠ": 3433,
      "jur": 3434,
      "gardeĠ": 3435,
      "n'Ã©taitĠ": 3436,
      "huitĠ": 3437,
      "lat": 3438,
      "etĠunĠ": 3439,
      "us,Ġ": 3440,
      "dueĠ": 3441,
      "SA": 3442,
      "dri": 3443,
      "tionĠdeĠlaĠ": 3444,
      "commerceĠ": 3445,
      "eurĠduĠ": 3446,
      "32Ġ": 3447,
      "be": 3448,
      "prÃ©cis": 3449,
      "estĠuneĠ": 3450,
      "seĠtrouveĠ": 3451,
      "provin": 3452,
      "versĠleĠ": 3453,
      "local": 3454,
      "regard": 3455,
      "etĠauĠ": 3456,
      "OM": 3457,
      "titudeĠ": 3458,
      "dispositionĠ": 3459,
      "33Ġ": 3460,
      "mouvementĠ": 3461,
      "div": 3462,
      "&amp;Ġ": 3463,
      "savoirĠ": 3464,
      "public": 3465,
      "n'yĠaĠ": 3466,
      "Ã©c": 3467,
      "GU": 3468,
      "allaitĠ": 3469,
      "baseĠ": 3470,
      "combat": 3471,
      "fin,Ġ": 3472,
      "ationĠdeĠl'": 3473,
      ".ĠâĢĶĠM": 3474,
      "af": 3475,
      "sold": 3476,
      "rÃ©un": 3477,
      "ailleurs,Ġ": 3478,
      "Euro": 3479,
      ":ĠlaĠ": 3480,
      "aqu": 3481,
      "elĠdeĠ": 3482,
      "ationsĠdeĠ": 3483,
      "longĠ": 3484,
      "euses,Ġ": 3485,
      "abor": 3486,
      "s.ĠIlĠ": 3487,
      "rÃª": 3488,
      "6.ĠĊ": 3489,
      "ÅĵuvreĠ": 3490,
      "T.Ġ": 3491,
      "mm": 3492,
      "ToutĠ": 3493,
      "second": 3494,
      "obtenirĠ": 3495,
      ".ĠâĢĶĠP": 3496,
      "prÃ©senceĠ": 3497,
      "sauv": 3498,
      "e,ĠdeĠ": 3499,
      "gran": 3500,
      "rÃ©gim": 3501,
      "6.": 3502,
      "rÃ´leĠ": 3503,
      "dÃ©eĠ": 3504,
      "chĠ": 3505,
      "ment,Ġ": 3506,
      "7.ĠĊ": 3507,
      "jours,Ġ": 3508,
      "demeur": 3509,
      "maladeĠ": 3510,
      "immÃ©diat": 3511,
      "nuitĠ": 3512,
      "esĠdeĠlaĠ": 3513,
      "caus": 3514,
      "importanceĠ": 3515,
      "CU": 3516,
      "FF": 3517,
      "Ã©tendu": 3518,
      "basĠ": 3519,
      "mus": 3520,
      "servicesĠ": 3521,
      "eÃ»tĠ": 3522,
      "onĠneĠ": 3523,
      "chni": 3524,
      "andsĠ": 3525,
      "origin": 3526,
      "rencontr": 3527,
      "histoireĠ": 3528,
      "NoteĠduĠ": 3529,
      "orn": 3530,
      "couch": 3531,
      "histori": 3532,
      "sil": 3533,
      "noĠ": 3534,
      "trac": 3535,
      "E,Ġ": 3536,
      "aprÃ¨": 3537,
      "ements,Ġ": 3538,
      "(P": 3539,
      "contribu": 3540,
      "S.ĠH": 3541,
      "Ã©Ġd'": 3542,
      "oppos": 3543,
      "viend": 3544,
      "oursĠ": 3545,
      "traitĠ": 3546,
      ".ĠUnĠ": 3547,
      "transform": 3548,
      "dÃ»Ġ": 3549,
      "contreĠlesĠ": 3550,
      "cant": 3551,
      "achet": 3552,
      "abond": 3553,
      ".'": 3554,
      "gensĠ": 3555,
      "Ã©s.ĠĊ": 3556,
      "produitsĠ": 3557,
      "oti": 3558,
      "fort": 3559,
      "ale.Ġ": 3560,
      "ces,Ġ": 3561,
      "rang": 3562,
      "dÃ©Ġ": 3563,
      "|Ġ": 3564,
      "recu": 3565,
      "Mal": 3566,
      "etĠilĠ": 3567,
      "34Ġ": 3568,
      "21": 3569,
      "7.": 3570,
      "aujourd'huiĠ": 3571,
      "de.Ġ": 3572,
      "ussi": 3573,
      "dÃ©r": 3574,
      "64": 3575,
      "communeĠ": 3576,
      "estĠlaĠ": 3577,
      "publiqueĠ": 3578,
      "nombreuxĠ": 3579,
      "oeuv": 3580,
      "âĢĵĠ": 3581,
      "orieĠ": 3582,
      "prÃ©f": 3583,
      "chargeĠ": 3584,
      "civil": 3585,
      "deĠsaĠ": 3586,
      "aieĠ": 3587,
      "caractÃ©ris": 3588,
      "tax": 3589,
      "endantĠ": 3590,
      "ferm": 3591,
      "centreĠ": 3592,
      "ÃªtsĠ": 3593,
      "Ge": 3594,
      "lam": 3595,
      "empr": 3596,
      "Bar": 3597,
      "queĠcetteĠ": 3598,
      "froi": 3599,
      "pointĠdeĠvueĠ": 3600,
      "limit": 3601,
      "ofĠ": 3602,
      "ÃłĠpeuĠ": 3603,
      "hÃ´": 3604,
      "lÃ¨v": 3605,
      "bonn": 3606,
      "GĠ": 3607,
      "ins,Ġ": 3608,
      "ÃłĠleurĠ": 3609,
      "aper": 3610,
      "ait": 3611,
      "oubli": 3612,
      "accompagn": 3613,
      "personnesĠ": 3614,
      "filsĠ": 3615,
      "chacunĠ": 3616,
      "grammeĠ": 3617,
      "Ã©esĠenĠ": 3618,
      ".ĠâĢĶĠS": 3619,
      "lettresĠ": 3620,
      "x-": 3621,
      "ersĠdeĠ": 3622,
      "partirĠ": 3623,
      "exempleĠ": 3624,
      "s'agitĠ": 3625,
      "relev": 3626,
      "motĠ": 3627,
      "moiti": 3628,
      "umentĠ": 3629,
      "cellu": 3630,
      "EX": 3631,
      "BO": 3632,
      "mâĢĻ": 3633,
      "notammentĠ": 3634,
      "ISĠ": 3635,
      "cÅĵurĠ": 3636,
      "aire.ĠĊ": 3637,
      "ageĠdesĠ": 3638,
      "lui-mÃªmeĠ": 3639,
      "eurĠdesĠ": 3640,
      "avaisĠ": 3641,
      "tern": 3642,
      "sorteĠ": 3643,
      "concerneĠ": 3644,
      "Etat": 3645,
      "au-dessu": 3646,
      "propo": 3647,
      "lÃ©gisl": 3648,
      "antĠauĠ": 3649,
      "prÃ©sentĠ": 3650,
      "prud": 3651,
      "super": 3652,
      "Ã©poqueĠ": 3653,
      "profon": 3654,
      "Mari": 3655,
      "volon": 3656,
      "ographi": 3657,
      "voixĠ": 3658,
      "conten": 3659,
      "interven": 3660,
      "abs": 3661,
      "EĠ(": 3662,
      "loc": 3663,
      "Beau": 3664,
      "eng": 3665,
      "install": 3666,
      "Ġ1.": 3667,
      "annu": 3668,
      "critĠ": 3669,
      "manqu": 3670,
      "iersĠ": 3671,
      "vaiss": 3672,
      "tuber": 3673,
      "C.ĠA": 3674,
      "rÃ©sultatsĠ": 3675,
      "Rev": 3676,
      "ÃĪR": 3677,
      "introdu": 3678,
      "NoteĠduĠS.ĠH": 3679,
      "opini": 3680,
      "diam": 3681,
      "inj": 3682,
      "faisantĠ": 3683,
      "For": 3684,
      "ÃīĠ": 3685,
      "nousĠavonsĠ": 3686,
      "cas": 3687,
      "acteĠ": 3688,
      ";ĠelleĠ": 3689,
      "loinĠ": 3690,
      "Ã©si": 3691,
      "AV": 3692,
      "espÃ©r": 3693,
      "membresĠ": 3694,
      "surfaceĠ": 3695,
      "patr": 3696,
      "IX": 3697,
      "98": 3698,
      "ez,Ġ": 3699,
      "heĠ": 3700,
      "75Ġ": 3701,
      "cham": 3702,
      "clin": 3703,
      "catÃ©g": 3704,
      "obten": 3705,
      "36Ġ": 3706,
      "es.ĠIlĠ": 3707,
      "Ã©ĠÃłĠlaĠ": 3708,
      "erĠ(": 3709,
      "ENĠ": 3710,
      "omp": 3711,
      "0.00Ġ": 3712,
      "TER": 3713,
      "numÃ©r": 3714,
      "e,ĠÃłĠ": 3715,
      "Jo": 3716,
      "faitesĠ": 3717,
      "Ã¨teĠ": 3718,
      "forcesĠ": 3719,
      "influenceĠ": 3720,
      "touch": 3721,
      "y-": 3722,
      "Ren": 3723,
      "pag": 3724,
      "dontĠl'": 3725,
      "fait,Ġ": 3726,
      "isationĠ": 3727,
      "pointsĠ": 3728,
      "Ã©sĠparĠ": 3729,
      "constru": 3730,
      "particuliÃ¨rementĠ": 3731,
      "prÃ©fÃ©r": 3732,
      "munici": 3733,
      "ementsĠdeĠ": 3734,
      "Anglet": 3735,
      "pot": 3736,
      "antes,Ġ": 3737,
      "Ã©pi": 3738,
      "loisĠ": 3739,
      "plutÃ´tĠ": 3740,
      "lati": 3741,
      "voir": 3742,
      "Mad": 3743,
      "statu": 3744,
      "45Ġ": 3745,
      "consci": 3746,
      "Ã©ĠdeĠlaĠ": 3747,
      "raientĠ": 3748,
      "Ã¨l": 3749,
      "niveauĠ": 3750,
      "gÃ©nÃ©ralementĠ": 3751,
      "puisseĠ": 3752,
      "quâĢĻonĠ": 3753,
      "doubleĠ": 3754,
      "Lors": 3755,
      "citoy": 3756,
      "ridi": 3757,
      "ennemi": 3758,
      "eĠdesĠ": 3759,
      "expÃ©di": 3760,
      "troisi": 3761,
      "mobil": 3762,
      "litt": 3763,
      "alitÃ©sĠ": 3764,
      "mÃ©m": 3765,
      "adop": 3766,
      "attaqu": 3767,
      "mÃªmeĠtempsĠ": 3768,
      "peuventĠÃªtreĠ": 3769,
      "T-": 3770,
      "MO": 3771,
      "marcheĠ": 3772,
      "Ã©car": 3773,
      "diss": 3774,
      "brig": 3775,
      "J'aiĠ": 3776,
      "etĠseĠ": 3777,
      "accu": 3778,
      "ÃīN": 3779,
      "alco": 3780,
      "extrÃ©m": 3781,
      "pratiqu": 3782,
      "Ã©pou": 3783,
      "cen": 3784,
      "sousĠlesĠ": 3785,
      "fol.Ġ": 3786,
      "tre-": 3787,
      "indis": 3788,
      "n'avaitĠ": 3789,
      "Mor": 3790,
      "ant.ĠĊ": 3791,
      "criptionĠ": 3792,
      "pÃ¢": 3793,
      "Ã©ĠparĠleĠ": 3794,
      "brasĠ": 3795,
      "itreĠ": 3796,
      "grÃ¢ceĠ": 3797,
      "3-": 3798,
      "Val": 3799,
      "tif": 3800,
      "Ã©critĠ": 3801,
      "tout,Ġ": 3802,
      "prisonn": 3803,
      "propreĠ": 3804,
      "eul": 3805,
      "pectĠ": 3806,
      "enduĠ": 3807,
      "chir": 3808,
      ".,Ġp.Ġ": 3809,
      "De": 3810,
      "coursĠdeĠ": 3811,
      "pendant,Ġ": 3812,
      "auĠdÃ©": 3813,
      "Man": 3814,
      "Ã¢ch": 3815,
      "plat": 3816,
      "troupesĠ": 3817,
      "agu": 3818,
      "mÃ¨reĠ": 3819,
      ".ĠetĠ": 3820,
      "femmesĠ": 3821,
      "maintenantĠ": 3822,
      "38Ġ": 3823,
      "omeĠ": 3824,
      "cultu": 3825,
      "bro": 3826,
      "flo": 3827,
      "connaÃ®treĠ": 3828,
      "au-": 3829,
      "des,Ġ": 3830,
      "u,Ġ": 3831,
      "illi": 3832,
      "amourĠ": 3833,
      "pourĠuneĠ": 3834,
      "rÃ©c": 3835,
      "...": 3836,
      "al.ĠĊ": 3837,
      "eurĠdeĠlaĠ": 3838,
      "issentĠ": 3839,
      "siv": 3840,
      "186": 3841,
      "ette,Ġ": 3842,
      "nob": 3843,
      "apparti": 3844,
      "Ã¢treĠ": 3845,
      "Ã¨mesĠ": 3846,
      "9,": 3847,
      "iĠdeĠ": 3848,
      "chrÃ©ti": 3849,
      "admir": 3850,
      "techni": 3851,
      "Ã©qui": 3852,
      "angu": 3853,
      "minist": 3854,
      "maxim": 3855,
      "Ã¢meĠ": 3856,
      "dit-": 3857,
      "travail": 3858,
      "essionn": 3859,
      "secondĠ": 3860,
      "autreĠpart,Ġ": 3861,
      "jard": 3862,
      "flam": 3863,
      "rÃ©clam": 3864,
      "demn": 3865,
      "leĠre": 3866,
      "nouvellesĠ": 3867,
      "marsĠ19": 3868,
      "85": 3869,
      "ei": 3870,
      ";ĠonĠ": 3871,
      "(L": 3872,
      "isol": 3873,
      "crain": 3874,
      "maiĠ19": 3875,
      "atri": 3876,
      "nour": 3877,
      "autom": 3878,
      "16,Ġ": 3879,
      "eĠsiÃ¨cl": 3880,
      "elle.Ġ": 3881,
      "Ã©esĠÃłĠ": 3882,
      "autoritÃ©Ġ": 3883,
      "susĠ": 3884,
      "blanc": 3885,
      "ilsĠsontĠ": 3886,
      "teursĠ": 3887,
      "caleĠ": 3888,
      "fermeĠ": 3889,
      "aĠÃłĠ": 3890,
      "8.ĠĊ": 3891,
      "mÃ©r": 3892,
      "bass": 3893,
      "rÃ©v": 3894,
      "versĠlaĠ": 3895,
      "eh": 3896,
      "typeĠ": 3897,
      "matiÃ¨reĠ": 3898,
      "neĠsontĠpasĠ": 3899,
      "profond": 3900,
      "officiersĠ": 3901,
      "bÃ¢ti": 3902,
      "Bel": 3903,
      "accept": 3904,
      "es,ĠdesĠ": 3905,
      "voitu": 3906,
      "ordresĠ": 3907,
      "condam": 3908,
      "4Ġ1": 3909,
      "gouvernementĠ": 3910,
      "communic": 3911,
      "aprÃ¨sĠlaĠ": 3912,
      "hon": 3913,
      "MAR": 3914,
      "e,Ġl'": 3915,
      "activitÃ©Ġ": 3916,
      "den": 3917,
      "deĠl'A": 3918,
      "subst": 3919,
      "lac": 3920,
      "Sch": 3921,
      "deĠC": 3922,
      "andis": 3923,
      "Vo": 3924,
      "dig": 3925,
      "exprim": 3926,
      "soientĠ": 3927,
      "lesquelsĠ": 3928,
      "exerc": 3929,
      "portantĠ": 3930,
      "feuĠ": 3931,
      "sociÃ©tÃ©Ġ": 3932,
      "propos": 3933,
      "Ã©vÃª": 3934,
      "affir": 3935,
      "Gr": 3936,
      "major": 3937,
      "deuxiÃ¨meĠ": 3938,
      "faisaitĠ": 3939,
      "dusĠ": 3940,
      "autre,Ġ": 3941,
      "Ã©tatĠdeĠ": 3942,
      "TEĠ": 3943,
      "probl": 3944,
      "citÃ©Ġ": 3945,
      "idÃ©eĠ": 3946,
      "(A": 3947,
      "oseĠ": 3948,
      "age": 3949,
      "pourĠunĠ": 3950,
      "filleĠ": 3951,
      "opÃ©rationĠ": 3952,
      "dansĠsesĠ": 3953,
      "tienĠ": 3954,
      "plupartĠ": 3955,
      "terrainĠ": 3956,
      "dÃ©part": 3957,
      "ensĠdeĠ": 3958,
      "accompl": 3959,
      "mÃ©can": 3960,
      "AprÃ¨sĠ": 3961,
      "aĠfaitĠ": 3962,
      "grĠ": 3963,
      "Compagn": 3964,
      "an-": 3965,
      "âĢĶĠâĢĶĠ": 3966,
      ".ĠIlsĠ": 3967,
      "drap": 3968,
      "dÃ©fini": 3969,
      "quit": 3970,
      "duĠP": 3971,
      "publicĠ": 3972,
      "volumeĠ": 3973,
      "me.ĠĊ": 3974,
      "es.ĠLesĠ": 3975,
      "bord": 3976,
      ",Ġl'": 3977,
      "etĠlâĢĻ": 3978,
      "avanc": 3979,
      "sorti": 3980,
      "franÃ§aiseĠ": 3981,
      "ouĠdesĠ": 3982,
      "moyensĠ": 3983,
      "chÃ¢t": 3984,
      "86": 3985,
      "montreĠ": 3986,
      "DuĠ": 3987,
      "apprÃ©ci": 3988,
      "uneĠdesĠ": 3989,
      "arrÃªtÃ©Ġ": 3990,
      "tÃª": 3991,
      "h.Ġ": 3992,
      "lesĠdeuxĠ": 3993,
      "auĠmomentĠ": 3994,
      "re-": 3995,
      "vitĠ": 3996,
      "diffici": 3997,
      "*ĠĊ": 3998,
      "principeĠ": 3999,
      "rÃ©fl": 4000,
      "istesĠ": 4001,
      "aisesĠ": 4002,
      "(D": 4003,
      "MÃī": 4004,
      "besĠ": 4005,
      "quÃªteĠ": 4006,
      "ignor": 4007,
      "ceĠquiĠconcerneĠ": 4008,
      "garanti": 4009,
      "vieuxĠ": 4010,
      "devientĠ": 4011,
      ",ĠmaisĠ": 4012,
      "celle-": 4013,
      "pin": 4014,
      "litĠ": 4015,
      "ci-": 4016,
      "sph": 4017,
      "37Ġ": 4018,
      "hou": 4019,
      "saufĠ": 4020,
      "mic": 4021,
      "gross": 4022,
      "surveill": 4023,
      "consomm": 4024,
      "Ãīt": 4025,
      "tradu": 4026,
      "saintĠ": 4027,
      "PierreĠ": 4028,
      "erĠdeĠlaĠ": 4029,
      "aireĠduĠ": 4030,
      "bo": 4031,
      "livreĠ": 4032,
      "74": 4033,
      "aĠpasĠ": 4034,
      "termesĠ": 4035,
      "Rob": 4036,
      "5Ġ1": 4037,
      "pendantĠlaĠ": 4038,
      "fait": 4039,
      "mort": 4040,
      "erĠsonĠ": 4041,
      "Ã©paiss": 4042,
      "EC": 4043,
      "deĠleurĠ": 4044,
      "Un": 4045,
      "dÃ©cembreĠ": 4046,
      "es,ĠleĠ": 4047,
      "ci-dessu": 4048,
      "psy": 4049,
      ".ĠTou": 4050,
      "frapp": 4051,
      "LU": 4052,
      "chass": 4053,
      "asi": 4054,
      "abandonn": 4055,
      "pageĠ": 4056,
      "tableauĠ": 4057,
      "oÃ¹ĠlesĠ": 4058,
      "profess": 4059,
      "alt": 4060,
      "gÃ©ni": 4061,
      "volont": 4062,
      "Ac": 4063,
      "rifi": 4064,
      "doiventĠÃªtreĠ": 4065,
      "entsĠdeĠ": 4066,
      "tivementĠ": 4067,
      "signifi": 4068,
      "culeĠ": 4069,
      "maÃ®treĠ": 4070,
      "ons": 4071,
      "tiveĠ": 4072,
      "s'yĠ": 4073,
      "Ins": 4074,
      "surĠdesĠ": 4075,
      "prolong": 4076,
      "0.ĠĊ": 4077,
      "ert": 4078,
      "expliqu": 4079,
      "toutĠÃłĠ": 4080,
      "Ã¢g": 4081,
      "tionsĠdeĠ": 4082,
      "naiss": 4083,
      "ĠDESĠ": 4084,
      "tari": 4085,
      "ARD": 4086,
      "chin": 4087,
      "commeĠleĠ": 4088,
      "Ã©criv": 4089,
      "commerci": 4090,
      "age.Ġ": 4091,
      "mais,Ġ": 4092,
      "AB": 4093,
      "crÃ©anci": 4094,
      "empor": 4095,
      "Gouvern": 4096,
      "--------------------------------": 4097,
      "insĠdeĠ": 4098,
      "cm": 4099,
      "(3)Ġ": 4100,
      "tiqu": 4101,
      "amĠ": 4102,
      "premiÃ¨resĠ": 4103,
      "angeĠ": 4104,
      "antĠduĠ": 4105,
      "coupĠ": 4106,
      "aillesĠ": 4107,
      "0.0": 4108,
      "quar": 4109,
      "voil": 4110,
      "ep": 4111,
      "milleĠ": 4112,
      "nordĠ": 4113,
      "32": 4114,
      "Ly": 4115,
      "certaineĠ": 4116,
      "argentĠ": 4117,
      "olÃ©": 4118,
      "aient,Ġ": 4119,
      "paraiss": 4120,
      "curi": 4121,
      "ayĠ": 4122,
      "chal": 4123,
      "GÃ©nÃ©r": 4124,
      "boutĠ": 4125,
      "G.Ġ": 4126,
      ":ĠâĢĶĠ": 4127,
      "e,ĠquiĠ": 4128,
      "livresĠ": 4129,
      "Per": 4130,
      "conseilĠ": 4131,
      "Ã©esĠetĠ": 4132,
      "lit": 4133,
      "tantĠdeĠ": 4134,
      "phon": 4135,
      "queĠcesĠ": 4136,
      ":ĠlesĠ": 4137,
      "quâĢĻelleĠ": 4138,
      "biensĠ": 4139,
      "belleĠ": 4140,
      "Ã©gr": 4141,
      "tant": 4142,
      ".Ġ190": 4143,
      "dil": 4144,
      "ent-": 4145,
      "Bor": 4146,
      "demi-": 4147,
      "NĠ": 4148,
      "Il": 4149,
      "Vill": 4150,
      "conform": 4151,
      "ilĠseĠ": 4152,
      "noteĠ": 4153,
      "rappel": 4154,
      "lesquellesĠ": 4155,
      "verti": 4156,
      "embr": 4157,
      "oÃ¹ĠlaĠ": 4158,
      "s,ĠetĠ": 4159,
      "autĠ": 4160,
      "renduĠ": 4161,
      "es.ĠLeĠ": 4162,
      "parĠexempl": 4163,
      "SU": 4164,
      "bis": 4165,
      "son": 4166,
      "marchandis": 4167,
      "jour,Ġ": 4168,
      "glob": 4169,
      "anceĠdeĠ": 4170,
      "vend": 4171,
      "Ã©sĠauĠ": 4172,
      "certain": 4173,
      "siĠleĠ": 4174,
      "cepti": 4175,
      "fum": 4176,
      "RÃī": 4177,
      "efĠ": 4178,
      "bÃ©nÃ©fi": 4179,
      "commeĠuneĠ": 4180,
      "lÃ©gu": 4181,
      "8.": 4182,
      "emprun": 4183,
      "usageĠ": 4184,
      "es,ĠdeĠ": 4185,
      "analo": 4186,
      "bel": 4187,
      "Hist": 4188,
      "scul": 4189,
      "Pi": 4190,
      "suivreĠ": 4191,
      "suitĠ": 4192,
      "secondeĠ": 4193,
      "examenĠ": 4194,
      "87": 4195,
      "BER": 4196,
      ",ĠquiĠ": 4197,
      "affairesĠ": 4198,
      "Ã©es.Ġ": 4199,
      "oteĠ": 4200,
      ")Ġ:Ġ": 4201,
      "Ã©tat": 4202,
      "batter": 4203,
      "lui": 4204,
      "sommeĠ": 4205,
      "iĠĊ": 4206,
      "complÃ¨tementĠ": 4207,
      "patri": 4208,
      "Ã©es.ĠĊ": 4209,
      "existenceĠ": 4210,
      "troisiÃ¨meĠ": 4211,
      "AD": 4212,
      "appro": 4213,
      "occasionĠ": 4214,
      "septembreĠ": 4215,
      "pÃ©nÃ©tr": 4216,
      "vall": 4217,
      "tim": 4218,
      "9.ĠĊ": 4219,
      "vÃ©ritableĠ": 4220,
      "Ã¨treĠ": 4221,
      "antsĠdeĠ": 4222,
      "obs": 4223,
      "oÃ¹ĠleĠ": 4224,
      "de),Ġ": 4225,
      "suppl": 4226,
      "Ã¨geĠ": 4227,
      ".Ġ:Ġ": 4228,
      "suĠ": 4229,
      "(fig.Ġ": 4230,
      "justifi": 4231,
      "4Â°Ġ": 4232,
      "resseĠ": 4233,
      "jusqu'auĠ": 4234,
      "enlev": 4235,
      "erĠd'": 4236,
      "rÃ©ci": 4237,
      "enseĠ": 4238,
      "feuill": 4239,
      "routeĠ": 4240,
      "cach": 4241,
      "mainten": 4242,
      "9.": 4243,
      "durÃ©eĠ": 4244,
      "re.Ġ": 4245,
      "itÃ´tĠ": 4246,
      "BL": 4247,
      ".ĠâĢĶĠD": 4248,
      "Franc": 4249,
      "beauĠ": 4250,
      "pill": 4251,
      "articlesĠ": 4252,
      "wĠ": 4253,
      "EAU": 4254,
      "procur": 4255,
      "longueĠ": 4256,
      "90Ġ": 4257,
      "tÃ©m": 4258,
      "antĠunĠ": 4259,
      "lÃł,Ġ": 4260,
      "orient": 4261,
      "peupleĠ": 4262,
      "sect": 4263,
      "ssiĠ": 4264,
      "bient": 4265,
      "Ã©eĠdesĠ": 4266,
      "delÃłĠ": 4267,
      "yĠavaitĠ": 4268,
      ".ĠCe": 4269,
      ".).ĠĊ": 4270,
      "fron": 4271,
      "Po": 4272,
      "cath": 4273,
      "estĠenĠ": 4274,
      "antĠuneĠ": 4275,
      "aprÃ¨sĠavoirĠ": 4276,
      "entend": 4277,
      "actesĠ": 4278,
      "ilĠaĠ": 4279,
      "monn": 4280,
      "ungĠ": 4281,
      "AIR": 4282,
      "(art.Ġ": 4283,
      "bilitÃ©Ġ": 4284,
      "dansĠcesĠ": 4285,
      "fourni": 4286,
      "chim": 4287,
      "EUR": 4288,
      "distingu": 4289,
      "ertĠ": 4290,
      "ter,Ġ": 4291,
      "appelleĠ": 4292,
      "Nord": 4293,
      "Ã©ĠunĠ": 4294,
      "vraiĠ": 4295,
      "IIIĠ": 4296,
      "ementĠetĠ": 4297,
      "au,Ġ": 4298,
      "gÃ©nÃ©ral,Ġ": 4299,
      "formu": 4300,
      "IĠĊ": 4301,
      "sansĠdouteĠ": 4302,
      "Est": 4303,
      "Ã©pr": 4304,
      "ÃłĠsesĠ": 4305,
      "oireĠdeĠ": 4306,
      "devoirĠ": 4307,
      "traversĠ": 4308,
      ",,Ġ": 4309,
      "17,Ġ": 4310,
      "nombreusesĠ": 4311,
      "qualitÃ©Ġ": 4312,
      "empÃªch": 4313,
      "dÃ©tail": 4314,
      "enĠeffet,Ġ": 4315,
      "ait-": 4316,
      "tensionĠ": 4317,
      "00ĠĊ": 4318,
      "e.ĠCeĠ": 4319,
      "capitaineĠ": 4320,
      "_Ġ": 4321,
      "bordĠ": 4322,
      "NEĠ": 4323,
      "plus": 4324,
      "parmiĠlesĠ": 4325,
      "Guill": 4326,
      "guerre,Ġ": 4327,
      "strieĠ": 4328,
      "administrationĠ": 4329,
      "aneĠ": 4330,
      "laĠrÃ©": 4331,
      "AND": 4332,
      "rÃ©esĠ": 4333,
      "Gar": 4334,
      "enĠestĠ": 4335,
      "menti": 4336,
      "seraientĠ": 4337,
      "Ã©esĠparĠ": 4338,
      "var": 4339,
      "consac": 4340,
      "esc": 4341,
      "sĠd'": 4342,
      "ente,Ġ": 4343,
      "outreĠ": 4344,
      "2.Ġ": 4345,
      "prononc": 4346,
      "Vic": 4347,
      "bien,Ġ": 4348,
      "reÃ§uĠ": 4349,
      "a.Ġ": 4350,
      "-C": 4351,
      "B.Ġ": 4352,
      "heureuxĠ": 4353,
      "ressor": 4354,
      "undĠ": 4355,
      "veuxĠ": 4356,
      "comprisĠ": 4357,
      "atoireĠ": 4358,
      "C.Ġ": 4359,
      "beaucoupĠdeĠ": 4360,
      "chos": 4361,
      "autres,Ġ": 4362,
      "rezĠ": 4363,
      "Ru": 4364,
      "39Ġ": 4365,
      "xi": 4366,
      "ÃłĠfaireĠ": 4367,
      "itÃ©.ĠĊ": 4368,
      "aoÃ»tĠ19": 4369,
      "ouĠenĠ": 4370,
      "gout": 4371,
      "blio": 4372,
      "Rec": 4373,
      "aitĠenĠ": 4374,
      "lend": 4375,
      "aumeĠ": 4376,
      "DansĠleĠ": 4377,
      "V.Ġ": 4378,
      "ficationĠ": 4379,
      "militaireĠ": 4380,
      ".A": 4381,
      "odesĠ": 4382,
      "seph": 4383,
      "allemand": 4384,
      "aideĠ": 4385,
      "vol.Ġ": 4386,
      "paixĠ": 4387,
      "ALĠ": 4388,
      "Fl": 4389,
      "It": 4390,
      "Ap": 4391,
      "armesĠ": 4392,
      "eurs.Ġ": 4393,
      "nÃ©cessairesĠ": 4394,
      "sontĠdesĠ": 4395,
      "pati": 4396,
      "distribu": 4397,
      "enir": 4398,
      "dÃ©pass": 4399,
      "jeun": 4400,
      "(5": 4401,
      "amor": 4402,
      "aĠetĠ": 4403,
      "possibl": 4404,
      "pl.Ġ": 4405,
      "d'avoirĠ": 4406,
      "ossi": 4407,
      "-B": 4408,
      "Thi": 4409,
      "Ã¨s,Ġ": 4410,
      "eaux,Ġ": 4411,
      "moyenneĠ": 4412,
      "devraĠ": 4413,
      "faudr": 4414,
      "erĠlâĢĻ": 4415,
      "rÃ©gionsĠ": 4416,
      "96": 4417,
      "ros": 4418,
      "accordĠ": 4419,
      "libertÃ©Ġ": 4420,
      "isseĠ": 4421,
      "asti": 4422,
      "Ã©glis": 4423,
      "mÃ©thodeĠ": 4424,
      "moder": 4425,
      "hypothÃ¨": 4426,
      "entraÃ®n": 4427,
      "isesĠ": 4428,
      "identi": 4429,
      "excell": 4430,
      "py": 4431,
      "erie,Ġ": 4432,
      "E.Ġ": 4433,
      "plusĠenĠ": 4434,
      "espr": 4435,
      ";ĠetĠ": 4436,
      "rentr": 4437,
      ",0Ġ": 4438,
      "tifsĠ": 4439,
      "ages,Ġ": 4440,
      "rup": 4441,
      "3eĠ": 4442,
      "gagn": 4443,
      "riv": 4444,
      "omieĠ": 4445,
      "gÃ©nÃ©ral": 4446,
      "quiĠlesĠ": 4447,
      "pireĠ": 4448,
      "derniersĠ": 4449,
      "Ain": 4450,
      "parall": 4451,
      "(N": 4452,
      "Ã©loign": 4453,
      "Ã©ph": 4454,
      "Ã©eĠparĠleĠ": 4455,
      "mesuresĠ": 4456,
      "erci": 4457,
      "diffÃ©rentsĠ": 4458,
      "amour": 4459,
      "liquideĠ": 4460,
      "e.ĠMaisĠ": 4461,
      "dessousĠ": 4462,
      "unsĠ": 4463,
      "siĠlaĠ": 4464,
      "etc.,Ġ": 4465,
      "dÃ©couver": 4466,
      "intÃ©rieurĠ": 4467,
      "EMENTĠ": 4468,
      "âĢŀĠ": 4469,
      "euĠdeĠ": 4470,
      "dÃ©sĠ": 4471,
      "eurĠetĠ": 4472,
      "entĠetĠ": 4473,
      "esteĠ": 4474,
      "titresĠ": 4475,
      "figureĠ": 4476,
      "42Ġ": 4477,
      "mainsĠ": 4478,
      "antĠdeĠlaĠ": 4479,
      "MEĠ": 4480,
      "guesĠ": 4481,
      "tein": 4482,
      "bron": 4483,
      "supÃ©rieureĠ": 4484,
      "net": 4485,
      "SS": 4486,
      "vouluĠ": 4487,
      "15,Ġ": 4488,
      "TIQU": 4489,
      "kilomÃ¨": 4490,
      "lendem": 4491,
      "2)Ġ": 4492,
      "ables,Ġ": 4493,
      "1/": 4494,
      "reten": 4495,
      "tar": 4496,
      "angleĠ": 4497,
      "erĠqueĠ": 4498,
      "rÃ©par": 4499,
      "Ã©b": 4500,
      "divis": 4501,
      "ouvriersĠ": 4502,
      "constructionĠ": 4503,
      "initi": 4504,
      "permet": 4505,
      "alĠdesĠ": 4506,
      "quesĠetĠ": 4507,
      "auĠmoyenĠ": 4508,
      "dÃ©ri": 4509,
      "S'": 4510,
      "deĠlaĠC": 4511,
      "e.ĠElleĠ": 4512,
      "b)Ġ": 4513,
      "seĠsontĠ": 4514,
      "180": 4515,
      "Ġ15": 4516,
      "piÃ¨ceĠ": 4517,
      "diffÃ©rentesĠ": 4518,
      "eauĠdeĠ": 4519,
      "examin": 4520,
      "Ã§aĠ": 4521,
      "agrÃ©": 4522,
      "..ĠĊ": 4523,
      "Ã©Ġl'": 4524,
      "duĠM": 4525,
      "besoinĠ": 4526,
      "PrÃ©sid": 4527,
      "anni": 4528,
      "fraisĠ": 4529,
      "ordinaireĠ": 4530,
      "atifsĠ": 4531,
      "plaisi": 4532,
      "DEĠLAĠ": 4533,
      "e.ĠL'": 4534,
      "littÃ©r": 4535,
      "aig": 4536,
      "Ã©gl": 4537,
      "d'Ar": 4538,
      "hydro": 4539,
      "roitĠ": 4540,
      "avisĠ": 4541,
      "rougeĠ": 4542,
      "ÃĢ": 4543,
      "nomin": 4544,
      "eronsĠ": 4545,
      "deĠlaĠS": 4546,
      "moinsĠdeĠ": 4547,
      "Ã©gardĠ": 4548,
      "passageĠ": 4549,
      "auquelĠ": 4550,
      "Joseph": 4551,
      "antĠauxĠ": 4552,
      "atteintĠ": 4553,
      "res,Ġ": 4554,
      "fleursĠ": 4555,
      "Ã©vÃ©n": 4556,
      "intÃ©rÃªtsĠ": 4557,
      "4-": 4558,
      "carbon": 4559,
      "41Ġ": 4560,
      "insuffis": 4561,
      "ceĠqu'ilĠ": 4562,
      "octr": 4563,
      "celui-ciĠ": 4564,
      "NO": 4565,
      "dÃ©tru": 4566,
      "manifest": 4567,
      "EllesĠ": 4568,
      "courtĠ": 4569,
      "Gen": 4570,
      "erre,Ġ": 4571,
      "indemn": 4572,
      "nomm": 4573,
      ".I": 4574,
      "allerĠ": 4575,
      "non": 4576,
      "moi,Ġ": 4577,
      "internation": 4578,
      "registr": 4579,
      "ajout": 4580,
      "condamn": 4581,
      "Direc": 4582,
      "renseignementsĠ": 4583,
      "personnelĠ": 4584,
      "entreĠleĠ": 4585,
      "oriz": 4586,
      "abou": 4587,
      "es.ĠLaĠ": 4588,
      "comprendĠ": 4589,
      "commen": 4590,
      "Ã©tablirĠ": 4591,
      "desĠdeuxĠ": 4592,
      "offensi": 4593,
      "-P": 4594,
      ".âĢĶĠ": 4595,
      "chou": 4596,
      "dÃ©cor": 4597,
      "principa": 4598,
      "osph": 4599,
      "ci,Ġ": 4600,
      "cos": 4601,
      "parois": 4602,
      "acu": 4603,
      "normal": 4604,
      "etĠauxĠ": 4605,
      "ique,Ġ": 4606,
      "rÃ©,Ġ": 4607,
      "Ã©clair": 4608,
      "imagin": 4609,
      "saitĠ": 4610,
      "nonĠseulementĠ": 4611,
      "montantĠ": 4612,
      "matiÃ¨resĠ": 4613,
      "queĠj'": 4614,
      "accro": 4615,
      "rit": 4616,
      "aĠl'": 4617,
      "immeu": 4618,
      "185": 4619,
      "ouvrirĠ": 4620,
      "Ã©prouv": 4621,
      "classeĠ": 4622,
      "espa": 4623,
      "coli": 4624,
      "vÃ©g": 4625,
      ".ĠâĢĶĠ(": 4626,
      "quantitÃ©Ġ": 4627,
      "astr": 4628,
      "derriÃ¨reĠ": 4629,
      "flu": 4630,
      "14,Ġ": 4631,
      "Chris": 4632,
      "contre-": 4633,
      "Her": 4634,
      "dÃ©tach": 4635,
      "catĠ": 4636,
      "taleĠ": 4637,
      "intel": 4638,
      "Ã©volutionĠ": 4639,
      "jamb": 4640,
      "entĠuneĠ": 4641,
      "eurs": 4642,
      "mÃ´": 4643,
      "miseĠenĠ": 4644,
      "icil": 4645,
      "provoqu": 4646,
      "ot,Ġ": 4647,
      "duĠT": 4648,
      ";Ġl'": 4649,
      "97": 4650,
      "quâĢĻilsĠ": 4651,
      "vain": 4652,
      "auraientĠ": 4653,
      "ons-": 4654,
      "philos": 4655,
      "sant": 4656,
      "aĠuneĠ": 4657,
      "deĠre": 4658,
      "pourquoiĠ": 4659,
      "recevoirĠ": 4660,
      "mach": 4661,
      "propriÃ©tÃ©Ġ": 4662,
      "sudĠ": 4663,
      "solĠ": 4664,
      "eux.ĠĊ": 4665,
      "arriveĠ": 4666,
      "nâĢĻestĠpasĠ": 4667,
      "foli": 4668,
      "franch": 4669,
      "câĢĻ": 4670,
      "catholi": 4671,
      "judici": 4672,
      "colesĠ": 4673,
      "DansĠlesĠ": 4674,
      "mass": 4675,
      ".ĠIlĠestĠ": 4676,
      "novembreĠ": 4677,
      "entĠduĠ": 4678,
      "embour": 4679,
      "odi": 4680,
      "culaireĠ": 4681,
      "aĠ(": 4682,
      "esĠ(": 4683,
      "AĠlaĠ": 4684,
      "rÃ´": 4685,
      "l'aĠ": 4686,
      "intermÃ©di": 4687,
      "deĠlaĠloiĠduĠ": 4688,
      "cass": 4689,
      "LÃ©": 4690,
      "Tur": 4691,
      "quelque": 4692,
      "48Ġ": 4693,
      "brÃ»": 4694,
      "natu": 4695,
      "es,ĠlaĠ": 4696,
      "M.ĠleĠ": 4697,
      "10,Ġ": 4698,
      "rog": 4699,
      "e.ĠC'estĠ": 4700,
      "rapproch": 4701,
      "Ã¨re.ĠĊ": 4702,
      "antĠÃłĠlaĠ": 4703,
      "occupa": 4704,
      "12,Ġ": 4705,
      "Â®": 4706,
      ",,": 4707,
      "quoi": 4708,
      "5-": 4709,
      ".ĠCâĢĻestĠ": 4710,
      "pan": 4711,
      "partementĠ": 4712,
      "troublesĠ": 4713,
      "s,ĠÃłĠ": 4714,
      "juridi": 4715,
      "lorsĠ": 4716,
      "alu": 4717,
      "amÃ©li": 4718,
      "quiĠnousĠ": 4719,
      "um,Ġ": 4720,
      "aph": 4721,
      "objetĠ": 4722,
      "c'Ã©taitĠ": 4723,
      "fid": 4724,
      "s'Ã©t": 4725,
      "laisseĠ": 4726,
      "Ãı": 4727,
      "motsĠ": 4728,
      "culesĠ": 4729,
      "assuran": 4730,
      "largeĠ": 4731,
      "contac": 4732,
      "langueĠ": 4733,
      "puissanceĠ": 4734,
      "blementĠ": 4735,
      "etĠsesĠ": 4736,
      "is.ĠĊ": 4737,
      "etsĠdeĠ": 4738,
      "59Ġ": 4739,
      "colonneĠ": 4740,
      "Â°.ĠĊ": 4741,
      "aitĠlesĠ": 4742,
      "besoin": 4743,
      "just": 4744,
      "quelcon": 4745,
      "infant": 4746,
      "lÃ©sionsĠ": 4747,
      "indispens": 4748,
      "jeĠvousĠ": 4749,
      "pil": 4750,
      "d'hu": 4751,
      "pasĠÃłĠ": 4752,
      "indÃ©pend": 4753,
      "essay": 4754,
      "simul": 4755,
      "phÃ©nomÃ¨": 4756,
      "sÃ©r": 4757,
      "etĠsonĠ": 4758,
      "accus": 4759,
      "Voy": 4760,
      "commentĠ": 4761,
      "suscepti": 4762,
      "directionĠ": 4763,
      "rÃ©serveĠ": 4764,
      ".ĠD'": 4765,
      "uresĠ": 4766,
      "amÃ©lior": 4767,
      "minim": 4768,
      "Tran": 4769,
      "cultiv": 4770,
      "directementĠ": 4771,
      "imprim": 4772,
      "vul": 4773,
      "NeĠ": 4774,
      "outre,Ġ": 4775,
      "hauteĠ": 4776,
      "Dou": 4777,
      ".ĠUneĠ": 4778,
      "49Ġ": 4779,
      "ou,Ġ": 4780,
      "cylin": 4781,
      "immÃ©diatementĠ": 4782,
      "itÃ©ĠduĠ": 4783,
      "pays": 4784,
      "tempsĠdeĠ": 4785,
      "SansĠ": 4786,
      "deĠP": 4787,
      "dÃ©cid": 4788,
      "oo": 4789,
      "...,Ġ": 4790,
      "avantageĠ": 4791,
      "ck": 4792,
      "CommeĠ": 4793,
      "erg": 4794,
      "eilli": 4795,
      "lanc": 4796,
      "entreĠlaĠ": 4797,
      "Ban": 4798,
      "yl": 4799,
      "kilo": 4800,
      "(J": 4801,
      "mang": 4802,
      "endi": 4803,
      "erĠÃłĠl'": 4804,
      "ILL": 4805,
      "lumiÃ¨reĠ": 4806,
      "43Ġ": 4807,
      "voisin": 4808,
      "Ã©ĠuneĠ": 4809,
      "permett": 4810,
      "ANT": 4811,
      "olesĠ": 4812,
      "alitÃ©,Ġ": 4813,
      "proven": 4814,
      "euxĠetĠ": 4815,
      "CharlesĠ": 4816,
      "sangĠ": 4817,
      "s'Ã©taitĠ": 4818,
      "instructionĠ": 4819,
      "faibleĠ": 4820,
      ".ĠAn": 4821,
      "AIS": 4822,
      "chant": 4823,
      "Er": 4824,
      "ale.ĠĊ": 4825,
      "Ã¨sĠdeĠ": 4826,
      "guÃ¨reĠ": 4827,
      ".ĠCon": 4828,
      "Nic": 4829,
      "Mais,Ġ": 4830,
      ".ĠâĢĶĠL": 4831,
      "trÃ©": 4832,
      "combin": 4833,
      "erĠpourĠ": 4834,
      "sen": 4835,
      "emĠ": 4836,
      "auteurĠ": 4837,
      "hÃ©ri": 4838,
      "e).ĠĊ": 4839,
      "eg": 4840,
      "dansĠleurĠ": 4841,
      "s,ĠleĠ": 4842,
      "blancĠ": 4843,
      "texteĠ": 4844,
      "flor": 4845,
      "dÃ©ci": 4846,
      "d-": 4847,
      "famili": 4848,
      ".).Ġ": 4849,
      "NousĠavonsĠ": 4850,
      "bourge": 4851,
      "Ni": 4852,
      "d'enĠ": 4853,
      "Ã¢geĠ": 4854,
      "DansĠlaĠ": 4855,
      "dÃ©bit": 4856,
      "cell": 4857,
      "aly": 4858,
      "aseĠ": 4859,
      "atif": 4860,
      "-19": 4861,
      "surĠceĠ": 4862,
      "Q.ĠG": 4863,
      "hyper": 4864,
      "44Ġ": 4865,
      "ÃĬ": 4866,
      "HenriĠ": 4867,
      "pereurĠ": 4868,
      "Mat": 4869,
      "transportĠ": 4870,
      "maladesĠ": 4871,
      "sent": 4872,
      "justiceĠ": 4873,
      "tesĠetĠ": 4874,
      "0.000Ġ": 4875,
      "ationĠestĠ": 4876,
      "cab": 4877,
      "es)Ġ": 4878,
      "frag": 4879,
      "issantĠ": 4880,
      "Trib": 4881,
      "Trai": 4882,
      "malad": 4883,
      "rÃ©sist": 4884,
      "Â©": 4885,
      "onĠ(": 4886,
      "peupl": 4887,
      "bertĠ": 4888,
      "gÃ¨neĠ": 4889,
      "roi": 4890,
      "eĠduĠ": 4891,
      "aĠunĠ": 4892,
      ":Ġ1Â°Ġ": 4893,
      "oirsĠ": 4894,
      "9Ġ1": 4895,
      "ilip": 4896,
      "refus": 4897,
      "RI": 4898,
      "EMENT": 4899,
      "accord": 4900,
      "e,ĠonĠ": 4901,
      "v.Ġ": 4902,
      "typ": 4903,
      "telsĠ": 4904,
      "jeĠmeĠ": 4905,
      "Peti": 4906,
      "auĠcoursĠ": 4907,
      "chois": 4908,
      "ung": 4909,
      "deĠG": 4910,
      "arriÃ¨reĠ": 4911,
      "CommissionĠ": 4912,
      ".ĠâĢĶĠL'": 4913,
      "colonelĠ": 4914,
      "JeĠneĠ": 4915,
      "dehorsĠ": 4916,
      "le-": 4917,
      "chauff": 4918,
      "COM": 4919,
      "sujetĠ": 4920,
      "toute": 4921,
      "toi": 4922,
      "travers": 4923,
      "e.ĠEnĠ": 4924,
      "roug": 4925,
      "rÃ©uni": 4926,
      "commiss": 4927,
      "formeĠdeĠ": 4928,
      "teĠÃłĠ": 4929,
      "ouĠlaĠ": 4930,
      "Ã©ĠpourĠ": 4931,
      "100": 4932,
      "ressour": 4933,
      "rivi": 4934,
      "e,": 4935,
      "intellig": 4936,
      "TÃ©lÃ©": 4937,
      "cÅĵur": 4938,
      "mitr": 4939,
      "iques,Ġ": 4940,
      "circonstancesĠ": 4941,
      "Cour": 4942,
      "res.ĠĊ": 4943,
      "objetsĠ": 4944,
      "6Ġ1": 4945,
      "8Ġ1": 4946,
      "Ã¨nesĠ": 4947,
      "industrieĠ": 4948,
      "JÃ©": 4949,
      "foiĠ": 4950,
      "âĢĶâĢĶ": 4951,
      "courantĠ": 4952,
      "ellesĠsontĠ": 4953,
      "OL": 4954,
      "rendĠ": 4955,
      "successiv": 4956,
      "produireĠ": 4957,
      "sult": 4958,
      "cardi": 4959,
      "verb": 4960,
      "septĠ": 4961,
      "coutu": 4962,
      "bourg": 4963,
      "esĠsontĠ": 4964,
      "constitueĠ": 4965,
      "confir": 4966,
      "produis": 4967,
      "conditionĠ": 4968,
      "ancienneĠ": 4969,
      "Ã©Ġ:Ġ": 4970,
      "forteĠ": 4971,
      "nÃ©goci": 4972,
      "Is": 4973,
      "ets,Ġ": 4974,
      ".ĠPar": 4975,
      "DÃ©cr": 4976,
      "agno": 4977,
      "Ã©lÃ¨v": 4978,
      "Cap": 4979,
      "ationĠenĠ": 4980,
      "extrÃª": 4981,
      "hos": 4982,
      "sectionĠ": 4983,
      "ts": 4984,
      "usĠdeĠ": 4985,
      "Ã©gi": 4986,
      "chamb": 4987,
      "qu'ilĠestĠ": 4988,
      "D.Ġ": 4989,
      "7Ġ1": 4990,
      "chu": 4991,
      "tructionsĠ": 4992,
      "bliothÃ¨": 4993,
      "quiĠenĠ": 4994,
      "onĠduĠ": 4995,
      "d'eauĠ": 4996,
      "e)": 4997,
      "bientÃ´tĠ": 4998,
      "vÃ©gÃ©t": 4999,
      "hal": 5000,
      "horiz": 5001,
      "contreĠlaĠ": 5002,
      "vingtĠ": 5003,
      "confÃ©r": 5004,
      "dout": 5005,
      "vap": 5006,
      "privil": 5007,
      "simplementĠ": 5008,
      "mas": 5009,
      "entĠunĠ": 5010,
      "bill": 5011,
      "Qu'": 5012,
      "retrouv": 5013,
      "tempÃ©ratureĠ": 5014,
      "95": 5015,
      "ANN": 5016,
      "avrilĠ19": 5017,
      "servirĠ": 5018,
      "Ã©Ġ(": 5019,
      "derniÃ¨resĠ": 5020,
      "178": 5021,
      "P.Ġ": 5022,
      "ÃłĠseĠ": 5023,
      "Ã©gliseĠ": 5024,
      "NÂ°Ġ": 5025,
      "ait-ilĠ": 5026,
      "age.ĠĊ": 5027,
      "zoneĠ": 5028,
      "RĠ": 5029,
      "aperÃ§": 5030,
      "3.Ġ": 5031,
      "Ã©ĠauxĠ": 5032,
      "Ã¢tĠ": 5033,
      "Ã©vid": 5034,
      "ami": 5035,
      "onnementĠ": 5036,
      "?ĠâĢĶĠ": 5037,
      "18,Ġ": 5038,
      "leĠetĠ": 5039,
      "vingt-": 5040,
      "aulĠ": 5041,
      "urg": 5042,
      "ONN": 5043,
      "onĠetĠ": 5044,
      "300Ġ": 5045,
      "ditsĠ": 5046,
      "ouĠleĠ": 5047,
      "entĠdeĠlaĠ": 5048,
      "ise,Ġ": 5049,
      "Ã©eĠparĠlaĠ": 5050,
      "TousĠ": 5051,
      "appareilĠ": 5052,
      "eĠenĠ": 5053,
      "reĠetĠ": 5054,
      "Ã©tÃ©,Ġ": 5055,
      "vÃ©ri": 5056,
      "entĠauĠ": 5057,
      "es,ĠmaisĠ": 5058,
      "suffitĠ": 5059,
      "espÃ¨cesĠ": 5060,
      "estin": 5061,
      "erĠsaĠ": 5062,
      "11,Ġ": 5063,
      "TIONSĠ": 5064,
      "possÃ©d": 5065,
      "SaĠ": 5066,
      "rapp": 5067,
      ".ĠSurĠ": 5068,
      "entĠl'": 5069,
      "actuellementĠ": 5070,
      "dit,Ġ": 5071,
      "dÃ©sir": 5072,
      "vientĠdeĠ": 5073,
      "courirĠ": 5074,
      "ouss": 5075,
      "yp": 5076,
      "queĠnousĠavonsĠ": 5077,
      "a-t-ilĠ": 5078,
      "pÃ©ti": 5079,
      "Ang": 5080,
      "regar": 5081,
      "ult": 5082,
      "AUXĠ": 5083,
      "succÃ¨sĠ": 5084,
      "(i": 5085,
      "voudr": 5086,
      "dÃ©cretĠduĠ": 5087,
      "domm": 5088,
      "AmÃ©ri": 5089,
      "tiennentĠ": 5090,
      "armÃ©esĠ": 5091,
      "DÃī": 5092,
      "fonctionĠ": 5093,
      "ib": 5094,
      "stati": 5095,
      "anceĠduĠ": 5096,
      "laisserĠ": 5097,
      "Ã©ment": 5098,
      "nouveauxĠ": 5099,
      "fÃ»tĠ": 5100,
      "suite,Ġ": 5101,
      "gÃ©nÃ©ralĠcommand": 5102,
      "qu'ilĠaĠ": 5103,
      "ingĠ": 5104,
      "aitĠunĠ": 5105,
      "Co": 5106,
      "Cal": 5107,
      "yĠ(": 5108,
      "esse,Ġ": 5109,
      "aussitÃ´tĠ": 5110,
      "calcul": 5111,
      "rÃ©parti": 5112,
      "ainsiĠqueĠ": 5113,
      "Ã©ĠparĠlaĠ": 5114,
      "d'O": 5115,
      "Mi": 5116,
      "effetsĠ": 5117,
      "-S": 5118,
      "conseill": 5119,
      "Ã¨d": 5120,
      "parĠlâĢĻ": 5121,
      "souri": 5122,
      "rÃ©sultatĠ": 5123,
      "UL": 5124,
      "diteĠ": 5125,
      "demmentĠ": 5126,
      "mitĠ": 5127,
      "ais.Ġ": 5128,
      "commissionĠ": 5129,
      "effecti": 5130,
      "etc.ĠĊ": 5131,
      "oÃ®": 5132,
      "(1).ĠĊ": 5133,
      "aussi,Ġ": 5134,
      "intÃ©gr": 5135,
      "pp.Ġ": 5136,
      "qu'ilĠneĠ": 5137,
      "turesĠ": 5138,
      "erĠavecĠ": 5139,
      "solid": 5140,
      "0/": 5141,
      "micro": 5142,
      "ly": 5143,
      "ronsĠ": 5144,
      "er.Ġ": 5145,
      "d'E": 5146,
      "1)Ġ": 5147,
      "manu": 5148,
      "sĠÃłĠ": 5149,
      ",ĠS": 5150,
      "46Ġ": 5151,
      "vent": 5152,
      "Ã¨g": 5153,
      "FranÃ§oisĠ": 5154,
      "Reim": 5155,
      "subi": 5156,
      "fis": 5157,
      "ERĠ": 5158,
      "Pour": 5159,
      "(B": 5160,
      "recherch": 5161,
      "ants.Ġ": 5162,
      "XIV": 5163,
      "Ã©ĠÃłĠl'": 5164,
      "put": 5165,
      "bili": 5166,
      "quesĠdeĠ": 5167,
      "aineĠdeĠ": 5168,
      "sous": 5169,
      "etĠÃłĠlaĠ": 5170,
      "dire,Ġ": 5171,
      "afinĠ": 5172,
      "he": 5173,
      "foy": 5174,
      "termeĠ": 5175,
      "instr": 5176,
      "aitĠuneĠ": 5177,
      "cesĠdeuxĠ": 5178,
      "aĠenĠ": 5179,
      "etĠneĠ": 5180,
      "arron": 5181,
      "etĠs": 5182,
      "bris": 5183,
      "AllemagneĠ": 5184,
      "TuĠ": 5185,
      "thÃ©r": 5186,
      "erĠsesĠ": 5187,
      "At": 5188,
      "pourtantĠ": 5189,
      "dosĠ": 5190,
      "plein": 5191,
      "197": 5192,
      "tÃ©moign": 5193,
      "DeuxĠ": 5194,
      "fati": 5195,
      "rencontreĠ": 5196,
      "els,Ġ": 5197,
      "explic": 5198,
      "causesĠ": 5199,
      "angĠ": 5200,
      "compagnieĠ": 5201,
      "alitÃ©": 5202,
      "nous,Ġ": 5203,
      "a-t-": 5204,
      "ther": 5205,
      "bul": 5206,
      "erĠcetteĠ": 5207,
      "Chap": 5208,
      "bid": 5209,
      "surĠlâĢĻ": 5210,
      "impossibleĠ": 5211,
      "Fi": 5212,
      "soldatsĠ": 5213,
      "auĠdeĠ": 5214,
      "Ã©es": 5215,
      "pauvreĠ": 5216,
      "and,Ġ": 5217,
      "pouvoir": 5218,
      "aĠĊ": 5219,
      "Ã©esĠauĠ": 5220,
      "Haut": 5221,
      "aoÃ»": 5222,
      "onĠenĠ": 5223,
      "ENC": 5224,
      "anciensĠ": 5225,
      "nombreĠdesĠ": 5226,
      "2.ĠâĢĶĠ": 5227,
      ";ĠenĠ": 5228,
      "Hy": 5229,
      "Ãªtre,Ġ": 5230,
      "disposi": 5231,
      "croireĠ": 5232,
      "commeĠlesĠ": 5233,
      "disci": 5234,
      "embre,Ġ": 5235,
      "2,Ġp.Ġ": 5236,
      "Ã©ti": 5237,
      "supÃ©rieurĠ": 5238,
      "Itali": 5239,
      "parfai": 5240,
      "brus": 5241,
      "tradi": 5242,
      "che.Ġ": 5243,
      "rot": 5244,
      "jugeĠ": 5245,
      "professionn": 5246,
      "z,Ġ": 5247,
      "Jus": 5248,
      "Ã¨seĠ": 5249,
      "es,ĠenĠ": 5250,
      "Gi": 5251,
      "produc": 5252,
      "beaucoupĠplusĠ": 5253,
      "et-": 5254,
      "Ã©eĠdeĠlaĠ": 5255,
      "Ã¨ne,Ġ": 5256,
      ":ĠilĠ": 5257,
      "fonctionsĠ": 5258,
      "gre": 5259,
      "AUĠ": 5260,
      "cesseĠ": 5261,
      "lent": 5262,
      "vertuĠ": 5263,
      "organisationĠ": 5264,
      "Fer": 5265,
      "r.Ġ": 5266,
      "erĠparĠ": 5267,
      "13,Ġ": 5268,
      "culo": 5269,
      "pleinĠ": 5270,
      "55Ġ": 5271,
      "etĠparĠ": 5272,
      "ANG": 5273,
      "Ã©par": 5274,
      "ÃłĠlaquelleĠ": 5275,
      "mois,Ġ": 5276,
      "ques-": 5277,
      "euxĠdeĠ": 5278,
      "signeĠ": 5279,
      "militairesĠ": 5280,
      "dan": 5281,
      "te.Ġ": 5282,
      "Ã©tudesĠ": 5283,
      "musi": 5284,
      "phosph": 5285,
      "aÃ©r": 5286,
      "etĠdâĢĻ": 5287,
      "Ce": 5288,
      "osseĠ": 5289,
      "masseĠ": 5290,
      "celle-ciĠ": 5291,
      "TAB": 5292,
      "rÃ¨glesĠ": 5293,
      "en.ĠĊ": 5294,
      "lignesĠ": 5295,
      "animauxĠ": 5296,
      "dÃ©pos": 5297,
      "etĠqueĠ": 5298,
      "aiĠdeĠ": 5299,
      "ectureĠ": 5300,
      "enregistr": 5301,
      "ouvreĠ": 5302,
      "celleĠduĠ": 5303,
      "secrÃ©t": 5304,
      "-T": 5305,
      "SEC": 5306,
      "siĠlesĠ": 5307,
      "null": 5308,
      "KĠ": 5309,
      "ÃªcheĠ": 5310,
      "Ã©tablissementĠ": 5311,
      "elli": 5312,
      "celleĠdesĠ": 5313,
      "Mich": 5314,
      "noy": 5315,
      "aiguÃ«": 5316,
      "centimÃ¨tresĠ": 5317,
      "n'aiĠ": 5318,
      "Egl": 5319,
      "e.": 5320,
      "inqui": 5321,
      "plain": 5322,
      "sorteĠdeĠ": 5323,
      "auĠcontraire,Ġ": 5324,
      "MON": 5325,
      "cÃ©l": 5326,
      "stÃ©ri": 5327,
      "moni": 5328,
      "alo": 5329,
      "cadÃ©m": 5330,
      "roul": 5331,
      "neufĠ": 5332,
      "vuesĠ": 5333,
      "navi": 5334,
      "appuy": 5335,
      "deĠT": 5336,
      "tre.Ġ": 5337,
      "20,Ġ": 5338,
      "Georg": 5339,
      "aver": 5340,
      "siĠl'onĠ": 5341,
      "jo": 5342,
      "H.Ġ": 5343,
      "ceux-": 5344,
      "support": 5345,
      ".ĠC.Ġ": 5346,
      "alĠetĠ": 5347,
      "enci": 5348,
      "e.ĠCetteĠ": 5349,
      "Ã´tsĠ": 5350,
      "agnosti": 5351,
      "hydr": 5352,
      "soumisĠ": 5353,
      "primeĠ": 5354,
      "ailli": 5355,
      "thÃ©rap": 5356,
      "47Ġ": 5357,
      "ir,Ġ": 5358,
      "gÃ©nÃ©rauxĠ": 5359,
      "SER": 5360,
      "entour": 5361,
      "Ger": 5362,
      "moyenn": 5363,
      "quelquefoisĠ": 5364,
      "aspectĠ": 5365,
      "financi": 5366,
      "rÃ©col": 5367,
      "XI": 5368,
      "dens": 5369,
      "Ã©eĠÃłĠlaĠ": 5370,
      "Bo": 5371,
      "sĠenĠ": 5372,
      "ouĠÃłĠ": 5373,
      "entiÃ¨rementĠ": 5374,
      "maladieĠ": 5375,
      "ouĠbienĠ": 5376,
      "eaux": 5377,
      "encore,Ġ": 5378,
      "caractÃ¨resĠ": 5379,
      "bonsĠ": 5380,
      "s.ĠLeĠ": 5381,
      "lÃ©gÃ¨rementĠ": 5382,
      "criptionsĠ": 5383,
      "plusĠgrandeĠ": 5384,
      "y.ĠĊ": 5385,
      "partici": 5386,
      "tre.ĠĊ": 5387,
      "etĠmÃªmeĠ": 5388,
      "e...Ġ": 5389,
      "anth": 5390,
      "brill": 5391,
      "mouvementsĠ": 5392,
      "entreprisesĠ": 5393,
      "populationĠ": 5394,
      "onĠleĠ": 5395,
      "ableĠdeĠ": 5396,
      "Ã©chapp": 5397,
      "Ã¨vreĠ": 5398,
      "ons.Ġ": 5399,
      "ouill": 5400,
      "et.ĠĊ": 5401,
      "Ã¢mesĠ": 5402,
      "ouĠlesĠ": 5403,
      "Ob": 5404,
      "grÃ¨sĠ": 5405,
      "cÃ©rÃ©": 5406,
      "aires.ĠĊ": 5407,
      "juilletĠ19": 5408,
      "vontĠ": 5409,
      "ÃīTA": 5410,
      "suppos": 5411,
      "itali": 5412,
      "Ã©lectri": 5413,
      "abord": 5414,
      "compÃ©t": 5415,
      "rÃ©sistanceĠ": 5416,
      "zi": 5417,
      "saisi": 5418,
      "mol": 5419,
      "crist": 5420,
      "hÃ´pit": 5421,
      "(E": 5422,
      "Roy": 5423,
      "camp": 5424,
      "coÃ»": 5425,
      "ESĠDEĠ": 5426,
      "Philip": 5427,
      "rapidementĠ": 5428,
      "sousĠl'": 5429,
      ";ĠilsĠ": 5430,
      "artis": 5431,
      "200": 5432,
      "crireĠ": 5433,
      "eure": 5434,
      "duĠs": 5435,
      "ÃłĠpeuĠprÃ¨sĠ": 5436,
      "cardin": 5437,
      "moindreĠ": 5438,
      "danger": 5439,
      "retourĠ": 5440,
      "latÃ©r": 5441,
      ".ĠI.Ġ": 5442,
      "teraĠ": 5443,
      "volontÃ©Ġ": 5444,
      "06": 5445,
      "dimen": 5446,
      "venuĠ": 5447,
      "inform": 5448,
      "jeĠsuisĠ": 5449,
      "ARTI": 5450,
      "rÃ¨gleĠ": 5451,
      "Ã©cou": 5452,
      "COMM": 5453,
      "Quel": 5454,
      "calesĠ": 5455,
      "o.ĠĊ": 5456,
      "etÃ©Ġ": 5457,
      "supprim": 5458,
      "54Ġ": 5459,
      "arrÃªtĠ": 5460,
      "exceptionn": 5461,
      "1.ĠâĢĶĠ": 5462,
      "partieĠdeĠ": 5463,
      "Nap": 5464,
      "âĢĺ": 5465,
      "prennentĠ": 5466,
      "pros": 5467,
      "aientĠlesĠ": 5468,
      "modÃ¨leĠ": 5469,
      "Espagn": 5470,
      "renouv": 5471,
      "univers": 5472,
      "itureĠ": 5473,
      "Ã©conomiqueĠ": 5474,
      "p.": 5475,
      "pes": 5476,
      "chapitreĠ": 5477,
      "Or,Ġ": 5478,
      "hĠ!Ġ": 5479,
      "Ã©clat": 5480,
      "MmeĠ": 5481,
      "ST": 5482,
      "lâĢĻonĠ": 5483,
      "ES.ĠĊ": 5484,
      "is-": 5485,
      "graphi": 5486,
      "dureĠ": 5487,
      "domaineĠ": 5488,
      "rÃ©volu": 5489,
      "sacrifi": 5490,
      "tum": 5491,
      "affaireĠ": 5492,
      "queĠdeĠlaĠ": 5493,
      "0,0Ġ": 5494,
      "s.ĠLesĠ": 5495,
      "quoĠ": 5496,
      "elle.ĠĊ": 5497,
      "OnĠpeutĠ": 5498,
      "ographieĠ": 5499,
      "doct": 5500,
      "tellesĠ": 5501,
      "ÃłĠB": 5502,
      "relationsĠ": 5503,
      "repo": 5504,
      "idÃ©esĠ": 5505,
      "âĻ": 5506,
      "âĻ¦": 5507,
      "fen": 5508,
      "envis": 5509,
      "moins,Ġ": 5510,
      "dent": 5511,
      "pourĠfaireĠ": 5512,
      "far": 5513,
      "surĠsonĠ": 5514,
      "vous,Ġ": 5515,
      "Cat": 5516,
      "asĠdeĠ": 5517,
      "possible,Ġ": 5518,
      "Arch.Ġ": 5519,
      "PL": 5520,
      "pouvantĠ": 5521,
      "terresĠ": 5522,
      "asc": 5523,
      "eaĠ": 5524,
      "graph": 5525,
      "estĠtrÃ¨sĠ": 5526,
      "responsabilitÃ©Ġ": 5527,
      "Sav": 5528,
      "devin": 5529,
      "aleĠdeĠ": 5530,
      "OUV": 5531,
      "ellement,Ġ": 5532,
      "INĠ": 5533,
      "l'ex": 5534,
      "Ã©eĠparĠlesĠ": 5535,
      "tiĠ": 5536,
      "al.Ġ": 5537,
      "plic": 5538,
      "enz": 5539,
      "blanch": 5540,
      "Ã©ĠparĠlesĠ": 5541,
      "sympt": 5542,
      "ai,Ġ": 5543,
      "queĠsonĠ": 5544,
      "butĠdeĠ": 5545,
      "Journ": 5546,
      "1ĠÃłĠ": 5547,
      "lang": 5548,
      "agentsĠ": 5549,
      "agne,Ġ": 5550,
      "CompagnieĠ": 5551,
      "duĠS": 5552,
      "Institu": 5553,
      "neĠsauraitĠ": 5554,
      "aĠpourĠ": 5555,
      "abbÃ©Ġ": 5556,
      "ceptionĠ": 5557,
      "reconnaiss": 5558,
      "eurs.ĠĊ": 5559,
      "contreĠleĠ": 5560,
      "inÃ©": 5561,
      "quiĠl'": 5562,
      "ton": 5563,
      "Afri": 5564,
      "erĠleurĠ": 5565,
      "Des": 5566,
      "divisionsĠ": 5567,
      "Mus": 5568,
      "muni": 5569,
      "acleĠ": 5570,
      "gr.ĠĊ": 5571,
      "valeursĠ": 5572,
      "traitsĠ": 5573,
      "venteĠ": 5574,
      "sujetsĠ": 5575,
      "Ã¨lesĠ": 5576,
      "MinistreĠ": 5577,
      "matÃ©rielĠ": 5578,
      "m'aĠ": 5579,
      "suivanteĠ": 5580,
      "quali": 5581,
      "G.ĠA": 5582,
      "sĠ(": 5583,
      "MIN": 5584,
      "fir": 5585,
      "gazĠ": 5586,
      "offreĠ": 5587,
      "dÃ©fenseĠ": 5588,
      "ence": 5589,
      "siÃ¨geĠ": 5590,
      "frÃ¨reĠ": 5591,
      "Off": 5592,
      "dipl": 5593,
      "Ã©tabliĠ": 5594,
      "allo": 5595,
      "pourĠlâĢĻ": 5596,
      "March": 5597,
      "villesĠ": 5598,
      "llesĠ": 5599,
      "tĠleĠ": 5600,
      "eillesĠ": 5601,
      "vign": 5602,
      "provis": 5603,
      "habitantsĠ": 5604,
      "maÃ®tr": 5605,
      "voulu": 5606,
      "perman": 5607,
      "croisĠ": 5608,
      "S.ĠĊ": 5609,
      "avou": 5610,
      "facilementĠ": 5611,
      "nettementĠ": 5612,
      "SonĠ": 5613,
      "ances,Ġ": 5614,
      "pourĠseĠ": 5615,
      "recoursĠ": 5616,
      "moisĠdeĠ": 5617,
      "yĠetĠ": 5618,
      "celleĠdeĠ": 5619,
      "contactĠ": 5620,
      "queĠd'": 5621,
      "song": 5622,
      "un,Ġ": 5623,
      "sit": 5624,
      "bleu": 5625,
      "Borde": 5626,
      "matinĠ": 5627,
      "permettreĠ": 5628,
      "assist": 5629,
      "NordĠ": 5630,
      "tierĠ": 5631,
      "es),Ġ": 5632,
      "chefĠdeĠ": 5633,
      "ilesĠ": 5634,
      "toutĠenĠ": 5635,
      "chambreĠ": 5636,
      "puis,Ġ": 5637,
      "ac,Ġ": 5638,
      "libreĠ": 5639,
      "bouch": 5640,
      "poidsĠ": 5641,
      "aisonsĠ": 5642,
      "hÃ´t": 5643,
      "vict": 5644,
      "Servi": 5645,
      "EĠETĠ": 5646,
      "toutĠÃłĠfaitĠ": 5647,
      "estĠplusĠ": 5648,
      "rÃ©quisi": 5649,
      "ville,Ġ": 5650,
      "uniqu": 5651,
      "compositionĠ": 5652,
      "procÃ©dÃ©": 5653,
      "ainĠdeĠ": 5654,
      "ationĠd'": 5655,
      "exÃ©cutionĠ": 5656,
      "ce.ĠĊ": 5657,
      "Arti": 5658,
      "itÃ©s,Ġ": 5659,
      "10ĠĊ": 5660,
      "combienĠ": 5661,
      "itÃ©ĠdeĠlaĠ": 5662,
      "connu": 5663,
      "oiciĠ": 5664,
      "dÃ©pensesĠ": 5665,
      "Ãł,Ġ": 5666,
      "tantÃ´tĠ": 5667,
      "eĠÃłĠ": 5668,
      "pasĠleĠ": 5669,
      "Flor": 5670,
      "Pri": 5671,
      "Den": 5672,
      "Ã©sĠparĠlesĠ": 5673,
      "eĠleĠ": 5674,
      "Anto": 5675,
      "jusqu'ÃłĠlaĠ": 5676,
      "vonĠ": 5677,
      "plupartĠdesĠ": 5678,
      "bois": 5679,
      "âĸłâĸł": 5680,
      ".,Ġ19": 5681,
      "Ã¹Ġ": 5682,
      "53": 5683,
      "souver": 5684,
      "Pal": 5685,
      "lab": 5686,
      "toĠ": 5687,
      "connuĠ": 5688,
      "denĠ": 5689,
      "4,Ġp.Ġ": 5690,
      ".Ġ1Ġ": 5691,
      "duĠdÃ©": 5692,
      "utileĠ": 5693,
      "dehor": 5694,
      "deg": 5695,
      "infin": 5696,
      "15.ĠĊ": 5697,
      "aux.ĠĊ": 5698,
      "conqu": 5699,
      "erĠceĠ": 5700,
      "honor": 5701,
      "colonn": 5702,
      "VO": 5703,
      "suivantesĠ": 5704,
      "pas.Ġ": 5705,
      "utÃ©r": 5706,
      "deĠmÃªmeĠ": 5707,
      "voyag": 5708,
      "campagn": 5709,
      "eraiĠ": 5710,
      "Ã©chang": 5711,
      "96Ġ": 5712,
      "couleurĠ": 5713,
      "MarieĠ": 5714,
      "eilsĠ": 5715,
      "uniqueĠ": 5716,
      "eĠlaĠ": 5717,
      "chron": 5718,
      "it-": 5719,
      "cheminĠdeĠ": 5720,
      "exactementĠ": 5721,
      "absolumentĠ": 5722,
      "elleĠdeĠ": 5723,
      "ineĠdeĠ": 5724,
      "ationĠetĠ": 5725,
      "d'Al": 5726,
      "es,ĠÃłĠ": 5727,
      "crÃ©ditĠ": 5728,
      "yth": 5729,
      "S,Ġ": 5730,
      "52Ġ": 5731,
      "ÃłĠlaĠfoisĠ": 5732,
      "soĠ": 5733,
      "onĠestĠ": 5734,
      "troph": 5735,
      "ectiv": 5736,
      "e?Ġ": 5737,
      "terre,Ġ": 5738,
      "ocĠ": 5739,
      "dÃ©mi": 5740,
      "laĠmÃªmeĠ": 5741,
      "Ã©ĠqueĠ": 5742,
      "T,Ġ": 5743,
      "Ãªn": 5744,
      "norm": 5745,
      "d'or": 5746,
      "municip": 5747,
      "agitĠ": 5748,
      "obst": 5749,
      ".ĠP.Ġ": 5750,
      "Parl": 5751,
      "enceĠdesĠ": 5752,
      "questionsĠ": 5753,
      "k,Ġ": 5754,
      "neĠs'": 5755,
      "exag": 5756,
      "anch": 5757,
      "auĠpointĠdeĠvueĠ": 5758,
      "N'": 5759,
      "cn": 5760,
      "Augu": 5761,
      "ducĠdeĠ": 5762,
      "GÃīN": 5763,
      "quandĠilĠ": 5764,
      "catÃ©gori": 5765,
      "quiĠleĠ": 5766,
      "voiciĠ": 5767,
      ":Ġl'": 5768,
      "Nor": 5769,
      "auprÃ¨sĠ": 5770,
      "able.Ġ": 5771,
      "donnÃ©esĠ": 5772,
      "doute,Ġ": 5773,
      "hauteurĠ": 5774,
      "maisonsĠ": 5775,
      "soign": 5776,
      "1,Ġp.Ġ": 5777,
      "PER": 5778,
      "Maj": 5779,
      "bleĠdeĠ": 5780,
      "ÃªtresĠ": 5781,
      "est-ceĠ": 5782,
      "Ã©gal": 5783,
      "compens": 5784,
      "lieutenantĠ": 5785,
      "sanc": 5786,
      "3)Ġ": 5787,
      "unĠgrandĠ": 5788,
      "Nouv": 5789,
      "Cam": 5790,
      "Ã©nor": 5791,
      "commeĠilĠ": 5792,
      "distinc": 5793,
      "74Ġ": 5794,
      "Sainte-": 5795,
      "gren": 5796,
      "vintĠ": 5797,
      "antĠetĠ": 5798,
      "obÃ©": 5799,
      "requ": 5800,
      "Ã©taisĠ": 5801,
      "descend": 5802,
      "noir": 5803,
      "its,Ġ": 5804,
      "n'Ã©taitĠpasĠ": 5805,
      "afinĠdeĠ": 5806,
      "aireĠetĠ": 5807,
      ".ĠâĢĶĠB": 5808,
      "19,Ġ": 5809,
      "rach": 5810,
      "eĠ(": 5811,
      "enĠunĠ": 5812,
      "pensÃ©eĠ": 5813,
      "TU": 5814,
      "consisteĠ": 5815,
      "Gir": 5816,
      "inh": 5817,
      "enĠceĠ": 5818,
      "opÃ©": 5819,
      "l,Ġ": 5820,
      "dÃ©cembreĠ19": 5821,
      "ong-": 5822,
      "bÃ©nÃ©fici": 5823,
      "Jeh": 5824,
      "distanceĠ": 5825,
      "bac": 5826,
      "Oui,Ġ": 5827,
      "Dieu": 5828,
      "mitraill": 5829,
      "communĠ": 5830,
      "lad": 5831,
      "'Ã©taitĠ": 5832,
      "****************": 5833,
      "ations.Ġ": 5834,
      "cheminĠ": 5835,
      "env": 5836,
      "clair": 5837,
      ".;Ġ": 5838,
      "supÃ©rieur": 5839,
      "tauxĠ": 5840,
      "allong": 5841,
      "ques.Ġ": 5842,
      "itanni": 5843,
      "mauvaisĠ": 5844,
      "exerciceĠ": 5845,
      "partiĠ": 5846,
      "appelĠ": 5847,
      "estÃ©Ġ": 5848,
      "omati": 5849,
      "auĠmilieuĠ": 5850,
      ".ĠCommeĠ": 5851,
      "feraĠ": 5852,
      "rÃ©sid": 5853,
      "CourĠ": 5854,
      "clav": 5855,
      "BU": 5856,
      "abordĠ": 5857,
      "PRÃī": 5858,
      "Administr": 5859,
      "teĠdeĠlaĠ": 5860,
      "majorĠ": 5861,
      "ouĠduĠ": 5862,
      "issaitĠ": 5863,
      "jâĢĻaiĠ": 5864,
      "couronn": 5865,
      "ance.Ġ": 5866,
      "subs": 5867,
      "-de-": 5868,
      "genreĠ": 5869,
      "quinzeĠ": 5870,
      "substitu": 5871,
      "jointĠ": 5872,
      "Ã©nergi": 5873,
      "loi": 5874,
      ".ĠParĠ": 5875,
      "convÃ©ni": 5876,
      "sociÃ©tÃ©sĠ": 5877,
      "ThÃ©": 5878,
      "Bull": 5879,
      "Trav": 5880,
      "Ã©galeĠ": 5881,
      "el.ĠĊ": 5882,
      "courag": 5883,
      "thÃ©orieĠ": 5884,
      "cielĠ": 5885,
      "autre": 5886,
      "65Ġ": 5887,
      "exÃ©cut": 5888,
      "taill": 5889,
      "enĠmÃªmeĠtempsĠ": 5890,
      "parleĠ": 5891,
      "Sy": 5892,
      "53Ġ": 5893,
      "arbi": 5894,
      "vitesseĠ": 5895,
      "cident": 5896,
      "MonĠ": 5897,
      "deĠl'articleĠ": 5898,
      "cord": 5899,
      "certifi": 5900,
      "RoiĠ": 5901,
      ".ĠâĢĶ": 5902,
      "concur": 5903,
      "droit,Ġ": 5904,
      "doctr": 5905,
      "nÃ©glig": 5906,
      "relativeĠ": 5907,
      "duĠB": 5908,
      "accidentsĠ": 5909,
      "ers.Ġ": 5910,
      "queĠpourĠ": 5911,
      "pourrontĠ": 5912,
      "heures,Ġ": 5913,
      "visit": 5914,
      "caiss": 5915,
      "ouvrageĠ": 5916,
      "e,ĠĊ": 5917,
      "visĠ": 5918,
      "Del": 5919,
      "oÃ¹Ġl'": 5920,
      "FranÃ§aisĠ": 5921,
      "cuiv": 5922,
      "membreĠ": 5923,
      "t.Ġ19": 5924,
      "Can": 5925,
      "xv": 5926,
      "omph": 5927,
      "Ã©sĠauxĠ": 5928,
      "teĠd'": 5929,
      "esĠquiĠ": 5930,
      "fill": 5931,
      "Pon": 5932,
      "spir": 5933,
      "caf": 5934,
      "crois": 5935,
      "rÃ©glement": 5936,
      "Ag": 5937,
      "preuveĠ": 5938,
      "OnĠaĠ": 5939,
      "72Ġ": 5940,
      "etĠsuiv": 5941,
      "maÃ®": 5942,
      "aÃ®neĠ": 5943,
      "LOG": 5944,
      "liquid": 5945,
      "Autri": 5946,
      "auxĠetĠ": 5947,
      "Nicol": 5948,
      "commenceĠ": 5949,
      "mariti": 5950,
      "affect": 5951,
      "REĠ": 5952,
      "7,Ġp.Ġ": 5953,
      "nul": 5954,
      "TrÃ¨sĠ": 5955,
      "vueĠdeĠ": 5956,
      "espÃ¨ceĠ": 5957,
      "cÃ©d": 5958,
      "concentr": 5959,
      "agirĠ": 5960,
      "juinĠ": 5961,
      "ordreĠdeĠ": 5962,
      "corpor": 5963,
      "Ã©difi": 5964,
      "dÃ©libÃ©r": 5965,
      "phÃ©nomÃ¨nesĠ": 5966,
      "artifici": 5967,
      "etĠnonĠ": 5968,
      "suspen": 5969,
      "vieill": 5970,
      "devantĠleĠ": 5971,
      "pla": 5972,
      "Â£Ġ": 5973,
      "istresĠ": 5974,
      "tsĠdeĠ": 5975,
      "compren": 5976,
      "\"ĠĊ": 5977,
      "respir": 5978,
      "passerĠ": 5979,
      "MonsieurĠ": 5980,
      ".ĠDesĠ": 5981,
      "58Ġ": 5982,
      "terri": 5983,
      "deĠlaĠM": 5984,
      "âĢľ": 5985,
      "classi": 5986,
      "aurontĠ": 5987,
      "mÃ¨treĠ": 5988,
      "IEN": 5989,
      "directeurĠ": 5990,
      "mentionn": 5991,
      "contientĠ": 5992,
      "QuiĠ": 5993,
      "facul": 5994,
      "qualifi": 5995,
      "IlĠfautĠ": 5996,
      "issonsĠ": 5997,
      "quâĢĻunĠ": 5998,
      "vol.Ġin-": 5999,
      "iceĠ": 6000,
      "conduitĠ": 6001,
      "onĠlesĠ": 6002,
      "nord": 6003,
      "alĠduĠ": 6004,
      "siĠl'": 6005,
      "invent": 6006,
      "dul": 6007,
      "observationsĠ": 6008,
      "Cu": 6009,
      "auteursĠ": 6010,
      "e,ĠunĠ": 6011,
      "victi": 6012,
      "explo": 6013,
      "A,Ġ": 6014,
      "principauxĠ": 6015,
      "queĠj'aiĠ": 6016,
      "neĠpeutĠÃªtreĠ": 6017,
      "vraimentĠ": 6018,
      "poly": 6019,
      "Ã¨s-": 6020,
      "fronti": 6021,
      "enĠaĠ": 6022,
      "(6": 6023,
      "NoteĠduĠS.ĠH.ĠâĢĶĠ": 6024,
      "documentsĠ": 6025,
      "respec": 6026,
      "ART.Ġ": 6027,
      "AY": 6028,
      "ith": 6029,
      "STR": 6030,
      "XXV": 6031,
      "bomb": 6032,
      "agrap": 6033,
      "ardsĠ": 6034,
      "bre": 6035,
      "haut,Ġ": 6036,
      "orrag": 6037,
      "Ã©tablissementsĠ": 6038,
      "difficultÃ©sĠ": 6039,
      "20ĠĊ": 6040,
      "coupĠdeĠ": 6041,
      "3.ĠâĢĶĠ": 6042,
      "plusĠenĠplusĠ": 6043,
      "Notre-": 6044,
      "iaĠ": 6045,
      "Ã©mo": 6046,
      "suiteĠdeĠ": 6047,
      "73Ġ": 6048,
      "ras": 6049,
      "aitĠl'": 6050,
      "capitalĠ": 6051,
      "plomb": 6052,
      "export": 6053,
      "content": 6054,
      "42": 6055,
      "DO": 6056,
      "Ne": 6057,
      "c)Ġ": 6058,
      "AllemandsĠ": 6059,
      "cadÃ©mieĠ": 6060,
      "fant": 6061,
      "quarti": 6062,
      "gas": 6063,
      "+Ġ0": 6064,
      "franÃ§ais,Ġ": 6065,
      "FRAN": 6066,
      "problÃ¨meĠ": 6067,
      "eil,Ġ": 6068,
      "poi": 6069,
      "avanceĠ": 6070,
      "erĠsurĠ": 6071,
      "annÃ©e,Ġ": 6072,
      "gÃ©ri": 6073,
      "]ĠĊ": 6074,
      "etĠP": 6075,
      ".ĠAin": 6076,
      "infÃ©rieureĠ": 6077,
      "plusĠtardĠ": 6078,
      "voiĠ": 6079,
      "avantĠlaĠ": 6080,
      "fre": 6081,
      "fs,Ġ": 6082,
      "gan": 6083,
      "entendreĠ": 6084,
      "seĠfaitĠ": 6085,
      "celuiĠquiĠ": 6086,
      "octobreĠ19": 6087,
      "Ãİ": 6088,
      "ÃłĠL": 6089,
      "doĠlaĠ": 6090,
      "thÃ©ori": 6091,
      "alor": 6092,
      "nationaleĠ": 6093,
      "analy": 6094,
      "CL": 6095,
      "sÃ¨": 6096,
      "cadr": 6097,
      "Ã©dÃ©r": 6098,
      "atr": 6099,
      "boutĠdeĠ": 6100,
      "Ã©quili": 6101,
      "les,Ġ": 6102,
      "viteĠ": 6103,
      "l'autreĠ": 6104,
      "Ã©ric": 6105,
      "philosoph": 6106,
      "enseignementĠ": 6107,
      "spor": 6108,
      "impÃ©ri": 6109,
      "POR": 6110,
      "contenantĠ": 6111,
      "Ġ10Ġ": 6112,
      "tĠdesĠ": 6113,
      "perf": 6114,
      "laitĠ": 6115,
      "parĠsuiteĠ": 6116,
      "PREM": 6117,
      "AvecĠ": 6118,
      "M.ĠD": 6119,
      "cela,Ġ": 6120,
      "rÃ©pÃ©t": 6121,
      "reconnaÃ®treĠ": 6122,
      "amin": 6123,
      "COL": 6124,
      "ATIONĠ": 6125,
      "eĠarmÃ©": 6126,
      "courĠ": 6127,
      "IV,Ġ": 6128,
      "policeĠ": 6129,
      "misĠenĠ": 6130,
      "400Ġ": 6131,
      "ÃītatĠ": 6132,
      "gauche,Ġ": 6133,
      "janvierĠ19": 6134,
      "reprÃ©senteĠ": 6135,
      "partoutĠ": 6136,
      "elleĠetĠ": 6137,
      "celuiĠdeĠ": 6138,
      "dÃ©cisionĠ": 6139,
      "vie,Ġ": 6140,
      "finĠduĠ": 6141,
      "''": 6142,
      "ssi": 6143,
      "femme,Ġ": 6144,
      "Ori": 6145,
      "adĠ": 6146,
      "officierĠ": 6147,
      "pratiqueĠ": 6148,
      "communiqu": 6149,
      ".ĠJ'": 6150,
      "3,Ġp.Ġ": 6151,
      "A.Ġ": 6152,
      "opinionĠ": 6153,
      "IIĠ(": 6154,
      "rÃ©pond": 6155,
      "phot": 6156,
      "rati": 6157,
      "elleĠneĠ": 6158,
      "rÃ©se": 6159,
      "profit": 6160,
      "choixĠ": 6161,
      "Mo": 6162,
      "bresĠ": 6163,
      "britanni": 6164,
      "Toulou": 6165,
      "aid": 6166,
      "pasĠlaĠ": 6167,
      "(1)": 6168,
      "vÃª": 6169,
      "absor": 6170,
      "atteindreĠ": 6171,
      "cong": 6172,
      "ains,Ġ": 6173,
      "Dam": 6174,
      "tig": 6175,
      "JacquesĠ": 6176,
      "nis": 6177,
      "maisĠilĠ": 6178,
      "duesĠ": 6179,
      ";Ġc'estĠ": 6180,
      "formuleĠ": 6181,
      "commeĠlaĠ": 6182,
      "campagneĠ": 6183,
      "56Ġ": 6184,
      "vaisĠ": 6185,
      "quitt": 6186,
      "regardĠ": 6187,
      "passÃ©Ġ": 6188,
      "-N": 6189,
      "metĠ": 6190,
      "fondsĠ": 6191,
      "autÃ©Ġ": 6192,
      "lÃ©Ġ": 6193,
      "antÃ©rieur": 6194,
      "ip": 6195,
      "31": 6196,
      "-H": 6197,
      "zon": 6198,
      "Ã©tri": 6199,
      "intens": 6200,
      "ajouteĠ": 6201,
      "ureĠdeĠ": 6202,
      "*Ġ*Ġ": 6203,
      "douc": 6204,
      "Let": 6205,
      "contest": 6206,
      "dÃ©plac": 6207,
      "Ã©rieur,Ġ": 6208,
      "candi": 6209,
      "fallaitĠ": 6210,
      "diagnosti": 6211,
      "gÃ©nÃ©rale,Ġ": 6212,
      "croiss": 6213,
      "juris": 6214,
      "DÃ¨sĠ": 6215,
      "vÃ©": 6216,
      "figur": 6217,
      "mementĠ": 6218,
      "champĠ": 6219,
      "limiteĠ": 6220,
      "mariageĠ": 6221,
      "sk": 6222,
      "TĠ(": 6223,
      "5Â°Ġ": 6224,
      "impÃ´tĠ": 6225,
      "partĠdeĠ": 6226,
      "ÃłĠcetĠ": 6227,
      "15ĠĊ": 6228,
      "soleilĠ": 6229,
      "coĠ": 6230,
      "moul": 6231,
      "anceĠdesĠ": 6232,
      "unitÃ©sĠ": 6233,
      "Dom": 6234,
      "malheur": 6235,
      "bonh": 6236,
      "Ven": 6237,
      "3o": 6238,
      "gon": 6239,
      "amiĠ": 6240,
      "IIĠĊ": 6241,
      "ind": 6242,
      "entifi": 6243,
      "AngleterreĠ": 6244,
      "qu'auĠ": 6245,
      "objecti": 6246,
      "mour": 6247,
      "essionsĠ": 6248,
      "addi": 6249,
      "joursĠdeĠ": 6250,
      "couv": 6251,
      "Ã´t,Ġ": 6252,
      "suivantĠlesĠ": 6253,
      "siÃ¨cle,Ġ": 6254,
      "triomph": 6255,
      "protÃ©g": 6256,
      "ChambreĠ": 6257,
      "airesĠdeĠ": 6258,
      "M.ĠB": 6259,
      "lutteĠ": 6260,
      "aireĠdeĠlaĠ": 6261,
      "clau": 6262,
      ".C": 6263,
      "matin": 6264,
      "jaun": 6265,
      "territoireĠ": 6266,
      "profitĠ": 6267,
      "isionĠ": 6268,
      "FOR": 6269,
      "advers": 6270,
      "nousĠneĠ": 6271,
      "cill": 6272,
      "fortementĠ": 6273,
      "russ": 6274,
      "unitÃ©Ġ": 6275,
      "et.Ġ": 6276,
      "quiĠavaitĠ": 6277,
      "devenirĠ": 6278,
      "moment,Ġ": 6279,
      "retrai": 6280,
      "exclusiv": 6281,
      "difficileĠ": 6282,
      "Ti": 6283,
      "dÃ©veloppementĠ": 6284,
      "ier,Ġ": 6285,
      "entrepris": 6286,
      "ouĠd'": 6287,
      "Sec": 6288,
      "loy": 6289,
      "hect": 6290,
      "euri": 6291,
      "devaientĠ": 6292,
      ".ĠSonĠ": 6293,
      "discipl": 6294,
      "planteĠ": 6295,
      "âĢĻĠ": 6296,
      ".ĠTr": 6297,
      "84": 6298,
      "nommÃ©Ġ": 6299,
      "inspir": 6300,
      "etz": 6301,
      "7-": 6302,
      "l'unĠ": 6303,
      "ol,Ġ": 6304,
      "annÃ©es,Ġ": 6305,
      "51Ġ": 6306,
      "rapideĠ": 6307,
      "difficil": 6308,
      "co-": 6309,
      "embre": 6310,
      "roch": 6311,
      "commis": 6312,
      "mÃ¨tr": 6313,
      "effortĠ": 6314,
      ".Ġ10": 6315,
      "doubl": 6316,
      "rÃ©ponseĠ": 6317,
      "doulour": 6318,
      "meur": 6319,
      "parĠsonĠ": 6320,
      "os,Ġ": 6321,
      "pourĠluiĠ": 6322,
      "s'en": 6323,
      "acul": 6324,
      "aĠlesĠ": 6325,
      "pat": 6326,
      "interprÃ©t": 6327,
      "arbresĠ": 6328,
      "obli": 6329,
      "Ã©tonn": 6330,
      "longueurĠ": 6331,
      "(4)Ġ": 6332,
      "goÃ»": 6333,
      "Sim": 6334,
      "icac": 6335,
      "onsĠÃłĠ": 6336,
      "contratĠ": 6337,
      "nerv": 6338,
      "relativementĠ": 6339,
      "eĠsiÃ¨cleĠ": 6340,
      "achev": 6341,
      ".ĠLors": 6342,
      "apparaÃ®tĠ": 6343,
      "conduiteĠ": 6344,
      "Ã©coleĠ": 6345,
      "leĠpremierĠ": 6346,
      "up": 6347,
      "deĠleursĠ": 6348,
      "176": 6349,
      "etĠplusĠ": 6350,
      "justeĠ": 6351,
      "annon": 6352,
      "parĠrapportĠ": 6353,
      "entĠd'": 6354,
      "Ã©sĠparĠleĠ": 6355,
      "Chamb": 6356,
      "Const": 6357,
      "ducĠ": 6358,
      "pom": 6359,
      "dateĠduĠ": 6360,
      "seĠrÃ©": 6361,
      "eciĠ": 6362,
      "aireĠdesĠ": 6363,
      "oÃ¹Ġl'onĠ": 6364,
      "fournirĠ": 6365,
      "prÃ©al": 6366,
      "autantĠplusĠ": 6367,
      "auĠlieuĠdeĠ": 6368,
      "lut": 6369,
      "totaleĠ": 6370,
      "urgi": 6371,
      "ho": 6372,
      "ressourcesĠ": 6373,
      "e,ĠuneĠ": 6374,
      "dÃ©sor": 6375,
      "retourn": 6376,
      "qu'ilĠavaitĠ": 6377,
      "peauĠ": 6378,
      "soinsĠ": 6379,
      "comptesĠ": 6380,
      "etĠpourĠ": 6381,
      "kilomÃ¨tresĠ": 6382,
      "parfaitementĠ": 6383,
      "78Ġ": 6384,
      "traitÃ©Ġ": 6385,
      "proprementĠ": 6386,
      "Belgi": 6387,
      "anÃ§": 6388,
      "dres,Ġ": 6389,
      "expÃ©rienceĠ": 6390,
      "etĠsaĠ": 6391,
      "maiĠ": 6392,
      "conformÃ©mentĠ": 6393,
      "libr": 6394,
      "09": 6395,
      "te.ĠĊ": 6396,
      "estim": 6397,
      "ISS": 6398,
      "Ã©nergieĠ": 6399,
      "intestin": 6400,
      "spon": 6401,
      "ementĠenĠ": 6402,
      "disaitĠ": 6403,
      "entret": 6404,
      "pleineĠ": 6405,
      "citoyenĠ": 6406,
      "n'ontĠpasĠ": 6407,
      "Ã©vi": 6408,
      "29,Ġ": 6409,
      "DâĢĻ": 6410,
      "AĠl'": 6411,
      "13ĠĊ": 6412,
      "famill": 6413,
      "doig": 6414,
      "sÃ©rieĠ": 6415,
      "excit": 6416,
      "Ã¢tre,Ġ": 6417,
      "erĠĊ": 6418,
      "efficac": 6419,
      "s)Ġ": 6420,
      "sont,Ġ": 6421,
      "oreĠ": 6422,
      "extra": 6423,
      "Ã©sĠÃłĠlaĠ": 6424,
      "amÃ©ric": 6425,
      "),ĠdeĠ": 6426,
      "ence.Ġ": 6427,
      "ramen": 6428,
      "comprendreĠ": 6429,
      "gauch": 6430,
      "brigadeĠ": 6431,
      ",5Ġ": 6432,
      "PU": 6433,
      "mobili": 6434,
      "Seign": 6435,
      "GÃīNÃīR": 6436,
      "leĠmÃªmeĠ": 6437,
      "pier": 6438,
      ":ĠA": 6439,
      "vÃ©rifi": 6440,
      "s.ĠLaĠ": 6441,
      "ines,Ġ": 6442,
      "II,Ġp.Ġ": 6443,
      "prudenceĠ": 6444,
      "continueĠ": 6445,
      "ham": 6446,
      "vac": 6447,
      "sÃ©cur": 6448,
      "La": 6449,
      "desĠs": 6450,
      "contrÃ´": 6451,
      "mettreĠenĠ": 6452,
      "ministÃ¨reĠ": 6453,
      "nousĠsommesĠ": 6454,
      "Str": 6455,
      "lors,Ġ": 6456,
      "primiti": 6457,
      "ombreĠ": 6458,
      "mes.ĠĊ": 6459,
      "formationĠ": 6460,
      "dÃ©riv": 6461,
      "3oĠ": 6462,
      "noirĠ": 6463,
      "paraly": 6464,
      "pourĠÃªtreĠ": 6465,
      "unesĠ": 6466,
      "d'uneĠfaÃ§onĠ": 6467,
      "ouvertureĠ": 6468,
      "25ĠĊ": 6469,
      "marÃ©ch": 6470,
      "pontĠ": 6471,
      "tom": 6472,
      "rembour": 6473,
      "chiffreĠ": 6474,
      "Ã©th": 6475,
      "paragrap": 6476,
      "neĠleĠ": 6477,
      "dÃ©gag": 6478,
      "pays,Ġ": 6479,
      "in.ĠĊ": 6480,
      "rechercheĠ": 6481,
      "6-": 6482,
      "Cr": 6483,
      "pois": 6484,
      "vaisseauxĠ": 6485,
      "possÃ¨deĠ": 6486,
      "auxquelsĠ": 6487,
      "600Ġ": 6488,
      "Ã©rieursĠ": 6489,
      "fabricationĠ": 6490,
      "outchou": 6491,
      "uĠdeĠ": 6492,
      "revenuĠ": 6493,
      "particulierĠ": 6494,
      "crimin": 6495,
      "prÃ©cÃ©dent": 6496,
      "indicationsĠ": 6497,
      ".)ĠâĢĶĠ": 6498,
      "trag": 6499,
      "quiĠleurĠ": 6500,
      "altÃ©r": 6501,
      "fun": 6502,
      "Clau": 6503,
      "chevalĠ": 6504,
      "perduĠ": 6505,
      "deman": 6506,
      "18ĠĊ": 6507,
      "feuilleĠ": 6508,
      "vivreĠ": 6509,
      "cev": 6510,
      "Dij": 6511,
      "mÃ©lang": 6512,
      "~M": 6513,
      ".ĠEx": 6514,
      "000": 6515,
      "seĠfaireĠ": 6516,
      "Ã©esĠparĠlesĠ": 6517,
      "EuropeĠ": 6518,
      "ingÃ©ni": 6519,
      "Ã©lÃ¨veĠ": 6520,
      "auĠsuj": 6521,
      "Â°,Ġ": 6522,
      "dilat": 6523,
      "entenduĠ": 6524,
      "aitĠdesĠ": 6525,
      "uneĠgrandeĠ": 6526,
      "cÃ´tÃ©,Ġ": 6527,
      "fusionĠ": 6528,
      "comprend": 6529,
      "ologiqueĠ": 6530,
      "intell": 6531,
      "ceĠquiĠestĠ": 6532,
      "unĠcertainĠ": 6533,
      "62Ġ": 6534,
      "envisag": 6535,
      "oeuvreĠ": 6536,
      "hydri": 6537,
      "villageĠ": 6538,
      ".ĠPro": 6539,
      "l'im": 6540,
      "Ã©ĠparĠl'": 6541,
      "atom": 6542,
      "dys": 6543,
      "resterĠ": 6544,
      "aussiĠbienĠ": 6545,
      "lireĠ": 6546,
      "Commer": 6547,
      "tubercul": 6548,
      "penseĠ": 6549,
      "!...Ġ": 6550,
      "Pers": 6551,
      "prÃªt": 6552,
      "nett": 6553,
      "2ĠeĠ": 6554,
      "cadreĠ": 6555,
      "TRA": 6556,
      "onĠseĠ": 6557,
      "roĠ": 6558,
      "scientifi": 6559,
      "Rich": 6560,
      "pagesĠ": 6561,
      "sty": 6562,
      "mÃ©talli": 6563,
      "gne,Ġ": 6564,
      "neĠpeuventĠ": 6565,
      "12ĠĊ": 6566,
      "',Ġ": 6567,
      "tableĠ": 6568,
      "es.ĠC": 6569,
      "approuv": 6570,
      "infÃ©rieurĠ": 6571,
      "Mess": 6572,
      "Nation": 6573,
      "magas": 6574,
      "0Ġ+Ġ": 6575,
      "modeĠ": 6576,
      "simplesĠ": 6577,
      "quelques-": 6578,
      "Ã©tro": 6579,
      "raiĠ": 6580,
      "ME": 6581,
      "partieĠduĠ": 6582,
      "IQUEĠ": 6583,
      "unĠautreĠ": 6584,
      "di,Ġ": 6585,
      "chan": 6586,
      "conÃ§": 6587,
      "genti": 6588,
      "ssentĠ": 6589,
      "nourr": 6590,
      "ament": 6591,
      "avant-": 6592,
      "esĠouĠ": 6593,
      "issementsĠ": 6594,
      "casĠd'": 6595,
      "ilĠyĠ": 6596,
      "poni": 6597,
      "ÃłĠcesĠ": 6598,
      "Ã´Ġ": 6599,
      "Ã©tal": 6600,
      "versĠl'": 6601,
      "CAR": 6602,
      "ANTĠ": 6603,
      "Univers": 6604,
      "dg": 6605,
      ".Ġ2": 6606,
      "nifi": 6607,
      "Ã©eĠparĠl'": 6608,
      ".ĠIm": 6609,
      "17ĠĊ": 6610,
      "aimeĠ": 6611,
      "26,Ġ": 6612,
      ";ĠB": 6613,
      "25,Ġ": 6614,
      "(H": 6615,
      "ouestĠ": 6616,
      "distill": 6617,
      "ons.ĠĊ": 6618,
      "essu": 6619,
      "expressionĠ": 6620,
      "correc": 6621,
      "vieilleĠ": 6622,
      "enfant": 6623,
      "79Ġ": 6624,
      "dansĠleursĠ": 6625,
      "mÃ©moireĠ": 6626,
      "OB": 6627,
      "portĠdeĠ": 6628,
      "umĠdeĠ": 6629,
      "11ĠĊ": 6630,
      "cinqu": 6631,
      "82Ġ": 6632,
      "800Ġ": 6633,
      "dix-": 6634,
      "RÃ©publiqueĠ": 6635,
      "amisĠ": 6636,
      "commenÃ§": 6637,
      "Ã®Ġ": 6638,
      "tĠenĠ": 6639,
      "toutefoisĠ": 6640,
      "57Ġ": 6641,
      "chacuneĠ": 6642,
      "queĠlâĢĻonĠ": 6643,
      "tailleĠ": 6644,
      "suiviĠ": 6645,
      "aleĠetĠ": 6646,
      "batailleĠ": 6647,
      "tab": 6648,
      "laĠpremiÃ¨reĠ": 6649,
      "ilsĠontĠ": 6650,
      "ITĠ": 6651,
      "inconvÃ©ni": 6652,
      "europÃ©": 6653,
      "pauvresĠ": 6654,
      "Dis": 6655,
      "contrÃ´leĠ": 6656,
      "68Ġ": 6657,
      "albu": 6658,
      "stu": 6659,
      "HistoireĠ": 6660,
      "quĠ": 6661,
      "rapportsĠ": 6662,
      "JU": 6663,
      "cot": 6664,
      "umentsĠ": 6665,
      "human": 6666,
      "jauneĠ": 6667,
      "ref": 6668,
      "rÃ©Ġ": 6669,
      "eineĠ": 6670,
      "appartenantĠ": 6671,
      "raisonsĠ": 6672,
      "intellectu": 6673,
      "clĠ": 6674,
      "effortsĠ": 6675,
      "PE": 6676,
      "ctu": 6677,
      "PaulĠ": 6678,
      "vigu": 6679,
      "Ã©tÃ©": 6680,
      "Ã´n": 6681,
      ".ĠAprÃ¨sĠ": 6682,
      "Ã©eĠauxĠ": 6683,
      "28,Ġ": 6684,
      "mer,Ġ": 6685,
      "tĠĊ": 6686,
      "ench": 6687,
      "dÃ©mo": 6688,
      "agesĠdeĠ": 6689,
      "Ãītat": 6690,
      "neĠpouvaitĠ": 6691,
      "olÃ©r": 6692,
      "CHAR": 6693,
      "comport": 6694,
      "obtenuĠ": 6695,
      "confianceĠ": 6696,
      "dÃ©laiĠ": 6697,
      "reti": 6698,
      "pourraientĠ": 6699,
      "elle-mÃªmeĠ": 6700,
      "bles,Ġ": 6701,
      "civi": 6702,
      "sulf": 6703,
      "exagÃ©r": 6704,
      "rÃ©ussi": 6705,
      "tÃ©lÃ©phon": 6706,
      "(long": 6707,
      "Bern": 6708,
      "Ã©vacu": 6709,
      "obtientĠ": 6710,
      "tefois,Ġ": 6711,
      "ball": 6712,
      "emplac": 6713,
      "ateur,Ġ": 6714,
      "71Ġ": 6715,
      "parĠexempleĠ": 6716,
      "fillesĠ": 6717,
      ".ĠVoirĠ": 6718,
      "stipul": 6719,
      "ÅĴ": 6720,
      "deĠfaireĠ": 6721,
      "Ã©nu": 6722,
      "TIN": 6723,
      "tions.Ġ": 6724,
      "pouvonsĠ": 6725,
      "ELĠ": 6726,
      "Ca": 6727,
      "ile,Ġ": 6728,
      "scienceĠ": 6729,
      "Coll": 6730,
      "tox": 6731,
      "parĠexemple,Ġ": 6732,
      "Ã©ventu": 6733,
      "CHE": 6734,
      "centsĠ": 6735,
      "partirĠdeĠ": 6736,
      "Ã©tat-": 6737,
      "eraientĠ": 6738,
      "it.ĠĊ": 6739,
      "rus": 6740,
      "vinĠ": 6741,
      "dÃ©partĠ": 6742,
      "liaisonĠ": 6743,
      "TOT": 6744,
      "GouvernementĠ": 6745,
      "(R": 6746,
      "es.ĠOnĠ": 6747,
      ".ĠDi": 6748,
      "progrÃ¨sĠ": 6749,
      "cellulesĠ": 6750,
      "dsĠ": 6751,
      "etĠleurĠ": 6752,
      "spÃ©cialementĠ": 6753,
      "ChÃ¢t": 6754,
      "eurĠenĠ": 6755,
      "tiques,Ġ": 6756,
      "bus": 6757,
      "inclin": 6758,
      "fer,Ġ": 6759,
      "obusĠ": 6760,
      "SERV": 6761,
      "maintenirĠ": 6762,
      "etĠjeĠ": 6763,
      "e.ĠJeĠ": 6764,
      "toutĠceĠ": 6765,
      "tendanceĠ": 6766,
      "Ã¨me,Ġ": 6767,
      "ay,Ġ": 6768,
      "boucheĠ": 6769,
      "JeanneĠ": 6770,
      "G.ĠQ.ĠG": 6771,
      "32,Ġ": 6772,
      "T.ĠĊ": 6773,
      "d'autreĠ": 6774,
      "AuxĠ": 6775,
      "aĠdesĠ": 6776,
      "ensembl": 6777,
      "Ã´mesĠ": 6778,
      "eĠdeĠlaĠ": 6779,
      "4.Ġ": 6780,
      "SEĠ": 6781,
      "airi": 6782,
      "63Ġ": 6783,
      "dÃ©bu": 6784,
      "ilĠÃ©taitĠ": 6785,
      "fraÃ®": 6786,
      "alĠdeĠlaĠ": 6787,
      "mosph": 6788,
      "24,Ġ": 6789,
      "divers": 6790,
      "Lam": 6791,
      "quâĢĻuneĠ": 6792,
      "infanterieĠ": 6793,
      "sens": 6794,
      "Paul": 6795,
      "degrÃ©Ġ": 6796,
      "Dieu,Ġ": 6797,
      "ectionn": 6798,
      "altern": 6799,
      "importeĠ": 6800,
      "papierĠ": 6801,
      "tap": 6802,
      "ÃłĠdeuxĠ": 6803,
      "ilĠenĠ": 6804,
      "iĠetĠ": 6805,
      "8-": 6806,
      ".ĠAv": 6807,
      "droite,Ġ": 6808,
      "contre": 6809,
      "elleĠseĠ": 6810,
      "deĠetĠ": 6811,
      "sâĢĻestĠ": 6812,
      "85Ġ": 6813,
      "Har": 6814,
      "dÃ©du": 6815,
      "dÃ©lÃ©gu": 6816,
      "salari": 6817,
      "diffÃ©renceĠ": 6818,
      "spÃ©cifi": 6819,
      "discus": 6820,
      "Oc": 6821,
      "ath": 6822,
      ".ĠA.Ġ": 6823,
      "plantesĠ": 6824,
      "Ã©eĠd'": 6825,
      "probablementĠ": 6826,
      "iller": 6827,
      "favoris": 6828,
      "76Ġ": 6829,
      "vag": 6830,
      "dioc": 6831,
      "perÃ§": 6832,
      "soinĠ": 6833,
      "archit": 6834,
      "tempor": 6835,
      "ANSĠ": 6836,
      "IlĠyĠaĠ": 6837,
      "hÃ©sit": 6838,
      "orifi": 6839,
      "protest": 6840,
      "(G": 6841,
      "moĠ": 6842,
      "dâĢĻÃªtreĠ": 6843,
      "NotreĠ": 6844,
      "parentsĠ": 6845,
      "dâĢĻautresĠ": 6846,
      "entĠÃłĠlaĠ": 6847,
      "grain": 6848,
      "estom": 6849,
      "TĠĊ": 6850,
      "airesĠetĠ": 6851,
      "NapolÃ©": 6852,
      "gin": 6853,
      "fonci": 6854,
      "demeureĠ": 6855,
      "causeĠdeĠ": 6856,
      "ÃĶ": 6857,
      "30,Ġ": 6858,
      "Lorr": 6859,
      "ffÃ©r": 6860,
      "eurĠd'": 6861,
      "S.": 6862,
      "retÃ©Ġ": 6863,
      "ienĠ": 6864,
      "cureĠ": 6865,
      "DrĠ": 6866,
      "ques.ĠĊ": 6867,
      "brav": 6868,
      "IREĠ": 6869,
      "sais": 6870,
      "emploieĠ": 6871,
      "lieuten": 6872,
      "aprÃ¨sĠlesĠ": 6873,
      "ers.ĠĊ": 6874,
      "facileĠ": 6875,
      "procÃ©du": 6876,
      "celuiĠdesĠ": 6877,
      "quantitÃ©ĠdeĠ": 6878,
      "assimil": 6879,
      "ance.ĠĊ": 6880,
      "dign": 6881,
      "rÃ©duitĠ": 6882,
      "entĠauxĠ": 6883,
      "erĠdansĠlaĠ": 6884,
      "atmosph": 6885,
      "VoiciĠ": 6886,
      "0Ġgr.Ġ": 6887,
      ").ĠLeĠ": 6888,
      "tigeĠ": 6889,
      "2ĠÃłĠ": 6890,
      "dÃ®": 6891,
      "idesĠ": 6892,
      ".ĠPu": 6893,
      "princeĠ": 6894,
      "ilĠavaitĠ": 6895,
      "ARMÃī": 6896,
      "superfici": 6897,
      "66Ġ": 6898,
      "ÃłĠpeineĠ": 6899,
      "OUR": 6900,
      "i5": 6901,
      "Â®Ġ": 6902,
      "mÃªl": 6903,
      "c'estĠlaĠ": 6904,
      "commandantĠ": 6905,
      "entendu": 6906,
      "dansĠtousĠlesĠ": 6907,
      "considÃ©rableĠ": 6908,
      "Aff": 6909,
      "esĠauĠ": 6910,
      "aven": 6911,
      "cub": 6912,
      "daĠ": 6913,
      "Ã©lo": 6914,
      "23,Ġ": 6915,
      "Indo": 6916,
      "famillesĠ": 6917,
      "IE": 6918,
      "igneĠ": 6919,
      "pouvaientĠ": 6920,
      "foi": 6921,
      "avionsĠ": 6922,
      "deĠV": 6923,
      "duĠcÃ´tÃ©Ġ": 6924,
      "dÃ©ch": 6925,
      "Â»Ġ;Ġ": 6926,
      "bruitĠ": 6927,
      "dre": 6928,
      "adhÃ©r": 6929,
      "celteĠ": 6930,
      "tron": 6931,
      "commeĠdesĠ": 6932,
      "Bon": 6933,
      "St-": 6934,
      "van": 6935,
      "able.ĠĊ": 6936,
      "rÃªv": 6937,
      "As": 6938,
      "Ã©sĠdesĠ": 6939,
      "frÃ¨resĠ": 6940,
      "mois": 6941,
      "avant,Ġ": 6942,
      "tranqu": 6943,
      "Go": 6944,
      "tÃ¢": 6945,
      "dontĠonĠ": 6946,
      "spÃ©cialeĠ": 6947,
      "JâĢĻ": 6948,
      "deĠnosĠ": 6949,
      "d'am": 6950,
      "dÃ©liv": 6951,
      "fruitsĠ": 6952,
      "ÃłĠtraversĠ": 6953,
      "prÃ©cau": 6954,
      "Ã©rirĠ": 6955,
      "aitĠauĠ": 6956,
      "instru": 6957,
      "TÃī": 6958,
      "desĠS": 6959,
      "mineĠ": 6960,
      "sujet": 6961,
      "Ã©cor": 6962,
      "SaintĠ": 6963,
      "TSĠ": 6964,
      "etĠsansĠ": 6965,
      "plusĠqueĠ": 6966,
      "has": 6967,
      "adap": 6968,
      "bisĠ": 6969,
      "pierreĠ": 6970,
      "sentimentĠ": 6971,
      ";Ġ2Â°Ġ": 6972,
      "riveĠ": 6973,
      "cuis": 6974,
      ")Ġ(": 6975,
      "mes.Ġ": 6976,
      "p.Ġ100Ġ": 6977,
      "articul": 6978,
      "atur": 6979,
      "principesĠ": 6980,
      "OpÃ©r": 6981,
      "rÃ©ponditĠ": 6982,
      "civilĠ": 6983,
      "injectionsĠ": 6984,
      "exand": 6985,
      "deĠseĠ": 6986,
      "chr": 6987,
      "est-ilĠ": 6988,
      "bois,Ġ": 6989,
      "bellesĠ": 6990,
      "immen": 6991,
      "ageĠduĠ": 6992,
      "tĠlaĠ": 6993,
      "allemandeĠ": 6994,
      "50ĠĊ": 6995,
      "âĢ¢ĠĊ": 6996,
      "uneĠfoisĠ": 6997,
      "Ã§onĠ": 6998,
      "ESĠETĠ": 6999,
      "plansĠ": 7000,
      "calc": 7001,
      "brÃ»l": 7002,
      ":ĠM": 7003,
      "bureau": 7004,
      "ine.Ġ": 7005,
      "Ã¨Ġ": 7006,
      "publicationĠ": 7007,
      "frac": 7008,
      "losĠ": 7009,
      "cependant,Ġ": 7010,
      "idi": 7011,
      "oun": 7012,
      "19ĠĊ": 7013,
      "Ã©valu": 7014,
      "souvenirĠ": 7015,
      "cf": 7016,
      "guli": 7017,
      "anglaisĠ": 7018,
      "81Ġ": 7019,
      "m,Ġ": 7020,
      ".Ġ-": 7021,
      "duquelĠ": 7022,
      "suivantsĠ": 7023,
      "branchesĠ": 7024,
      "besoinĠdeĠ": 7025,
      "dÃ©montr": 7026,
      "enfants,Ġ": 7027,
      "exploitationĠ": 7028,
      "00,Ġ": 7029,
      "dansĠleĠcasĠ": 7030,
      "PourĠlesĠ": 7031,
      "mÃ©decinĠ": 7032,
      "5,Ġp.Ġ": 7033,
      "infÃ©rieur": 7034,
      "99Ġ": 7035,
      "magnifi": 7036,
      "arbreĠ": 7037,
      "spontan": 7038,
      "bur": 7039,
      "ait.Ġ": 7040,
      "erĠcesĠ": 7041,
      "quiĠÃ©taitĠ": 7042,
      "filĠ": 7043,
      "embarqu": 7044,
      "guy": 7045,
      "116": 7046,
      "neĠl'": 7047,
      "cercleĠ": 7048,
      "27,Ġ": 7049,
      "aoĠ": 7050,
      "possessionĠ": 7051,
      "lich": 7052,
      "Ã¨reĠetĠ": 7053,
      "attentionĠ": 7054,
      "navig": 7055,
      "parĠsaĠ": 7056,
      "Ã©eĠÃłĠl'": 7057,
      "erĠdeĠl'": 7058,
      "Arm": 7059,
      "absolu": 7060,
      "tsĠetĠ": 7061,
      "apl": 7062,
      "rembours": 7063,
      "RA": 7064,
      "appuiĠ": 7065,
      "devenuĠ": 7066,
      "illustr": 7067,
      "Ã¨s": 7068,
      "sĠdeĠlâĢĻ": 7069,
      "intemp": 7070,
      "âĸłĠĊ": 7071,
      "circu": 7072,
      "disponi": 7073,
      "rÃ©gion": 7074,
      "DepuisĠ": 7075,
      "audĠ": 7076,
      "gÃ©nÃ©ralĠdeĠ": 7077,
      "seulsĠ": 7078,
      "Mer": 7079,
      "e:Ġ": 7080,
      "ementĠdeĠl'": 7081,
      "95Ġ": 7082,
      "enĠlaĠ": 7083,
      "comteĠdeĠ": 7084,
      "iers,Ġ": 7085,
      "septembreĠ19": 7086,
      "procÃ©dÃ©Ġ": 7087,
      "cÃ©lÃ¨": 7088,
      "soup": 7089,
      "0,0": 7090,
      "Sign": 7091,
      "gour": 7092,
      "gÃ©nieĠ": 7093,
      "21ĠĊ": 7094,
      "Fau": 7095,
      "caoutchou": 7096,
      "sontĠenĠ": 7097,
      "phoneĠ": 7098,
      "rÃ©sultat": 7099,
      "tusĠ": 7100,
      "issi": 7101,
      "peut,Ġ": 7102,
      "OrlÃ©": 7103,
      "offensiveĠ": 7104,
      "itudeĠ": 7105,
      "avenirĠ": 7106,
      "pourĠdesĠ": 7107,
      "2Ġ+Ġ": 7108,
      "sinĠ": 7109,
      ",0": 7110,
      "ambi": 7111,
      "bureauĠ": 7112,
      "soirĠ": 7113,
      "Ã©coul": 7114,
      "etĠnousĠ": 7115,
      "avaientĠÃ©tÃ©Ġ": 7116,
      "Ã©ducationĠ": 7117,
      "64Ġ": 7118,
      "Lo": 7119,
      "emport": 7120,
      "loc.Ġ": 7121,
      "mauvaiseĠ": 7122,
      "recommand": 7123,
      "collabor": 7124,
      "oĠdeĠ": 7125,
      "cerv": 7126,
      "dre,Ġ": 7127,
      "sÃ©v": 7128,
      "audi": 7129,
      "reÃ§oitĠ": 7130,
      "Cer": 7131,
      "Ã©ĠdansĠlaĠ": 7132,
      "courbeĠ": 7133,
      "auxquellesĠ": 7134,
      "1ĠerĠ": 7135,
      "lÃ©giti": 7136,
      "court,Ġ": 7137,
      "complÃ¨teĠ": 7138,
      "Ital": 7139,
      "etĠsurtoutĠ": 7140,
      "ativesĠ": 7141,
      "importanteĠ": 7142,
      "0.00Ġ0.00Ġ": 7143,
      "enĠraisonĠ": 7144,
      "6,Ġp.Ġ": 7145,
      "sĠĊ": 7146,
      "TEUR": 7147,
      "leĠcasĠ": 7148,
      "parĠconsÃ©qu": 7149,
      "avecĠsesĠ": 7150,
      "cÃ©rÃ©br": 7151,
      "e,ĠauĠ": 7152,
      "vÃ©ritÃ©Ġ": 7153,
      ".ĠEllesĠ": 7154,
      "!ĠÂ»Ġ": 7155,
      "+Ġ+Ġ+Ġ+Ġ+Ġ+Ġ+Ġ+Ġ": 7156,
      "Grou": 7157,
      "intr": 7158,
      "neĠdoitĠ": 7159,
      "aprÃ¨sĠl'": 7160,
      ".ĠduĠ": 7161,
      "fÃ©vri": 7162,
      "bliothÃ¨queĠ": 7163,
      "Ã©tern": 7164,
      "cesĠdeĠ": 7165,
      "land": 7166,
      "crit": 7167,
      "BOUR": 7168,
      "eĠC.ĠA": 7169,
      "bas,Ġ": 7170,
      "M.ĠL": 7171,
      "Ã©quationĠ": 7172,
      "caisseĠ": 7173,
      "dresĠ": 7174,
      "morce": 7175,
      "rÃ©vÃ©l": 7176,
      "remar": 7177,
      "applicationĠ": 7178,
      "abbay": 7179,
      "ditesĠ": 7180,
      "CA": 7181,
      "atiqueĠ": 7182,
      "imentĠ": 7183,
      "-jeĠ": 7184,
      "ConseilĠd'": 7185,
      "satisfac": 7186,
      "aujourd'hu": 7187,
      "s-Un": 7188,
      "mad": 7189,
      "unionĠ": 7190,
      "douzeĠ": 7191,
      "devrontĠ": 7192,
      "diffÃ©rent": 7193,
      "dÃ©pl": 7194,
      "entrepriseĠ": 7195,
      "if": 7196,
      "issu": 7197,
      "quiĠlaĠ": 7198,
      "8,Ġp.Ġ": 7199,
      "TUR": 7200,
      "ÃłĠpartirĠ": 7201,
      "chevÃª": 7202,
      "mÃ©rit": 7203,
      "antin": 7204,
      "ouĠunĠ": 7205,
      "extrÃªmementĠ": 7206,
      "VAL": 7207,
      "ennes,Ġ": 7208,
      "eriesĠ": 7209,
      "fÃ©vrierĠ19": 7210,
      "90ĠĊ": 7211,
      "minÃ©r": 7212,
      "Comp": 7213,
      "chiffresĠ": 7214,
      ",ĠB": 7215,
      "tenueĠ": 7216,
      "magistr": 7217,
      "rÃ©u": 7218,
      "etinĠ": 7219,
      "Tribun": 7220,
      "IEĠĊ": 7221,
      "Tu": 7222,
      "5ĠÃłĠ": 7223,
      "rÃ¨glementĠ": 7224,
      "Gaz": 7225,
      "deĠlaĠloiĠ": 7226,
      "goÃ»tĠ": 7227,
      "propresĠ": 7228,
      "tĠ(": 7229,
      "creus": 7230,
      "aprÃ¨sĠleĠ": 7231,
      "M.ĠP": 7232,
      "ileĠdeĠ": 7233,
      "Ã©sĠduĠ": 7234,
      "ouxĠ": 7235,
      "150Ġ": 7236,
      "affec": 7237,
      "Ã©crireĠ": 7238,
      ").ĠLesĠ": 7239,
      "VER": 7240,
      "titul": 7241,
      "Etat,Ġ": 7242,
      "lorsqu'ilĠ": 7243,
      "IERĠ": 7244,
      "77Ġ": 7245,
      "ID": 7246,
      "Ã´m": 7247,
      "14ĠĊ": 7248,
      "consÃ©quenceĠ": 7249,
      "ajouterĠ": 7250,
      "automob": 7251,
      "^ĠĊ": 7252,
      "Rh": 7253,
      "xim": 7254,
      "112": 7255,
      "acheĠ": 7256,
      "visageĠ": 7257,
      "ToutesĠ": 7258,
      "BienĠ": 7259,
      "e).Ġ": 7260,
      "veilleĠ": 7261,
      "pr.,Ġ": 7262,
      "dÃ©finiti": 7263,
      "frÃ©quemmentĠ": 7264,
      "ony": 7265,
      "sur-": 7266,
      "LÃī": 7267,
      "e.ĠCesĠ": 7268,
      "JeĠvousĠ": 7269,
      "Sol": 7270,
      "e.ĠP": 7271,
      "33,Ġ": 7272,
      "atteint": 7273,
      "voyageĠ": 7274,
      "-t": 7275,
      "ampl": 7276,
      "cahi": 7277,
      "lieu,Ġ": 7278,
      "joi": 7279,
      "traver": 7280,
      "vic": 7281,
      "tĠduĠ": 7282,
      "retir": 7283,
      "froid": 7284,
      "nuit,Ġ": 7285,
      "attendreĠ": 7286,
      "rÃ©sulteĠ": 7287,
      "reauĠ": 7288,
      "publique,Ġ": 7289,
      "tiend": 7290,
      "bonnesĠ": 7291,
      "fr.ĠĊ": 7292,
      "contreĠl'": 7293,
      "vis-": 7294,
      "oÃ¹ĠelleĠ": 7295,
      "faire,Ġ": 7296,
      "obligationsĠ": 7297,
      "nÃ©cessitÃ©Ġ": 7298,
      "38,Ġ": 7299,
      "preuv": 7300,
      "surfac": 7301,
      "d.ĠĊ": 7302,
      "empar": 7303,
      "oientĠ": 7304,
      "aprÃ¨s,Ġ": 7305,
      "piqu": 7306,
      "ans.Ġ": 7307,
      "triceĠ": 7308,
      "marchÃ©Ġ": 7309,
      "Cou": 7310,
      "lun": 7311,
      "deĠN": 7312,
      "joint": 7313,
      ",.Ġ": 7314,
      "Bri": 7315,
      "durÃ©": 7316,
      "Ã©ĠparĠunĠ": 7317,
      "langu": 7318,
      "AUX": 7319,
      "atteign": 7320,
      "Ã©quip": 7321,
      ").ĠS": 7322,
      "eursĠetĠ": 7323,
      "certainementĠ": 7324,
      "Ã©galĠ": 7325,
      "repos": 7326,
      "tang": 7327,
      "Ã©ro": 7328,
      "sulfu": 7329,
      "Prin": 7330,
      "83Ġ": 7331,
      "enĠceĠquiĠconcerneĠ": 7332,
      "humain": 7333,
      "mobi": 7334,
      "pÃ©riment": 7335,
      "agi": 7336,
      "cutan": 7337,
      "Fin": 7338,
      "10.": 7339,
      "Abb": 7340,
      "EtatsĠ": 7341,
      "candid": 7342,
      "van-": 7343,
      "rÃ©alitÃ©Ġ": 7344,
      "vein": 7345,
      "Ã¤": 7346,
      "mini": 7347,
      "EMP": 7348,
      "mobilis": 7349,
      "ZĠ": 7350,
      "avec": 7351,
      "CodeĠ": 7352,
      "ture,Ġ": 7353,
      "consult": 7354,
      "greff": 7355,
      "deĠlaĠvieĠ": 7356,
      "toutĠceĠquiĠ": 7357,
      "ÅĵuvresĠ": 7358,
      "Bret": 7359,
      "erĠ:Ġ": 7360,
      "impres": 7361,
      "allonsĠ": 7362,
      "paroisĠ": 7363,
      "menac": 7364,
      "ennemisĠ": 7365,
      "Assembl": 7366,
      "queĠleurĠ": 7367,
      "possibil": 7368,
      ")Ġ1": 7369,
      ",1Ġ": 7370,
      "wag": 7371,
      "IIIĠĊ": 7372,
      "9,Ġp.Ġ": 7373,
      "ations.ĠĊ": 7374,
      "publicsĠ": 7375,
      "elleĠduĠ": 7376,
      "abat": 7377,
      "PlusĠ": 7378,
      "conventionĠ": 7379,
      "enĠĊ": 7380,
      "trenteĠ": 7381,
      "ock": 7382,
      "solli": 7383,
      "promen": 7384,
      "MAN": 7385,
      "eccl": 7386,
      "recherchesĠ": 7387,
      "oineĠ": 7388,
      "terrainsĠ": 7389,
      "Ã©preuv": 7390,
      "ItalieĠ": 7391,
      "etĠĊ": 7392,
      "corpu": 7393,
      "discu": 7394,
      "FRANÃĩ": 7395,
      "ine.ĠĊ": 7396,
      "ce-": 7397,
      "Ã©ĠcommeĠ": 7398,
      "au-dessousĠ": 7399,
      "i'": 7400,
      "or,Ġ": 7401,
      "observeĠ": 7402,
      "d'ailleurs,Ġ": 7403,
      "comman": 7404,
      "sÃ©jourĠ": 7405,
      "formul": 7406,
      "Tour": 7407,
      "troubl": 7408,
      "pÃ¨re,Ġ": 7409,
      "rÃ©ductionĠ": 7410,
      "EĠDEĠLAĠ": 7411,
      "magnÃ©": 7412,
      "Ã©ĠouĠ": 7413,
      "intÃ©rieur": 7414,
      ").ĠC": 7415,
      "mort,Ġ": 7416,
      "-j": 7417,
      "ezĠdeĠ": 7418,
      "corpsĠdeĠ": 7419,
      "jeuĠ": 7420,
      "appr": 7421,
      "ressembl": 7422,
      "(long.Ġ": 7423,
      "84Ġ": 7424,
      "l'honn": 7425,
      "permetĠdeĠ": 7426,
      "mÃ©nag": 7427,
      "rag": 7428,
      "63": 7429,
      "posteĠ": 7430,
      "Mu": 7431,
      "dreĠdeĠ": 7432,
      "bourgĠ": 7433,
      "volum": 7434,
      "omĠ": 7435,
      "elĠetĠ": 7436,
      "recueilli": 7437,
      "professeurĠ": 7438,
      "san": 7439,
      "graiss": 7440,
      "changeĠ": 7441,
      "on.Ġ": 7442,
      "cruĠ": 7443,
      "Gau": 7444,
      "HO": 7445,
      "ence.ĠĊ": 7446,
      "Ã¯Ġ": 7447,
      "regret": 7448,
      "ymph": 7449,
      "cation,Ġ": 7450,
      "dÃ©pu": 7451,
      ".ĠâĢĶĠR": 7452,
      "monde,Ġ": 7453,
      "communicationĠ": 7454,
      "Ã©.Ġ": 7455,
      "salutĠ": 7456,
      "Ai": 7457,
      "erĠdansĠleĠ": 7458,
      "cienĠ": 7459,
      "caval": 7460,
      "Ã©ĠdansĠleĠ": 7461,
      "comporteĠ": 7462,
      "devantĠlaĠ": 7463,
      "cis": 7464,
      "courb": 7465,
      "ceux-ciĠ": 7466,
      "sag": 7467,
      "iste,Ġ": 7468,
      "manus": 7469,
      "NosĠ": 7470,
      "leu": 7471,
      "ophi": 7472,
      "isĠdeĠ": 7473,
      "peuplesĠ": 7474,
      "tivesĠ": 7475,
      "corps,Ġ": 7476,
      "avantag": 7477,
      "psych": 7478,
      "22,Ġ": 7479,
      "retsĠ": 7480,
      "Ã©,ĠleĠ": 7481,
      "choisi": 7482,
      "GrandĠ": 7483,
      "DÃ©cr.Ġ": 7484,
      "foss": 7485,
      "queĠsaĠ": 7486,
      "cheminsĠdeĠ": 7487,
      "lesĠetĠ": 7488,
      "syndi": 7489,
      "linĠ": 7490,
      "faibl": 7491,
      "DEĠL'": 7492,
      "23ĠĊ": 7493,
      "attaquesĠ": 7494,
      "quoti": 7495,
      "ILĠ": 7496,
      "arn": 7497,
      "interrom": 7498,
      ".ĠMais,Ġ": 7499,
      "rÃ©n": 7500,
      "ouvragesĠ": 7501,
      "proportionn": 7502,
      "concurr": 7503,
      "Ess": 7504,
      "Ã©esĠparĠleĠ": 7505,
      "piedsĠ": 7506,
      "adresseĠ": 7507,
      "SÃ©n": 7508,
      "Ã©esĠauxĠ": 7509,
      "ÃĢĠ": 7510,
      "Ci": 7511,
      "Ã©ĠdeĠl'": 7512,
      "porter": 7513,
      "ÃłĠlaĠsuiteĠ": 7514,
      "guerre": 7515,
      "21,Ġ": 7516,
      "IO": 7517,
      "M.ĠM": 7518,
      "bÃ©nÃ©ficeĠ": 7519,
      "ArticleĠ": 7520,
      "coc": 7521,
      "x.ĠĊ": 7522,
      "reste,Ġ": 7523,
      "Louis": 7524,
      "procheĠ": 7525,
      "oiseĠ": 7526,
      "oscill": 7527,
      ".Ġ.Ġ.Ġ.Ġ": 7528,
      "desĠplusĠ": 7529,
      "siĠelleĠ": 7530,
      "SAIN": 7531,
      "erĠleursĠ": 7532,
      "lieuxĠ": 7533,
      "ante.Ġ": 7534,
      "rÃ©pan": 7535,
      "tubeĠ": 7536,
      "Â»ĠÂ»Ġ": 7537,
      "connaÃ®tĠ": 7538,
      "ROU": 7539,
      "allemandĠ": 7540,
      "PÃī": 7541,
      "d'Ġ": 7542,
      "consenti": 7543,
      "pÃ©ni": 7544,
      "voisĠ": 7545,
      "Ã©pau": 7546,
      "besoinsĠ": 7547,
      "lux": 7548,
      "BN": 7549,
      "GN": 7550,
      "hÃ¢": 7551,
      "aientĠÃłĠ": 7552,
      "putĠ": 7553,
      "archiv": 7554,
      "61Ġ": 7555,
      "dÃ©vou": 7556,
      "appell": 7557,
      "cÃ¨sĠ": 7558,
      "surĠsesĠ": 7559,
      "Ã©sĠdeĠlaĠ": 7560,
      "ĠDUĠ": 7561,
      "longuesĠ": 7562,
      "dÃ©partement": 7563,
      "GÃ©nÃ©ralĠ": 7564,
      "ons-nousĠ": 7565,
      "(voirĠ": 7566,
      "montĠ": 7567,
      "vautĠ": 7568,
      "ticeĠ": 7569,
      "accep": 7570,
      "Tourn": 7571,
      "budg": 7572,
      "vouloirĠ": 7573,
      "ens.Ġ": 7574,
      "0m": 7575,
      "suivi": 7576,
      "ante-": 7577,
      "Ã©mi": 7578,
      "Ã©trangersĠ": 7579,
      "pendantĠlesĠ": 7580,
      "1\"Ġ": 7581,
      "frÃ©quent": 7582,
      "etĠÃłĠl'": 7583,
      "Vier": 7584,
      "voir,Ġ": 7585,
      "175": 7586,
      "berg": 7587,
      "camar": 7588,
      "ceĠdernierĠ": 7589,
      "groupesĠ": 7590,
      "combatĠ": 7591,
      "voilÃłĠ": 7592,
      "94": 7593,
      "COR": 7594,
      "sertĠ": 7595,
      "PARTI": 7596,
      "ma": 7597,
      "oly": 7598,
      "TRO": 7599,
      "tribunalĠ": 7600,
      "-,Ġ": 7601,
      ".ĠRe": 7602,
      "tuberculo": 7603,
      "rejet": 7604,
      "Tch": 7605,
      "b.Ġ": 7606,
      "es,ĠilĠ": 7607,
      "expÃ©riment": 7608,
      "essesĠ": 7609,
      "duĠmÃªmeĠ": 7610,
      "apparaiss": 7611,
      "rienĠdeĠ": 7612,
      "maximumĠ": 7613,
      "collÃ¨": 7614,
      "dÃ©mentĠ": 7615,
      "Â«ĠLeĠ": 7616,
      "GuillaumeĠ": 7617,
      "atoiresĠ": 7618,
      "tromp": 7619,
      "etĠ(": 7620,
      "quandĠonĠ": 7621,
      "modificationsĠ": 7622,
      "69Ġ": 7623,
      "faut": 7624,
      "antĠÃłĠl'": 7625,
      "coeurĠ": 7626,
      "blesĠdeĠ": 7627,
      "67Ġ": 7628,
      "Ur": 7629,
      "positionĠdeĠ": 7630,
      "Ã©vÃ©nementsĠ": 7631,
      "pasĠd'": 7632,
      "177": 7633,
      "avantĠdeĠ": 7634,
      "principalĠ": 7635,
      "Ãĭ": 7636,
      "es,ĠquiĠ": 7637,
      "contract": 7638,
      "XXX": 7639,
      "voulaitĠ": 7640,
      "SÃ©": 7641,
      "ES,Ġ": 7642,
      "rueĠdeĠ": 7643,
      "protectionĠ": 7644,
      "pe,Ġ": 7645,
      "Bal": 7646,
      "gou": 7647,
      "fois": 7648,
      "(1),Ġ": 7649,
      "AlgÃ©ri": 7650,
      "fal": 7651,
      "phili": 7652,
      "tiers,Ġ": 7653,
      "attitudeĠ": 7654,
      "demĠ": 7655,
      "d'origineĠ": 7656,
      "Ã©chÃ©": 7657,
      "avecĠsonĠ": 7658,
      "souh": 7659,
      ").ĠD": 7660,
      "Vol": 7661,
      "trim": 7662,
      ")ĠÂ«Ġ": 7663,
      "estĠl'": 7664,
      ".,ĠleĠ": 7665,
      "Conse": 7666,
      "homme,Ġ": 7667,
      "RevueĠ": 7668,
      "comteĠ": 7669,
      "dÃ©tailĠ": 7670,
      "eĠĊ": 7671,
      "souvent,Ġ": 7672,
      "Enfin,Ġ": 7673,
      "partieĠdeĠlaĠ": 7674,
      "envah": 7675,
      "agit": 7676,
      "ector": 7677,
      "ionsĠ": 7678,
      "aientĠdeĠ": 7679,
      "ITÃī": 7680,
      "singuli": 7681,
      "joieĠ": 7682,
      "eth": 7683,
      "stÃ©r": 7684,
      "Ben": 7685,
      "annex": 7686,
      "TouteĠ": 7687,
      "beauxĠ": 7688,
      "conscienceĠ": 7689,
      "thÃ¨seĠ": 7690,
      "Voil": 7691,
      "gel": 7692,
      "purĠ": 7693,
      "lui-mÃªme,Ġ": 7694,
      "annexeĠ": 7695,
      "secoursĠ": 7696,
      "oĠĊ": 7697,
      "argu": 7698,
      "'-": 7699,
      "sinc": 7700,
      "e.ĠL": 7701,
      "ver,Ġ": 7702,
      "naissanceĠ": 7703,
      "91Ġ": 7704,
      "Cy": 7705,
      "Ã©eĠ(": 7706,
      "maiĠ18": 7707,
      ").ĠLaĠ": 7708,
      "parĠsesĠ": 7709,
      "ouĠdeĠlaĠ": 7710,
      "Ã©lÃ©mentĠ": 7711,
      "sentimentsĠ": 7712,
      "facilit": 7713,
      "-K": 7714,
      "Indi": 7715,
      "juinĠ18": 7716,
      "Ã©conomieĠ": 7717,
      "88Ġ": 7718,
      "sieur,Ġ": 7719,
      "propriÃ©tÃ©sĠ": 7720,
      "18.ĠĊ": 7721,
      "seigneurĠ": 7722,
      "barr": 7723,
      "ÃłĠSaint-": 7724,
      "pronon": 7725,
      "parolesĠ": 7726,
      "ranch": 7727,
      "mariĠ": 7728,
      "Ã¨s-verb": 7729,
      "joli": 7730,
      "PrÃ©f": 7731,
      "RU": 7732,
      "Thom": 7733,
      "by": 7734,
      "ler": 7735,
      "croitĠ": 7736,
      "ambass": 7737,
      "câĢĻest-Ãł-direĠ": 7738,
      "blo": 7739,
      "fĠdeĠ": 7740,
      "appari": 7741,
      ",4Ġ": 7742,
      "enquÃªteĠ": 7743,
      "attir": 7744,
      "SÃī": 7745,
      ";Ġ15": 7746,
      "mid": 7747,
      "pusĠ": 7748,
      "MAJ": 7749,
      "atesĠ": 7750,
      "chezĠl'": 7751,
      "queĠsoitĠ": 7752,
      "elleĠdesĠ": 7753,
      "ationsĠduĠ": 7754,
      "alcal": 7755,
      "salleĠ": 7756,
      "filsĠdeĠ": 7757,
      "250Ġ": 7758,
      "approch": 7759,
      "anteĠetĠ": 7760,
      "direct": 7761,
      "nombreĠd'": 7762,
      "spiritu": 7763,
      "tout": 7764,
      "Jean-": 7765,
      "fo": 7766,
      "Ã©e": 7767,
      "e,ĠdesĠ": 7768,
      "+Ġ4": 7769,
      "versĠlesĠ": 7770,
      "chevali": 7771,
      "auĠcontraireĠ": 7772,
      "erĠdansĠlesĠ": 7773,
      "dâĢĻabordĠ": 7774,
      "douleurĠ": 7775,
      "successionĠ": 7776,
      ".ĠPl": 7777,
      "tant,Ġ": 7778,
      "ateur": 7779,
      "pun": 7780,
      "âĢĶĠdeĠ": 7781,
      "bienĠdesĠ": 7782,
      "annul": 7783,
      "affectionĠ": 7784,
      "hÃ©morrag": 7785,
      "adj": 7786,
      "soulev": 7787,
      "mam": 7788,
      "diman": 7789,
      "EauĠ": 7790,
      "coupsĠdeĠ": 7791,
      "deĠlaĠR": 7792,
      "fiÃ¨vreĠ": 7793,
      "arrach": 7794,
      "extÃ©rieur": 7795,
      "d'orĠ": 7796,
      "duch": 7797,
      "tionĠdeĠl'": 7798,
      "resĠetĠ": 7799,
      "asse": 7800,
      "hÃ©roÃ¯": 7801,
      "SOCI": 7802,
      "grec": 7803,
      "quiĠn'": 7804,
      "prÃ©ven": 7805,
      "AinsiĠ": 7806,
      "repouss": 7807,
      "ici,Ġ": 7808,
      "complÃ©t": 7809,
      "suffisammentĠ": 7810,
      "jal": 7811,
      "rÃ©actionĠ": 7812,
      "espoirĠ": 7813,
      "Pay": 7814,
      "richeĠ": 7815,
      "Â».Ġ": 7816,
      "Messi": 7817,
      "pleur": 7818,
      "d'autreĠpart,Ġ": 7819,
      "depuisĠleĠ": 7820,
      "employÃ©sĠ": 7821,
      "Ã©limin": 7822,
      "port,Ġ": 7823,
      "âĢĶĠ(": 7824,
      "surĠsaĠ": 7825,
      "renforc": 7826,
      "titreĠdeĠ": 7827,
      "Pou": 7828,
      "ral": 7829,
      "successi": 7830,
      "atriceĠ": 7831,
      "luiĠdonn": 7832,
      "chefsĠ": 7833,
      "corpsĠd'": 7834,
      "etĠetĠ": 7835,
      "estĠin": 7836,
      "soix": 7837,
      "sommeĠdeĠ": 7838,
      "VotreĠ": 7839,
      "auraisĠ": 7840,
      "franÃ§aisesĠ": 7841,
      "partag": 7842,
      "27ĠĊ": 7843,
      "dansĠlaquelleĠ": 7844,
      "spect": 7845,
      "ementĠÃłĠ": 7846,
      "(p.Ġ": 7847,
      "i.ĠĊ": 7848,
      "pasĠunĠ": 7849,
      "160": 7850,
      "Command": 7851,
      "on-": 7852,
      "celuiĠduĠ": 7853,
      "ser,Ġ": 7854,
      "misĠdeĠ": 7855,
      "PARĠ": 7856,
      "estĠÃłĠ": 7857,
      "sonn": 7858,
      "qu'ilĠfautĠ": 7859,
      "dansĠlaĠrÃ©gionĠ": 7860,
      "c'estĠleĠ": 7861,
      "prixĠdeĠ": 7862,
      "permisĠ": 7863,
      "NonĠ": 7864,
      "onieĠ": 7865,
      "110": 7866,
      "mot": 7867,
      "queĠtuĠ": 7868,
      "endro": 7869,
      "entretienĠ": 7870,
      ".ĠLettreĠ": 7871,
      "voiesĠ": 7872,
      "dansĠlequelĠ": 7873,
      "phÃ©nom": 7874,
      "fautĠpasĠ": 7875,
      "tureĠdeĠ": 7876,
      ");ĠâĢĶĠ": 7877,
      "occupeĠ": 7878,
      "Juli": 7879,
      "plaisirĠ": 7880,
      "sug": 7881,
      "SĠETĠ": 7882,
      "CongrÃ¨sĠ": 7883,
      ",2Ġ": 7884,
      "vusĠ": 7885,
      "73": 7886,
      "qualitÃ©sĠ": 7887,
      "tudeĠ": 7888,
      "oÃ«": 7889,
      "16ĠĊ": 7890,
      "souvenir": 7891,
      "DeĠlaĠ": 7892,
      "raisonn": 7893,
      "diamÃ¨treĠ": 7894,
      "dÃ©esĠ": 7895,
      "fourniss": 7896,
      "eĠarmÃ©eĠ": 7897,
      "passi": 7898,
      "axeĠ": 7899,
      "poudreĠ": 7900,
      "100,0Ġ": 7901,
      "(1).Ġ": 7902,
      "salu": 7903,
      "occident": 7904,
      "etĠdeĠlâĢĻ": 7905,
      "SC": 7906,
      ".ĠVousĠ": 7907,
      "combus": 7908,
      "ocr": 7909,
      "Ġ100": 7910,
      "ongĠ": 7911,
      "Marse": 7912,
      "I,Ġp.Ġ": 7913,
      "sortirĠ": 7914,
      "soit,Ġ": 7915,
      "convientĠ": 7916,
      "reconnaissanceĠ": 7917,
      "consist": 7918,
      "ecteurĠ": 7919,
      "mesur": 7920,
      "raisembl": 7921,
      "riersĠ": 7922,
      ".ĠQuandĠ": 7923,
      "QĠ": 7924,
      "logi": 7925,
      "admettreĠ": 7926,
      "faut,Ġ": 7927,
      "importantĠ": 7928,
      "V,Ġ": 7929,
      "toutĠenti": 7930,
      "trouvÃ©Ġ": 7931,
      "observationĠ": 7932,
      "aiesĠ": 7933,
      "onsĠetĠ": 7934,
      "cosĠ": 7935,
      "irrÃ©guli": 7936,
      "'.": 7937,
      "centresĠ": 7938,
      "(F": 7939,
      "REN": 7940,
      "estimeĠ": 7941,
      "BA": 7942,
      "ra,Ġ": 7943,
      "qu'ilĠyĠ": 7944,
      "euseĠetĠ": 7945,
      "37,Ġ": 7946,
      "BUR": 7947,
      "enĠvueĠ": 7948,
      "aleĠduĠ": 7949,
      "ci-dessusĠ": 7950,
      "2).ĠĊ": 7951,
      "Bru": 7952,
      ".ĠâĢĶĠT": 7953,
      "in-8": 7954,
      "eau.ĠĊ": 7955,
      "et,ĠenĠ": 7956,
      "rÃ©pondreĠ": 7957,
      "perp": 7958,
      "0.Ġ": 7959,
      "Mauri": 7960,
      "estreĠ": 7961,
      "Ma": 7962,
      "uneĠautreĠ": 7963,
      "grad": 7964,
      "ouĠl'": 7965,
      "bit": 7966,
      "enl": 7967,
      "+Ġ5": 7968,
      "leĠplusĠsouventĠ": 7969,
      "antill": 7970,
      "chevauxĠ": 7971,
      "art,Ġ": 7972,
      "erĠsansĠ": 7973,
      "teĠenĠ": 7974,
      "rÃ©d": 7975,
      "assistanceĠ": 7976,
      "I.Ġ": 7977,
      "point,Ġ": 7978,
      "c-": 7979,
      "Ãīgl": 7980,
      "principalesĠ": 7981,
      "enfin,Ġ": 7982,
      "imĠ": 7983,
      "surĠcetteĠ": 7984,
      "duĠmoinsĠ": 7985,
      "oÃ¹ĠilsĠ": 7986,
      "93Ġ": 7987,
      "ants.ĠĊ": 7988,
      "davantageĠ": 7989,
      "elleĠaĠ": 7990,
      ",6Ġ": 7991,
      "ok": 7992,
      ".ĠâĢĶĠV": 7993,
      "maireĠ": 7994,
      "massi": 7995,
      "principalementĠ": 7996,
      "fatigu": 7997,
      ".N": 7998,
      "verseĠ": 7999,
      ",3Ġ": 8000,
      ".,Ġt.Ġ": 8001,
      "86Ġ": 8002,
      "98Ġ": 8003,
      "mÃ¨re,Ġ": 8004,
      "mÃ©dicam": 8005,
      "variÃ©tÃ©Ġ": 8006,
      "ligneĠdeĠ": 8007,
      "ÃłĠS": 8008,
      "ezĠlesĠ": 8009,
      "ique.Ġ": 8010,
      "progressiv": 8011,
      "r.ĠĊ": 8012,
      "Ã©sĠparĠlaĠ": 8013,
      "born": 8014,
      "flexi": 8015,
      "secour": 8016,
      "OrdreĠ": 8017,
      "porterĠ": 8018,
      "gÃ©nÃ©ralesĠ": 8019,
      "pendi": 8020,
      "relativesĠ": 8021,
      "mÃ´meĠ": 8022,
      "lendemainĠ": 8023,
      "ineĠetĠ": 8024,
      "mÃ¨tresĠdeĠ": 8025,
      "tÃªte,Ġ": 8026,
      "4)Ġ": 8027,
      "Gal": 8028,
      "einĠ": 8029,
      "siĠvousĠ": 8030,
      "aleĠdesĠ": 8031,
      "duĠCodeĠ": 8032,
      "dÃ©licat": 8033,
      "!..": 8034,
      "29ĠĊ": 8035,
      "sinonĠ": 8036,
      "EmpereurĠ": 8037,
      "JÃ©su": 8038,
      "MAJOR": 8039,
      "ique.ĠĊ": 8040,
      "ELL": 8041,
      "novembreĠ19": 8042,
      "itaill": 8043,
      "bouill": 8044,
      "fixeĠ": 8045,
      "propriÃ©taireĠ": 8046,
      "ranceĠ": 8047,
      "mesĠdeĠ": 8048,
      "Fou": 8049,
      "apr": 8050,
      "dÃ©fens": 8051,
      "tions.ĠĊ": 8052,
      "itÃ©sĠdeĠ": 8053,
      "chÃ¢teauĠ": 8054,
      "ntĠ": 8055,
      "Ġ11Ġ": 8056,
      "soud": 8057,
      "accÃ¨sĠ": 8058,
      "extrÃ©mitÃ©Ġ": 8059,
      "QuelquesĠ": 8060,
      "e-t-": 8061,
      "dÃ©clarationĠ": 8062,
      "rayonsĠ": 8063,
      "queĠdansĠlesĠ": 8064,
      "autrefoisĠ": 8065,
      "113": 8066,
      "bert,Ġ": 8067,
      ",7Ġ": 8068,
      "Ã©sĠouĠ": 8069,
      "d'uneĠmaniÃ¨reĠ": 8070,
      "gly": 8071,
      "huileĠ": 8072,
      "dos": 8073,
      "enĠfav": 8074,
      "vertu": 8075,
      "phÃ©nomÃ¨neĠ": 8076,
      "oiss": 8077,
      "test": 8078,
      "pasĠlesĠ": 8079,
      "Ã®leĠ": 8080,
      "dÃ©fend": 8081,
      "unoĠ": 8082,
      "rigour": 8083,
      "tub": 8084,
      "coteĠ": 8085,
      "chercherĠ": 8086,
      "extrÃªmeĠ": 8087,
      "ÃłĠ1Ġ": 8088,
      "crÃ¢": 8089,
      "modÃ©r": 8090,
      "neĠluiĠ": 8091,
      "tendĠ": 8092,
      ".).ĠâĢĶĠ": 8093,
      "compagni": 8094,
      "87Ġ": 8095,
      "nouvelĠ": 8096,
      "remon": 8097,
      "moyenĠdeĠ": 8098,
      "ensembleĠdesĠ": 8099,
      "archi": 8100,
      "elle": 8101,
      "gis": 8102,
      "convers": 8103,
      "170": 8104,
      "document": 8105,
      "Font": 8106,
      "S-": 8107,
      "__": 8108,
      "deĠSaint-": 8109,
      "eĠdeĠlâĢĻ": 8110,
      "attÃ©nu": 8111,
      "Jan": 8112,
      "MÃ©m": 8113,
      "guÃ©ris": 8114,
      "jouiss": 8115,
      "Henri": 8116,
      "nâĢĻaĠ": 8117,
      "35,Ġ": 8118,
      "verreĠ": 8119,
      "gÃ©nit": 8120,
      "soitĠenĠ": 8121,
      "Sa": 8122,
      "cation": 8123,
      "spÃ©cialĠ": 8124,
      "EspagneĠ": 8125,
      "ih": 8126,
      "p.Ġ10": 8127,
      "ologiquesĠ": 8128,
      "5.Ġ": 8129,
      "MgrĠ": 8130,
      "front": 8131,
      "EĠDESĠ": 8132,
      "admisĠ": 8133,
      "agas": 8134,
      "ant-": 8135,
      "eut-": 8136,
      "erĠouĠ": 8137,
      "JeĠsuisĠ": 8138,
      "Trans": 8139,
      "soir": 8140,
      "op.Ġ": 8141,
      "FRANC": 8142,
      "navireĠ": 8143,
      "catÃ©gorieĠ": 8144,
      "UM": 8145,
      "toiĠ": 8146,
      "lÃ©sionĠ": 8147,
      "qu'ilĠyĠaĠ": 8148,
      ",8Ġ": 8149,
      ".ĠâĢĶĠA": 8150,
      "bleuĠ": 8151,
      "âĻ¦Ġ": 8152,
      "9-": 8153,
      "parĠleurĠ": 8154,
      "fruitĠ": 8155,
      "le.Ġ": 8156,
      "nÃ©an": 8157,
      "ution,Ġ": 8158,
      "pareilĠ": 8159,
      "constateĠ": 8160,
      "quatri": 8161,
      "hommes,Ġ": 8162,
      "7)Ġ": 8163,
      "ementĠlesĠ": 8164,
      "Ã©colesĠ": 8165,
      "outi": 8166,
      "c.Ġ15": 8167,
      "h!Ġ": 8168,
      "celleĠdeĠlaĠ": 8169,
      "millionsĠdeĠ": 8170,
      "brun": 8171,
      "lorsqueĠ": 8172,
      "Bat": 8173,
      "rin": 8174,
      "mÃ©thodesĠ": 8175,
      "abaiss": 8176,
      "appeĠ": 8177,
      "Ã©nag": 8178,
      "ITA": 8179,
      "ANĠ": 8180,
      "tousĠcesĠ": 8181,
      "concili": 8182,
      "Ã¨res.ĠĊ": 8183,
      "Ã©videmmentĠ": 8184,
      "smeĠ": 8185,
      ":ĠLeĠ": 8186,
      "remont": 8187,
      "exĠ": 8188,
      "ne.Ġ": 8189,
      "appareilsĠ": 8190,
      "tempÃ©ratu": 8191,
      "ÃłĠnotreĠ": 8192,
      "EgliseĠ": 8193,
      "Eg": 8194,
      "tra": 8195,
      "remplirĠ": 8196,
      "PARIS": 8197,
      "QuelĠ": 8198,
      "entreĠeuxĠ": 8199,
      "chemin": 8200,
      "ÅĵilĠ": 8201,
      "Ã©quiv": 8202,
      "renouvel": 8203,
      "PÃ©t": 8204,
      "iĠ(": 8205,
      "pneu": 8206,
      "etĠonĠ": 8207,
      "commeĠl'": 8208,
      "dimensionsĠ": 8209,
      "Rem": 8210,
      "inti": 8211,
      "s,ĠlaĠ": 8212,
      "parĠjour": 8213,
      "donnentĠ": 8214,
      "83": 8215,
      "dyn": 8216,
      "ance": 8217,
      "mit": 8218,
      "lai": 8219,
      "Ã´meĠ": 8220,
      "humid": 8221,
      "ocu": 8222,
      "escal": 8223,
      "Ã©Ġ;Ġ": 8224,
      "revenusĠ": 8225,
      "streĠ": 8226,
      "ÃłĠ19": 8227,
      "soudeĠ": 8228,
      "ces": 8229,
      "onĠdesĠ": 8230,
      "16.ĠĊ": 8231,
      "sousĠleĠnomĠdeĠ": 8232,
      "................................": 8233,
      "maladiesĠ": 8234,
      "viendraĠ": 8235,
      "iraĠ": 8236,
      "syphil": 8237,
      "marchandisesĠ": 8238,
      "cÃ©lÃ©": 8239,
      "dans": 8240,
      "croixĠ": 8241,
      "Feu": 8242,
      "risĠ": 8243,
      "ationsĠdesĠ": 8244,
      "quet": 8245,
      "endroitĠ": 8246,
      "enceĠduĠ": 8247,
      "argent": 8248,
      "vasteĠ": 8249,
      "T-MAJOR": 8250,
      "paragrapheĠ": 8251,
      "iseĠdeĠ": 8252,
      "Indu": 8253,
      "Verd": 8254,
      "indigÃ¨nesĠ": 8255,
      "critsĠ": 8256,
      "Â¡": 8257,
      "nousĠaĠ": 8258,
      "11-": 8259,
      "dÃ©sormaisĠ": 8260,
      "rattach": 8261,
      "perpÃ©tu": 8262,
      "92Ġ": 8263,
      "enĠFranceĠ": 8264,
      "Chin": 8265,
      "FranÃ§ois": 8266,
      "sÃ©rieĠdeĠ": 8267,
      "Vers": 8268,
      "presseĠ": 8269,
      "jugementĠ": 8270,
      "je": 8271,
      "Ã©puis": 8272,
      "chargesĠ": 8273,
      "multipli": 8274,
      "TousĠlesĠ": 8275,
      "soldat": 8276,
      "120Ġ": 8277,
      "commisĠ": 8278,
      "particulier,Ġ": 8279,
      "SudĠ": 8280,
      "Liv": 8281,
      "Mil": 8282,
      ";ĠceĠ": 8283,
      "Ã®tĠ": 8284,
      "produit": 8285,
      "gestionĠ": 8286,
      "poign": 8287,
      "pign": 8288,
      "aliÃ©n": 8289,
      "paruĠ": 8290,
      "Et,Ġ": 8291,
      "cre": 8292,
      "calĠ": 8293,
      "usu": 8294,
      "IVĠ": 8295,
      "(V": 8296,
      "avantagesĠ": 8297,
      "cann": 8298,
      "mix": 8299,
      "p.,Ġ": 8300,
      "veloppeĠ": 8301,
      "montagn": 8302,
      "tac": 8303,
      "indirec": 8304,
      "ences,Ġ": 8305,
      "d'abord": 8306,
      "2;Ġ": 8307,
      "ÃłĠluiĠ": 8308,
      "divin": 8309,
      "nas": 8310,
      "imit": 8311,
      "jusqu'ÃłĠceĠ": 8312,
      "avril": 8313,
      "pourĠyĠ": 8314,
      "000ĠĊ": 8315,
      "ulesĠ": 8316,
      "cideĠ": 8317,
      "dâĢĻA": 8318,
      "syphili": 8319,
      "paiementĠ": 8320,
      ",ĠonĠ": 8321,
      ",ĠauĠ": 8322,
      "prÃ©vuesĠ": 8323,
      "intÃ©rÃªt": 8324,
      "dÃ©cretĠ": 8325,
      "ServiceĠ": 8326,
      "Neu": 8327,
      "expÃ©riencesĠ": 8328,
      "Non,Ġ": 8329,
      "visiteĠ": 8330,
      "prÃ©parationĠ": 8331,
      "laditeĠ": 8332,
      "119": 8333,
      "dansĠlesĠconditionsĠ": 8334,
      "minutesĠ": 8335,
      "auĠdÃ©butĠ": 8336,
      "Ki": 8337,
      "dd": 8338,
      "persist": 8339,
      "aÃ©ri": 8340,
      "d'ex": 8341,
      "cardinalĠ": 8342,
      "remerci": 8343,
      "TrÃ©": 8344,
      "ft": 8345,
      "ongeĠ": 8346,
      "estĠdoncĠ": 8347,
      "Ã©sĠÃłĠl'": 8348,
      "contrain": 8349,
      "chercheĠ": 8350,
      "Han": 8351,
      ".ĠW": 8352,
      "-D": 8353,
      "prÃ©vuĠ": 8354,
      "argent,Ġ": 8355,
      "fauteĠ": 8356,
      "appliqueĠ": 8357,
      "XVIII": 8358,
      "responsabil": 8359,
      "essentiellementĠ": 8360,
      "31,Ġ": 8361,
      "onsĠpasĠ": 8362,
      "icileĠ": 8363,
      "heuresĠduĠ": 8364,
      "maison,Ġ": 8365,
      "envelopp": 8366,
      "-n": 8367,
      "::": 8368,
      "Ã©troit": 8369,
      "annonc": 8370,
      "sympath": 8371,
      "esclav": 8372,
      "neĠseraĠ": 8373,
      "Â«ĠlaĠ": 8374,
      "Ã©lÃ©g": 8375,
      "suivant": 8376,
      "GEN": 8377,
      "stĠ": 8378,
      "d'yĠ": 8379,
      "sions,Ġ": 8380,
      "donc,Ġ": 8381,
      "janv": 8382,
      "convain": 8383,
      "affirm": 8384,
      "Ã¢Ġ": 8385,
      "contraireĠ": 8386,
      "permettr": 8387,
      "nature,Ġ": 8388,
      "Prof": 8389,
      "97Ġ": 8390,
      "auĠniveauĠ": 8391,
      "Ã©lÃ©ment": 8392,
      "analogueĠ": 8393,
      "boÃ®": 8394,
      "indiffÃ©r": 8395,
      "arrÃªteĠ": 8396,
      "limitesĠ": 8397,
      "taxeĠ": 8398,
      ".ĠAl": 8399,
      "SiĠleĠ": 8400,
      "tĠdeĠlaĠ": 8401,
      "venueĠ": 8402,
      "coupeĠ": 8403,
      "d'oÃ¹Ġ": 8404,
      "atel": 8405,
      "36,Ġ": 8406,
      "Tun": 8407,
      "ersĠetĠ": 8408,
      "venusĠ": 8409,
      "Ã©esĠÃłĠlaĠ": 8410,
      "InstructionĠ": 8411,
      "paraissentĠ": 8412,
      "enfant,Ġ": 8413,
      "primi": 8414,
      "tard": 8415,
      "COUR": 8416,
      "enĠcasĠdeĠ": 8417,
      "grainesĠ": 8418,
      "boulev": 8419,
      "touteĠl'": 8420,
      "SY": 8421,
      "s.ĠC": 8422,
      "dÃ©partementĠ": 8423,
      "instantĠ": 8424,
      "prÃªtreĠ": 8425,
      "chirurgi": 8426,
      "approvisi": 8427,
      "reprendreĠ": 8428,
      "11.": 8429,
      "racon": 8430,
      "consÃ©quencesĠ": 8431,
      "AcadÃ©mieĠ": 8432,
      "compteĠdeĠ": 8433,
      "cÃ´tÃ©sĠ": 8434,
      "rarementĠ": 8435,
      "ezĠpasĠ": 8436,
      "euse.Ġ": 8437,
      "merveill": 8438,
      "charm": 8439,
      "tionnaireĠ": 8440,
      ",9Ġ": 8441,
      "Ã©eĠparĠunĠ": 8442,
      "vent,Ġ": 8443,
      "oil": 8444,
      "ondres,Ġ": 8445,
      "rien": 8446,
      "stat": 8447,
      "propag": 8448,
      "modes": 8449,
      "surĠleĠfrontĠ": 8450,
      "rÃ¨gneĠ": 8451,
      "autoritÃ©sĠ": 8452,
      "Tot": 8453,
      "exclusivementĠ": 8454,
      "ÃłĠlaĠdispositionĠ": 8455,
      ".,Ġ190": 8456,
      "infectionĠ": 8457,
      "accom": 8458,
      "Ã©poque,Ġ": 8459,
      "24ĠĊ": 8460,
      "Ter": 8461,
      "paroleĠ": 8462,
      "froidĠ": 8463,
      "s,ĠdesĠ": 8464,
      "elles-": 8465,
      "corĠ": 8466,
      "1).ĠĊ": 8467,
      "Ã©e;Ġ": 8468,
      ".Ġ4": 8469,
      "poÃ¨": 8470,
      "but,Ġ": 8471,
      "routeĠdeĠ": 8472,
      "Ã©phal": 8473,
      "-V": 8474,
      "raceĠ": 8475,
      "faitĠdeĠ": 8476,
      "ow": 8477,
      "arth": 8478,
      "enqu": 8479,
      "trist": 8480,
      "deĠlaĠvilleĠ": 8481,
      "Ã®treĠ": 8482,
      "consul": 8483,
      "Ã©tÃ©r": 8484,
      "instructionsĠ": 8485,
      "Cler": 8486,
      "âĢĿ": 8487,
      "prÃ©cipit": 8488,
      "interventionĠ": 8489,
      "AI": 8490,
      "h,Ġ": 8491,
      "concoursĠ": 8492,
      "partieĠdesĠ": 8493,
      "ole,Ġ": 8494,
      "ieĠetĠ": 8495,
      "cheveuxĠ": 8496,
      "access": 8497,
      "RES": 8498,
      "matin,Ġ": 8499,
      "assureĠ": 8500,
      "semblaitĠ": 8501,
      "*Ġ1": 8502,
      "vis-Ãł-": 8503,
      "contempor": 8504,
      "absolueĠ": 8505,
      "uri": 8506,
      "ouĠuneĠ": 8507,
      "naturellementĠ": 8508,
      "loin,Ġ": 8509,
      "respect": 8510,
      "\",Ġ": 8511,
      "NE": 8512,
      "ueĠdeĠ": 8513,
      "Ã©ĠĊ": 8514,
      "pasĠÃªtreĠ": 8515,
      "M.ĠdeĠ": 8516,
      "moyensĠdeĠ": 8517,
      "tissuĠ": 8518,
      "meilleurĠ": 8519,
      "avantĠleĠ": 8520,
      "Hau": 8521,
      "b,Ġ": 8522,
      "nulĠ": 8523,
      "ÃĪMEĠ": 8524,
      "hectar": 8525,
      "(19": 8526,
      "Pap": 8527,
      "ade,Ġ": 8528,
      "signesĠ": 8529,
      "dÃ©pendĠ": 8530,
      "WĠ": 8531,
      "correspondĠ": 8532,
      "ue,Ġ": 8533,
      "pourĠenĠ": 8534,
      "hÃ©li": 8535,
      "aient": 8536,
      "rez": 8537,
      "travail,Ġ": 8538,
      "CC": 8539,
      "unĠhommeĠ": 8540,
      "bourg,Ġ": 8541,
      "vierĠ": 8542,
      "plusĠgrandĠ": 8543,
      "indicationĠ": 8544,
      "34,Ġ": 8545,
      "ĠD'": 8546,
      "haĠ": 8547,
      "joindreĠ": 8548,
      "cavali": 8549,
      "CâĢĻestĠ": 8550,
      ";ĠilĠestĠ": 8551,
      "eiĠ": 8552,
      "Pas": 8553,
      "chÃ¢": 8554,
      "chanc": 8555,
      "neĠfutĠ": 8556,
      "Jap": 8557,
      "Ã©ĠavecĠ": 8558,
      "queĠc'estĠ": 8559,
      "ceauĠ": 8560,
      "carn": 8561,
      "quement,Ġ": 8562,
      "enĠseĠ": 8563,
      "Archiv": 8564,
      "n'avaitĠpasĠ": 8565,
      "tique.Ġ": 8566,
      "arab": 8567,
      "e.ĠAĠ": 8568,
      "devantĠlesĠ": 8569,
      "culĠ": 8570,
      "coupa": 8571,
      "inscriptionĠ": 8572,
      "Premi": 8573,
      "rÃ©pondĠ": 8574,
      "Andr": 8575,
      "etc.Ġ": 8576,
      "latinĠ": 8577,
      "rh": 8578,
      "pertesĠ": 8579,
      "refu": 8580,
      "permisĠdeĠ": 8581,
      "monnaieĠ": 8582,
      "114": 8583,
      "ÃīTAT-MAJOR": 8584,
      "lieĠ": 8585,
      "obligationĠ": 8586,
      "fournitĠ": 8587,
      "ÃłĠl'Ã©gardĠ": 8588,
      "FIG": 8589,
      "fabriqu": 8590,
      "Alexand": 8591,
      "diagnosticĠ": 8592,
      "pesĠ": 8593,
      "nousĠnousĠ": 8594,
      "concep": 8595,
      "duĠdroitĠ": 8596,
      "ilĠn'yĠaĠ": 8597,
      "cuiller": 8598,
      "inĠetĠ": 8599,
      "chaleurĠ": 8600,
      ",'": 8601,
      "nsĠ": 8602,
      "perdu": 8603,
      "tinĠ": 8604,
      "pendantĠleĠ": 8605,
      "absorb": 8606,
      "mÃªme.Ġ": 8607,
      "remettreĠ": 8608,
      "E.)Ġ": 8609,
      "sÃ©n": 8610,
      "tentĠ": 8611,
      "ae": 8612,
      "tel": 8613,
      "eĠR": 8614,
      "Â«ĠLaĠ": 8615,
      "loint": 8616,
      "hygi": 8617,
      "nonĠplusĠ": 8618,
      "rÃ©gionĠdeĠ": 8619,
      "arbitr": 8620,
      "interval": 8621,
      "lÃ©gÃ¨reĠ": 8622,
      "assemblÃ©eĠ": 8623,
      "ooĠ": 8624,
      "duĠtravailĠ": 8625,
      "aÃ®tre,Ġ": 8626,
      "lorsqueĠleĠ": 8627,
      "gul": 8628,
      "ageĠetĠ": 8629,
      "eit": 8630,
      "Inter": 8631,
      "investi": 8632,
      "700Ġ": 8633,
      "jj": 8634,
      "lesĠautresĠ": 8635,
      "ainsiĠqueĠlesĠ": 8636,
      "semblableĠ": 8637,
      "bataillonĠ": 8638,
      "ravitaill": 8639,
      "confirm": 8640,
      "anteĠdeĠ": 8641,
      "dit-il,Ġ": 8642,
      "(T": 8643,
      "couleursĠ": 8644,
      "s'ilĠyĠaĠ": 8645,
      "isme,Ġ": 8646,
      "enĠeffetĠ": 8647,
      "ductionĠ": 8648,
      "impressionĠ": 8649,
      "ick": 8650,
      "soul": 8651,
      "ParmiĠ": 8652,
      "ferment": 8653,
      "fas": 8654,
      "dÃ©bar": 8655,
      "distric": 8656,
      "ochin": 8657,
      "papill": 8658,
      "devraitĠ": 8659,
      "INEĠ": 8660,
      "deĠMont": 8661,
      "celuiĠdeĠlaĠ": 8662,
      "olland": 8663,
      "Reims,ĠÃłĠ": 8664,
      "ar,Ġ": 8665,
      "abriĠ": 8666,
      "anciennesĠ": 8667,
      "aeĠ": 8668,
      "bombard": 8669,
      "fraisĠdeĠ": 8670,
      "Ã©min": 8671,
      "rid": 8672,
      "stiquesĠ": 8673,
      "enĠl'": 8674,
      "celles-": 8675,
      "TOR": 8676,
      "mÃ©langeĠ": 8677,
      "Aus": 8678,
      "Ã©Ġd'unĠ": 8679,
      "leur": 8680,
      "e.ĠEtĠ": 8681,
      "semblentĠ": 8682,
      "renonc": 8683,
      "J.-": 8684,
      "tonsĠ": 8685,
      "uniquementĠ": 8686,
      "ctionsĠ": 8687,
      "rien,Ġ": 8688,
      "terre": 8689,
      "struc": 8690,
      "VII": 8691,
      "deu": 8692,
      "acteĠdeĠ": 8693,
      "car,Ġ": 8694,
      "endeĠ": 8695,
      "relatifĠ": 8696,
      "sourceĠ": 8697,
      "ais.ĠĊ": 8698,
      "complic": 8699,
      "chezĠleĠ": 8700,
      "alismeĠ": 8701,
      "indispensableĠ": 8702,
      "iÂ°Ġ": 8703,
      "lesĠmÃªmesĠ": 8704,
      "ouĠtroisĠ": 8705,
      "serr": 8706,
      "registreĠ": 8707,
      "empereurĠ": 8708,
      "une,Ġ": 8709,
      "2ĠâĢĶĠ": 8710,
      "faisaientĠ": 8711,
      "Dev": 8712,
      "28ĠĊ": 8713,
      "erreurĠ": 8714,
      "Est-": 8715,
      "0/0Ġ": 8716,
      "maÃ®tresĠ": 8717,
      ";ĠdeĠ": 8718,
      "1.000Ġ": 8719,
      "Marti": 8720,
      "bai": 8721,
      "d'autantĠplusĠ": 8722,
      "toutĠdeĠ": 8723,
      "chÃ´m": 8724,
      "non,Ġ": 8725,
      "etĠs'": 8726,
      "queĠ(": 8727,
      "cÃ©rÃ©m": 8728,
      "es,Ġl'": 8729,
      "doĠl'": 8730,
      "Toutefois,Ġ": 8731,
      "circulationĠ": 8732,
      "T.": 8733,
      "yeux,Ġ": 8734,
      "rÃ©s,Ġ": 8735,
      "Ã©sĠdansĠlesĠ": 8736,
      "tenaitĠ": 8737,
      "consent": 8738,
      "aussi": 8739,
      "alcool": 8740,
      "ministÃ©ri": 8741,
      "commandementĠ": 8742,
      "graveĠ": 8743,
      "vertĠ": 8744,
      ".ĠSaĠ": 8745,
      "ancienn": 8746,
      "III,Ġp.Ġ": 8747,
      "rappelleĠ": 8748,
      "115": 8749,
      "aĠsonĠ": 8750,
      "erĠdansĠ": 8751,
      "dÃ©fautĠ": 8752,
      "TIV": 8753,
      "membran": 8754,
      "douxĠ": 8755,
      "mÃ¢": 8756,
      "modeĠdeĠ": 8757,
      "remiseĠ": 8758,
      "tÃ©sĠdeĠ": 8759,
      "GER": 8760,
      "foisĠdeĠ": 8761,
      "fÃ©dÃ©r": 8762,
      "ouĠmÃªmeĠ": 8763,
      "fortifi": 8764,
      "semain": 8765,
      "orgu": 8766,
      "deĠlaĠmÃªmeĠ": 8767,
      "quiĠsâĢĻ": 8768,
      "moment": 8769,
      "Camb": 8770,
      "quat": 8771,
      "eux-mÃªmesĠ": 8772,
      "postesĠ": 8773,
      ".ĠS.Ġ": 8774,
      "oÃ¹,Ġ": 8775,
      "And": 8776,
      "disantĠ": 8777,
      "GUER": 8778,
      "faill": 8779,
      "journÃ©": 8780,
      "ilsĠneĠ": 8781,
      "secr": 8782,
      "Rus": 8783,
      "erĠcommeĠ": 8784,
      "infir": 8785,
      "aufĠ": 8786,
      "enĠ18": 8787,
      "arrass": 8788,
      "fortuneĠ": 8789,
      "deĠnotreĠ": 8790,
      "dÃ©pÃ´tĠ": 8791,
      ",5": 8792,
      "jonc": 8793,
      "Ã©ment,Ġ": 8794,
      "......Ġ": 8795,
      "GÃ©": 8796,
      "laĠdÃ©": 8797,
      "er,ĠleĠ": 8798,
      "irrit": 8799,
      "mÃ©ti": 8800,
      "spÃ©cialis": 8801,
      "caĠ": 8802,
      ",Ġ19": 8803,
      "bienĠqueĠ": 8804,
      "prÃ©cÃ©": 8805,
      "solutionsĠ": 8806,
      "neĠsaisĠ": 8807,
      "tribunauxĠ": 8808,
      "IB": 8809,
      "de)Ġ": 8810,
      "HÃ´t": 8811,
      "sangu": 8812,
      "Tan": 8813,
      "ÃłĠleĠ": 8814,
      "3ĠÃłĠ": 8815,
      "torĠ": 8816,
      "OC": 8817,
      ".ĠLeurĠ": 8818,
      "coucheĠ": 8819,
      "lin,Ġ": 8820,
      "loi,Ġ": 8821,
      "laĠre": 8822,
      "agentĠ": 8823,
      "nouveau": 8824,
      "0Ġ0Ġ0Ġ0Ġ": 8825,
      "esĠĊ": 8826,
      "pourĠleurĠ": 8827,
      "suivantĠlaĠ": 8828,
      "Alli": 8829,
      "Chi": 8830,
      "er,ĠetĠ": 8831,
      ".ĠComm": 8832,
      "fat": 8833,
      "vÃªt": 8834,
      "AnnexeĠnÂ°Ġ": 8835,
      "4.ĠâĢĶĠ": 8836,
      "nobl": 8837,
      "AussiĠ": 8838,
      "tarifsĠ": 8839,
      "dÃ©c.Ġ19": 8840,
      "remisĠ": 8841,
      "desĠmemb": 8842,
      "fort,Ġ": 8843,
      "compliqu": 8844,
      "Sur": 8845,
      "coi": 8846,
      "mÃ©ri": 8847,
      "mess": 8848,
      "atti": 8849,
      "bot": 8850,
      "leĠdroitĠdeĠ": 8851,
      "Ã©esĠparĠlaĠ": 8852,
      ".ĠSu": 8853,
      "contraire,Ġ": 8854,
      "retour": 8855,
      "seĠtrouventĠ": 8856,
      "surveillanceĠ": 8857,
      "ARTIC": 8858,
      "sai": 8859,
      "ÃłĠleursĠ": 8860,
      "viveĠ": 8861,
      "22ĠĊ": 8862,
      "DirecteurĠ": 8863,
      "interrog": 8864,
      "mettantĠ": 8865,
      "ectionĠdeĠ": 8866,
      "Ã©lÃ©v": 8867,
      "rĠlesĠ": 8868,
      "ventionĠ": 8869,
      "rÃ©gular": 8870,
      "provinceĠ": 8871,
      "/ĠĊ": 8872,
      "99ĠĊ": 8873,
      "suprÃª": 8874,
      "principaleĠ": 8875,
      "EnfinĠ": 8876,
      "incapa": 8877,
      "grosseĠ": 8878,
      "es.ĠMaisĠ": 8879,
      "Eti": 8880,
      ",Ġ,Ġ": 8881,
      "autrementĠ": 8882,
      ".ĠAĠlaĠ": 8883,
      "Ã©ĠdansĠlesĠ": 8884,
      "conver": 8885,
      "dÃ©ser": 8886,
      "particuliersĠ": 8887,
      "excÃ©d": 8888,
      "Tro": 8889,
      "entrÃ©eĠ": 8890,
      "e.ĠIlĠestĠ": 8891,
      "collecti": 8892,
      "94Ġ": 8893,
      "deĠĊ": 8894,
      "Chev": 8895,
      "tin,Ġ": 8896,
      "arriÃ¨re": 8897,
      "],Ġ": 8898,
      ".Ġ3": 8899,
      "plaqueĠ": 8900,
      "aujourdâĢĻ": 8901,
      "espagn": 8902,
      "yĠestĠ": 8903,
      "rÃ©tr": 8904,
      "ainsi,Ġ": 8905,
      ").ĠP": 8906,
      "veu": 8907,
      "ageĠdeĠlaĠ": 8908,
      "ARI": 8909,
      "ComitÃ©Ġ": 8910,
      "hÃ©dr": 8911,
      "accentu": 8912,
      "Dem": 8913,
      "ATIONSĠ": 8914,
      "antĠdeĠl'": 8915,
      "commeĠonĠ": 8916,
      "Chr": 8917,
      "120": 8918,
      "ordinairementĠ": 8919,
      "neutr": 8920,
      "basi": 8921,
      "grammesĠdeĠ": 8922,
      "Viv": 8923,
      "commerÃ§": 8924,
      "900Ġ": 8925,
      "consol": 8926,
      "renteĠ": 8927,
      "prest": 8928,
      "particip": 8929,
      ".ĠIlĠfautĠ": 8930,
      "rÃ©flÃ©ch": 8931,
      "tarifĠ": 8932,
      "neĠnousĠ": 8933,
      "organismeĠ": 8934,
      "tableauxĠ": 8935,
      "raison,Ġ": 8936,
      "jardinĠ": 8937,
      "ditĠleĠ": 8938,
      "ps": 8939,
      "sodi": 8940,
      "moraleĠ": 8941,
      "LoiĠ": 8942,
      "SousĠ": 8943,
      "saisĠ": 8944,
      "tellementĠ": 8945,
      "printemp": 8946,
      "n'ayantĠ": 8947,
      "elĠdesĠ": 8948,
      "France.Ġ": 8949,
      "eĠsiÃ¨cle,Ġ": 8950,
      "B.ĠĊ": 8951,
      "l'Ġ": 8952,
      "es.ĠEnĠ": 8953,
      "invit": 8954,
      ".ĠCelaĠ": 8955,
      "branch": 8956,
      "analyseĠ": 8957,
      "espaceĠ": 8958,
      "demandesĠ": 8959,
      "quelqueĠchoseĠ": 8960,
      "passag": 8961,
      "Ã©eĠleĠ": 8962,
      "ONĠĊ": 8963,
      "sorĠ": 8964,
      "substanceĠ": 8965,
      "RobertĠ": 8966,
      "isse": 8967,
      "Ã¨ventĠ": 8968,
      "ataĠ": 8969,
      "Ã©quilibreĠ": 8970,
      "i.": 8971,
      "soumis": 8972,
      "antsĠetĠ": 8973,
      "constammentĠ": 8974,
      "otsĠ": 8975,
      "religionĠ": 8976,
      "entou": 8977,
      "seĠprÃ©sent": 8978,
      "queĠsesĠ": 8979,
      "circons": 8980,
      "oxygÃ¨neĠ": 8981,
      ".Ġ11Ġ": 8982,
      "er-": 8983,
      "OP": 8984,
      "ÃłĠĊ": 8985,
      "commandeĠ": 8986,
      "peuĠÃłĠpeuĠ": 8987,
      "procÃ¨s-verb": 8988,
      "alors,Ġ": 8989,
      "cinquanteĠ": 8990,
      "Nguy": 8991,
      "rÃ©e,Ġ": 8992,
      "assis": 8993,
      "joign": 8994,
      "p.ĠĊ": 8995,
      "117": 8996,
      "d'ordreĠ": 8997,
      "entendĠ": 8998,
      "auĠpointĠ": 8999,
      "fauss": 9000,
      "leĠdroitĠ": 9001,
      ".Ġ189": 9002,
      "duĠĊ": 9003,
      "dÃ©livr": 9004,
      "Ã©eĠpourĠ": 9005,
      "toucheĠ": 9006,
      "ationĠd'unĠ": 9007,
      "Ã©esĠouĠ": 9008,
      "trouverĠ": 9009,
      "M.ĠC": 9010,
      "orth": 9011,
      "assign": 9012,
      "Ã§onsĠ": 9013,
      "muqu": 9014,
      "quatriÃ¨meĠ": 9015,
      "e'": 9016,
      "lÃł-": 9017,
      "72": 9018,
      "vom": 9019,
      "queĠĊ": 9020,
      "comprom": 9021,
      "deĠlaĠP": 9022,
      "XVI": 9023,
      "MAL": 9024,
      "liqu": 9025,
      "stric": 9026,
      "rĠlaĠ": 9027,
      "trom": 9028,
      "agr": 9029,
      "groupeĠdeĠ": 9030,
      "ante.ĠĊ": 9031,
      "89Ġ": 9032,
      "quer": 9033,
      "venaitĠ": 9034,
      "devonsĠ": 9035,
      "communesĠ": 9036,
      "MINIS": 9037,
      "Jam": 9038,
      "oritÃ©Ġ": 9039,
      "dÃ©n": 9040,
      "rÃ©sum": 9041,
      "es.ĠL'": 9042,
      "aientĠdesĠ": 9043,
      "prÃªtĠ": 9044,
      "d'aprÃ¨sĠlesĠ": 9045,
      "dÃ©cisionsĠ": 9046,
      "ILLEĠ": 9047,
      "FON": 9048,
      "s.": 9049,
      "dansĠnotreĠ": 9050,
      "nomsĠ": 9051,
      "recouver": 9052,
      "G.": 9053,
      ".ĠK": 9054,
      "projetĠdeĠ": 9055,
      "TABLE": 9056,
      "diamÃ¨": 9057,
      "docteurĠ": 9058,
      "immenseĠ": 9059,
      "Cas": 9060,
      "erie.ĠĊ": 9061,
      "eĠlesĠ": 9062,
      "queĠdeĠl'": 9063,
      "brunĠ": 9064,
      "relatifsĠ": 9065,
      "prÃ©cisÃ©mentĠ": 9066,
      "ret,Ġ": 9067,
      "main,Ġ": 9068,
      "rÃ©si": 9069,
      "matiÃ¨reĠdeĠ": 9070,
      "restentĠ": 9071,
      "criseĠ": 9072,
      "qu'ilĠenĠ": 9073,
      "arrondiss": 9074,
      "ech": 9075,
      "d'H": 9076,
      "fibr": 9077,
      "seigneuri": 9078,
      "perc": 9079,
      "aise,Ġ": 9080,
      "prÃªtresĠ": 9081,
      "PuisĠ": 9082,
      "ent-ilsĠ": 9083,
      "jurisprudenceĠ": 9084,
      "distinctionĠ": 9085,
      "oppositionĠ": 9086,
      ".ĠMar": 9087,
      "CetĠ": 9088,
      "malh": 9089,
      "Gl": 9090,
      "coloniesĠ": 9091,
      "cristall": 9092,
      "clim": 9093,
      "entĠleurĠ": 9094,
      "ÃłĠdr": 9095,
      "extensionĠ": 9096,
      "gris": 9097,
      "olit": 9098,
      "nonĠpasĠ": 9099,
      "soldatĠ": 9100,
      "ÃīTAT-MAJOR.ĠĊ": 9101,
      "SURĠ": 9102,
      "e..": 9103,
      "constitutionĠ": 9104,
      "SociÃ©tÃ©sĠ": 9105,
      "Cass": 9106,
      "aprÃ¨s-": 9107,
      "-^": 9108,
      "a.": 9109,
      "archevÃª": 9110,
      "desĠdeĠ": 9111,
      "onique,Ġ": 9112,
      "murĠ": 9113,
      "Ã©ĠsonĠ": 9114,
      "prÃ©senceĠdeĠ": 9115,
      "profondÃ©mentĠ": 9116,
      "prÃ©fÃ©renceĠ": 9117,
      "pÃ©riodeĠdeĠ": 9118,
      "aigonĠ": 9119,
      "8)Ġ": 9120,
      "Sul": 9121,
      "ateurs,Ġ": 9122,
      "2ĠetĠ": 9123,
      "collectiv": 9124,
      "religieuxĠ": 9125,
      "cusĠ": 9126,
      "spÃ©cialesĠ": 9127,
      "rigu": 9128,
      "s'Ġ": 9129,
      "Blan": 9130,
      "tousĠsesĠ": 9131,
      "flan": 9132,
      "sortĠ": 9133,
      "faudraitĠ": 9134,
      "TÃ©lÃ©phoneĠ": 9135,
      "expliqueĠ": 9136,
      "millionsĠ": 9137,
      "simultan": 9138,
      "Lav": 9139,
      "entrepren": 9140,
      "consacr": 9141,
      "nationĠ": 9142,
      "Ã©eĠ:Ġ": 9143,
      "Â§Ġ1": 9144,
      "raresĠ": 9145,
      "suivieĠ": 9146,
      "destructionĠ": 9147,
      "entreĠl'": 9148,
      ";ĠjeĠ": 9149,
      "quiĠmeĠ": 9150,
      "s),Ġ": 9151,
      "11,": 9152,
      "voituresĠ": 9153,
      "sÃ©curitÃ©Ġ": 9154,
      "rÃ©dig": 9155,
      "fÃ©min": 9156,
      "proclam": 9157,
      "n'avonsĠ": 9158,
      "domesti": 9159,
      "exÃ©cuterĠ": 9160,
      "copieĠ": 9161,
      "territori": 9162,
      "elui-": 9163,
      "enĠuneĠ": 9164,
      "eusement,Ġ": 9165,
      "animalĠ": 9166,
      "rasĠ": 9167,
      "10.ĠĊ": 9168,
      "largementĠ": 9169,
      "donĠ": 9170,
      "dÃ©butĠ": 9171,
      "unĠpetitĠ": 9172,
      ".ĠâĢĶĠE": 9173,
      "35ĠĊ": 9174,
      "Ã©,ĠetĠ": 9175,
      "culairesĠ": 9176,
      "motifsĠ": 9177,
      "mens": 9178,
      "pau": 9179,
      "ales.ĠĊ": 9180,
      "nn": 9181,
      "etĠl'onĠ": 9182,
      "Pierre": 9183,
      "PhilippeĠ": 9184,
      "Ã©tait,Ġ": 9185,
      "Â«ĠLesĠ": 9186,
      "n'estĠplusĠ": 9187,
      "jusquâĢĻÃłĠ": 9188,
      "eureĠdeĠ": 9189,
      "fermi": 9190,
      "m'enĠ": 9191,
      "parlerĠ": 9192,
      "prÃ©sidentĠ": 9193,
      "auĠlieuĠ": 9194,
      "auĠfondĠ": 9195,
      "enthou": 9196,
      "aientĠlaĠ": 9197,
      "immeublesĠ": 9198,
      "Dur": 9199,
      "alement,Ġ": 9200,
      "autourĠdeĠ": 9201,
      "NÂ°": 9202,
      "iz": 9203,
      "vieĠdeĠ": 9204,
      "clairĠ": 9205,
      "500": 9206,
      "26ĠĊ": 9207,
      "adisĠ": 9208,
      "patrio": 9209,
      "symptÃ´mesĠ": 9210,
      "TESĠ": 9211,
      "hauss": 9212,
      "desĠetĠ": 9213,
      "dessou": 9214,
      "vÃ©cu": 9215,
      "pationĠ": 9216,
      "s,ĠdeĠ": 9217,
      "procÃ©dureĠ": 9218,
      "vraisembl": 9219,
      "eantĠ": 9220,
      "fro": 9221,
      ".ĠDu": 9222,
      "pÃªch": 9223,
      "activeĠ": 9224,
      "inĠ(": 9225,
      "carĠilĠ": 9226,
      "revientĠ": 9227,
      "programmeĠ": 9228,
      "fractionĠ": 9229,
      ".0": 9230,
      ".ĠÃī": 9231,
      "rÃ©sol": 9232,
      "Ã©eĠdansĠleĠ": 9233,
      "oires,Ġ": 9234,
      "B,Ġ": 9235,
      "sias": 9236,
      ".ĠDeuxĠ": 9237,
      "pouvoirsĠ": 9238,
      "ambassad": 9239,
      "JosephĠ": 9240,
      "neĠlesĠ": 9241,
      "queĠÃłĠ": 9242,
      "dÃ©critĠ": 9243,
      "icĠ": 9244,
      "passantĠ": 9245,
      "projetĠ": 9246,
      "menteĠ": 9247,
      "auprÃ¨sĠdeĠ": 9248,
      "l'obj": 9249,
      "GÃīNÃīRAL": 9250,
      "SAL": 9251,
      "trainĠ": 9252,
      "elĠduĠ": 9253,
      "pÃ©ch": 9254,
      "trau": 9255,
      "onne,Ġ": 9256,
      "critiqueĠ": 9257,
      "connueĠ": 9258,
      "Constitu": 9259,
      "erĠetĠdeĠ": 9260,
      "ceĠn'estĠpasĠ": 9261,
      "Ã©sĠpourĠ": 9262,
      "ILLE": 9263,
      "indigÃ¨n": 9264,
      "rangĠ": 9265,
      "milieuĠdeĠ": 9266,
      "naviresĠ": 9267,
      "Ã©tiqueĠ": 9268,
      "QuelleĠ": 9269,
      "rÃ©flexi": 9270,
      "nÃ´": 9271,
      "SiĠlaĠ": 9272,
      "horizont": 9273,
      "d'honn": 9274,
      "boisĠdeĠ": 9275,
      ".Ġ12": 9276,
      "dÃ©fendreĠ": 9277,
      "pas.ĠĊ": 9278,
      "82ĠĊ": 9279,
      "MÃªmeĠ": 9280,
      "lap": 9281,
      "juin,Ġ": 9282,
      "flÃ©ch": 9283,
      "alim": 9284,
      "poitr": 9285,
      "vor": 9286,
      "ault,Ġ": 9287,
      "sap": 9288,
      "ableĠetĠ": 9289,
      "blancheĠ": 9290,
      "euse": 9291,
      "dessin": 9292,
      "(5)Ġ": 9293,
      "'i": 9294,
      "ÃłĠP": 9295,
      "queĠluiĠ": 9296,
      ".ĠLou": 9297,
      "Â»ĠdeĠ": 9298,
      "chargÃ©ĠdeĠ": 9299,
      "nich": 9300,
      "calmeĠ": 9301,
      "socialeĠ": 9302,
      "utilesĠ": 9303,
      "prisonniersĠ": 9304,
      "prÃ©h": 9305,
[...]
