<unk>	0
<s>	0
</s>	0
<|eof|>	0
<0x00>	0
<0x01>	0
<0x02>	0
<0x03>	0
<0x04>	0
<0x05>	0
<0x06>	0
<0x07>	0
<0x08>	0
<0x09>	0
<0x0A>	0
<0x0B>	0
<0x0C>	0
<0x0D>	0
<0x0E>	0
<0x0F>	0
<0x10>	0
<0x11>	0
<0x12>	0
<0x13>	0
<0x14>	0
<0x15>	0
<0x16>	0
<0x17>	0
<0x18>	0
<0x19>	0
<0x1A>	0
<0x1B>	0
<0x1C>	0
<0x1D>	0
<0x1E>	0
<0x1F>	0
<0x20>	0
<0x21>	0
<0x22>	0
<0x23>	0
<0x24>	0
<0x25>	0
<0x26>	0
<0x27>	0
<0x28>	0
<0x29>	0
<0x2A>	0
<0x2B>	0
<0x2C>	0
<0x2D>	0
<0x2E>	0
<0x2F>	0
<0x30>	0
<0x31>	0
<0x32>	0
<0x33>	0
<0x34>	0
<0x35>	0
<0x36>	0
<0x37>	0
<0x38>	0
<0x39>	0
<0x3A>	0
<0x3B>	0
<0x3C>	0
<0x3D>	0
<0x3E>	0
<0x3F>	0
<0x40>	0
<0x41>	0
<0x42>	0
<0x43>	0
<0x44>	0
<0x45>	0
<0x46>	0
<0x47>	0
<0x48>	0
<0x49>	0
<0x4A>	0
<0x4B>	0
<0x4C>	0
<0x4D>	0
<0x4E>	0
<0x4F>	0
<0x50>	0
<0x51>	0
<0x52>	0
<0x53>	0
<0x54>	0
<0x55>	0
<0x56>	0
<0x57>	0
<0x58>	0
<0x59>	0
<0x5A>	0
<0x5B>	0
<0x5C>	0
<0x5D>	0
<0x5E>	0
<0x5F>	0
<0x60>	0
<0x61>	0
<0x62>	0
<0x63>	0
<0x64>	0
<0x65>	0
<0x66>	0
<0x67>	0
<0x68>	0
<0x69>	0
<0x6A>	0
<0x6B>	0
<0x6C>	0
<0x6D>	0
<0x6E>	0
<0x6F>	0
<0x70>	0
<0x71>	0
<0x72>	0
<0x73>	0
<0x74>	0
<0x75>	0
<0x76>	0
<0x77>	0
<0x78>	0
<0x79>	0
<0x7A>	0
<0x7B>	0
<0x7C>	0
<0x7D>	0
<0x7E>	0
<0x7F>	0
<0x80>	0
<0x81>	0
<0x82>	0
<0x83>	0
<0x84>	0
<0x85>	0
<0x86>	0
<0x87>	0
<0x88>	0
<0x89>	0
<0x8A>	0
<0x8B>	0
<0x8C>	0
<0x8D>	0
<0x8E>	0
<0x8F>	0
<0x90>	0
<0x91>	0
<0x92>	0
<0x93>	0
<0x94>	0
<0x95>	0
<0x96>	0
<0x97>	0
<0x98>	0
<0x99>	0
<0x9A>	0
<0x9B>	0
<0x9C>	0
<0x9D>	0
<0x9E>	0
<0x9F>	0
<0xA0>	0
<0xA1>	0
<0xA2>	0
<0xA3>	0
<0xA4>	0
<0xA5>	0
<0xA6>	0
<0xA7>	0
<0xA8>	0
<0xA9>	0
<0xAA>	0
<0xAB>	0
<0xAC>	0
<0xAD>	0
<0xAE>	0
<0xAF>	0
<0xB0>	0
<0xB1>	0
<0xB2>	0
<0xB3>	0
<0xB4>	0
<0xB5>	0
<0xB6>	0
<0xB7>	0
<0xB8>	0
<0xB9>	0
<0xBA>	0
<0xBB>	0
<0xBC>	0
<0xBD>	0
<0xBE>	0
<0xBF>	0
<0xC0>	0
<0xC1>	0
<0xC2>	0
<0xC3>	0
<0xC4>	0
<0xC5>	0
<0xC6>	0
<0xC7>	0
<0xC8>	0
<0xC9>	0
<0xCA>	0
<0xCB>	0
<0xCC>	0
<0xCD>	0
<0xCE>	0
<0xCF>	0
<0xD0>	0
<0xD1>	0
<0xD2>	0
<0xD3>	0
<0xD4>	0
<0xD5>	0
<0xD6>	0
<0xD7>	0
<0xD8>	0
<0xD9>	0
<0xDA>	0
<0xDB>	0
<0xDC>	0
<0xDD>	0
<0xDE>	0
<0xDF>	0
<0xE0>	0
<0xE1>	0
<0xE2>	0
<0xE3>	0
<0xE4>	0
<0xE5>	0
<0xE6>	0
<0xE7>	0
<0xE8>	0
<0xE9>	0
<0xEA>	0
<0xEB>	0
<0xEC>	0
<0xED>	0
<0xEE>	0
<0xEF>	0
<0xF0>	0
<0xF1>	0
<0xF2>	0
<0xF3>	0
<0xF4>	0
<0xF5>	0
<0xF6>	0
<0xF7>	0
<0xF8>	0
<0xF9>	0
<0xFA>	0
<0xFB>	0
<0xFC>	0
<0xFD>	0
<0xFE>	0
<0xFF>	0
▁d	-0
es	-1
▁l	-2
en	-3
▁p	-4
on	-5
▁s	-6
ai	-7
▁c	-8
ou	-9
re	-10
▁de	-11
an	-12
qu	-13
er	-14
▁a	-15
▁m	-16
ent	-17
et	-18
le	-19
▁qu	-20
ar	-21
ne	-22
▁t	-23
is	-24
it	-25
▁la	-26
in	-27
▁f	-28
eu	-29
il	-30
▁
	-31
▁et	-32
▁v	-33
ait	-34
ti	-35
or	-36
▁le	-37
▁à	-38
te	-39
▁n	-40
el	-41
▁r	-42
om	-43
our	-44
ant	-45
▁u	-46
▁les	-47
▁b	-48
as	-49
▁en	-50
ur	-51
us	-52
ais	-53
▁j	-54
ment	-55
au	-56
ous	-57
▁des	-58
me	-59
▁pr	-60
oi	-61
ét	-62
ans	-63
al	-64
ons	-65
▁par	-66
▁que	-67
ch	-68
..	-69
ce	-70
▁au	-71
ont	-72
▁L	-73
ri	-74
est	-75
▁g	-76
eur	-77
▁C	-78
▁du	-79
▁av	-80
▁un	-81
és	-82
ra	-83
▁re	-84
▁M	-85
tion	-86
▁ch	-87
tre	-88
se	-89
res	-90
▁se	-91
▁qui	-92
▁pl	-93
elle	-94
at	-95
▁pas	-96
▁com	-97
▁dans	-98
ag	-99
ée	-100
▁pour	-101
de	-102
▁il	-103
ol	-104
ui	-105
os	-106
que	-107
▁ne	-108
mp	-109
▁une	-110
ci	-111
ie	-112
ouv	-113
▁h	-114
▁P	-115
end	-116
▁S	-117
▁dé	-118
▁ét	-119
▁tr	-120
▁A	-121
li	-122
les	-123
▁D	-124
si	-125
out	-126
ab	-127
▁in	-128
ain	-129
▁sur	-130
▁I	-131
▁e	-132
▁E	-133
▁é	-134
ec	-135
▁–	-136
ois	-137
ir	-138
ère	-139
and	-140
ien	-141
pr	-142
un	-143
ff	-144
▁plus	-145
▁est	-146
ers	-147
▁ce	-148
▁(	-149
▁o	-150
am	-151
onn	-152
av	-153
▁je	-154
ort	-155
▁son	-156
ac	-157
▁J	-158
ation	-159
aient	-160
▁ré	-161
aire	-162
ig	-163
ap	-164
eux	-165
▁—	-166
ès	-167
ér	-168
oir	-169
▁B	-170
▁vous	-171
ette	-172
▁pro	-173
ut	-174
▁lui	-175
▁T	-176
oin	-177
▁avec	-178
▁sa	-179
▁su	-180
iv	-181
...	-182
▁si	-183
ue	-184
ure	-185
▁tout	-186
oit	-187
▁Il	-188
▁gr	-189
ond	-190
ge	-191
▁nous	-192
▁ou	-193
▁V	-194
ité	-195
ot	-196
▁i	-197
ul	-198
mi	-199
▁«	-200
ées	-201
une	-202
▁»	-203
lle	-204
▁:	-205
oy	-206
▁R	-207
age	-208
ux	-209
▁mais	-210
ille	-211
▁N	-212
▁ex	-213
mes	-214
ard	-215
▁peu	-216
che	-217
▁leur	-218
▁elle	-219
▁F	-220
▁me	-221
ion	-222
uis	-223
▁di	-224
ati	-225
pp	-226
▁ses	-227
mb	-228
ces	-229
ill	-230
▁comme	-231
di	-232
ran	-233
ve	-234
ist	-235
▁G	-236
▁bien	-237
én	-238
ême	-239
aut	-240
▁ser	-241
ier	-242
▁O	-243
▁Le	-244
▁cette	-245
▁ent	-246
ques	-247
▁ar	-248
▁avait	-249
▁y	-250
ens	-251
▁con	-252
aux	-253
oup	-254
être	-255
ert	-256
ré	-257
éri	-258
▁était	-259
ite	-260
▁cons	-261
▁mon	-262
ord	-263
▁ma	-264
▁cont	-265
▁aux	-266
ale	-267
▁Je	-268
▁on	-269
▁;	-270
able	-271
--	-272
ence	-273
▁sont	-274
éc	-275
onne	-276
op	-277
ez	-278
ours	-279
ance	-280
▁ces	-281
ct	-282
ll	-283
▁fait	-284
emp	-285
▁La	-286
▁dit	-287
▁deux	-288
eau	-289
▁H	-290
▁tou	-291
▁dev	-292
▁mar	-293
ine	-294
ors	-295
ad	-296
▁comp	-297
▁cr	-298
ang	-299
▁sans	-300
ter	-301
▁dis	-302
id	-303
▁quel	-304
tes	-305
eurs	-306
ble	-307
st	-308
ore	-309
▁même	-310
....	-311
▁comm	-312
uit	-313
bre	-314
▁for	-315
ay	-316
elles	-317
▁li	-318
cc	-319
ass	-320
).	-321
▁br	-322
ég	-323
▁Q	-324
otre	-325
▁Les	-326
onc	-327
aiss	-328
▁tra	-329
▁où	-330
▁as	-331
um	-332
em	-333
ique	-334
tres	-335
ante	-336
omme	-337
ess	-338
iss	-339
endre	-340
ic	-341
ments	-342
té	-343
ants	-344
▁an	-345
près	-346
▁car	-347
par	-348
oul	-349
▁faire	-350
ex	-351
▁cel	-352
og	-353
▁pet	-354
tr	-355
était	-356
ils	-357
▁enc	-358
ise	-359
eure	-360
ob	-361
▁fr	-362
▁été	-363
▁dont	-364
▁per	-365
ign	-366
ussi	-367
ES	-368
▁Et	-369
▁app	-370
ations	-371
ions	-372
▁+	-373
▁Ch	-374
ement	-375
▁at	-376
ong	-377
▁ter	-378
▁être	-379
oc	-380
▁main	-381
itu	-382
▁mal	-383
▁rép	-384
endant	-385
▁dem	-386
▁grand	-387
▁pré	-388
aine	-389
app	-390
▁U	-391
▁peut	-392
▁Mais	-393
▁tous	-394
rer	-395
ace	-396
cl	-397
▁encore	-398
ction	-399
tions	-400
▁parti	-401
▁seu	-402
éra	-403
▁trouv	-404
rent	-405
im	-406
aires	-407
▁pos	-408
▁temp	-409
éd	-410
▁puis	-411
oire	-412
iè	-413
cher	-414
orte	-415
ande	-416
▁nom	-417
urs	-418
oint	-419
▁donn	-420
ten	-421
▁jus	-422
▁vi	-423
ête	-424
esp	-425
▁sous	-426
roit	-427
▁pre	-428
omp	-429
▁ai	-430
sion	-431
oins	-432
él	-433
▁imp	-434
bli	-435
▁ca	-436
lement	-437
▁En	-438
pos	-439
nes	-440
▁entre	-441
▁cour	-442
ose	-443
int	-444
all	-445
ourn	-446
ût	-447
▁moi	-448
▁pass	-449
▁enf	-450
ieu	-451
▁aussi	-452
▁dou	-453
▁très	-454
),	-455
▁Qu	-456
od	-457
ôt	-458
vi	-459
ph	-460
▁vie	-461
▁rés	-462
▁fut	-463
----	-464
▁dire	-465
▁premi	-466
▁mes	-467
ins	-468
▁gén	-469
▁rec	-470
▁jeu	-471
▁Par	-472
auv	-473
▁trav	-474
▁temps	-475
▁point	-476
▁tu	-477
▁Elle	-478
ière	-479
▁all	-480
▁ils	-481
ente	-482
fi	-483
▁am	-484
▁.	-485
▁dés	-486
▁leurs	-487
▁ont	-488
ition	-489
▁reg	-490
▁pouv	-491
▁éc	-492
ON	-493
▁col	-494
▁petit	-495
▁long	-496
▁prés	-497
êt	-498
ém	-499
aî	-500
rait	-501
vent	-502
▁ab	-503
▁man	-504
▁sou	-505
▁fer	-506
enir	-507
igne	-508
▁ren	-509
▁fem	-510
▁att	-511
omb	-512
agn	-513
▁pers	-514
▁che	-515
gn	-516
▁cl	-517
.,	-518
▁On	-519
ches	-520
▁toute	-521
▁ob	-522
ents	-523
ver	-524
▁repr	-525
▁cor	-526
▁al	-527
ail	-528
▁eff	-529
▁ad	-530
▁déc	-531
▁Ce	-532
èrent	-533
ing	-534
▁mont	-535
use	-536
▁moins	-537
▁port	-538
asse	-539
▁donc	-540
▁pu	-541
▁coup	-542
▁der	-543
uiv	-544
aille	-545
mbl	-546
att	-547
are	-548
ole	-549
anc	-550
▁rien	-551
ères	-552
▁droit	-553
▁char	-554
jours	-555
▁jam	-556
min	-557
▁Mar	-558
ER	-559
II	-560
▁vers	-561
▁ju	-562
ages	-563
▁fran	-564
▁part	-565
▁après	-566
ettre	-567
▁sec	-568
▁rem	-569
lé	-570
▁là	-571
uer	-572
▁nouv	-573
▁toujours	-574
▁toutes	-575
ues	-576
ies	-577
▁cela	-578
avait	-579
▁pay	-580
rit	-581
▁sol	-582
ici	-583
▁quand	-584
▁fois	-585
ire	-586
up	-587
▁jour	-588
ép	-589
ommes	-590
illes	-591
tement	-592
aque	-593
▁dép	-594
ainsi	-595
ect	-596
▁eu	-597
ures	-598
▁conn	-599
omm	-600
jet	-601
▁voi	-602
▁ainsi	-603
▁cond	-604
RE	-605
▁trois	-606
▁ven	-607
▁acc	-608
▁faut	-609
▁quelques	-610
▁non	-611
▁aut	-612
▁arri	-613
▁ép	-614
........	-615
▁dét	-616
▁bon	-617
▁Fran	-618
▁ap	-619
▁
—	-620
▁notre	-621
▁mil	-622
▁votre	-623
cle	-624
▁jusqu	-625
art	-626
▁ass	-627
▁emp	-628
▁contre	-629
▁déf	-630
▁!	-631
▁fais	-632
TI	-633
ieux	-634
▁vis	-635
tat	-636
▁vol	-637
if	-638
▁rég	-639
▁beau	-640
ales	-641
dre	-642
aill	-643
orm	-644
oci	-645
▁jamais	-646
▁rou	-647
▁exp	-648
▁fin	-649
ix	-650
▁,	-651
autre	-652
ress	-653
▁regard	-654
▁cert	-655
sez	-656
iers	-657
▁rev	-658
iste	-659
▁homme	-660
▁prof	-661
AN	-662
▁ni	-663
ler	-664
▁aff	-665
erv	-666
▁autre	-667
▁soit	-668
▁quelque	-669
▁avant	-670
▁suiv	-671
▁femme	-672
▁avoir	-673
rai	-674
vous	-675
▁suis	-676
aint	-677
▁aur	-678
▁demand	-679
▁yeux	-680
▁ac	-681
ouver	-682
▁répond	-683
▁sent	-684
▁voy	-685
▁min	-686
▁div	-687
▁or	-688
**	-689
ade	-690
cip	-691
▁rest	-692
▁Un	-693
▁diff	-694
▁env	-695
amp	-696
air	-697
▁mom	-698
uss	-699
▁bou	-700
▁fort	-701
év	-702
euse	-703
puis	-704
Le	-705
lt	-706
▁voul	-707
▁chez	-708
▁X	-709
du	-710
▁pe	-711
▁génér	-712
▁nos	-713
▁autres	-714
ges	-715
ame	-716
ret	-717
▁jeune	-718
œur	-719
▁cap	-720
▁prop	-721
▁ind	-722
▁cas	-723
▁sal	-724
AR	-725
ature	-726
enne	-727
▁sp	-728
▁pens	-729
▁prin	-730
▁dern	-731
▁étaient	-732
ités	-733
▁voir	-734
▁co	-735
erie	-736
▁cet	-737
▁cou	-738
▁trop	-739
lè	-740
antes	-741
ables	-742
▁moment	-743
▁laiss	-744
sible	-745
▁ph	-746
EN	-747
▁souv	-748
▁tête	-749
▁fa	-750
▁es	-751
▁Vous	-752
▁ag	-753
uli	-754
▁inst	-755
lev	-756
▁sav	-757
▁Au	-758
▁te	-759
▁De	-760
ves	-761
▁compr	-762
▁devant	-763
▁im	-764
mé	-765
▁cher	-766
▁bl	-767
▁K	-768
▁viv	-769
este	-770
ate	-771
tif	-772
▁celui	-773
▁déj	-774
▁lieu	-775
▁Paris	-776
isse	-777
▁Si	-778
▁fit	-779
▁rapp	-780
▁DE	-781
▁pres	-782
ché	-783
ro	-784
▁cô	-785
même	-786
ient	-787
act	-788
▁chev	-789
▁grande	-790
▁gar	-791
des	-792
mble	-793
▁mot	-794
eures	-795
oil	-796
quer	-797
aise	-798
▁mat	-799
▁pays	-800
ains	-801
▁lors	-802
iens	-803
▁Nous	-804
.)	-805
▁
(	-806
ieur	-807
▁gra	-808
▁porte	-809
▁Pour	-810
▁ann	-811
▁celle	-812
▁ret	-813
arr	-814
▁alors	-815
ets	-816
▁ans	-817
▁ég	-818
▁cent	-819
ances	-820
bles	-821
▁inter	-822
itions	-823
tenant	-824
cep	-825
quel	-826
▁do	-827
ense	-828
▁An	-829
aison	-830
▁père	-831
ses	-832
lic	-833
mer	-834
▁conf	-835
▁ver	-836
aur	-837
ution	-838
mée	-839
▁ouv	-840
▁inf	-841
▁depuis	-842
▁nombre	-843
▁pendant	-844
agne	-845
▁né	-846
▁dist	-847
LE	-848
▁fl	-849
tique	-850
▁jours	-851
▁fond	-852
▁général	-853
▁tant	-854
▁mis	-855
ide	-856
▁pris	-857
▁mé	-858
aud	-859
cul	-860
çon	-861
▁fam	-862
▁hab	-863
▁doit	-864
▁?	-865
ger	-866
▁sera	-867
be	-868
▁trans	-869
iques	-870
fois	-871
▁int	-872
▁préc	-873
ps	-874
été	-875
▁perm	-876
▁ceux	-877
tant	-878
onsieur	-879
▁lég	-880
▁monde	-881
▁déjà	-882
▁off	-883
IN	-884
▁ple	-885
--------	-886
ça	-887
▁personne	-888
▁près	-889
▁mort	-890
▁petite	-891
heure	-892
coup	-893
▁heure	-894
rib	-895
cess	-896
▁fille	-897
▁terre	-898
ied	-899
▁seul	-900
▁haut	-901
▁chose	-902
▁assez	-903
IS	-904
ines	-905
ats	-906
▁déb	-907
▁-	-908
▁moy	-909
▁ord	-910
ru	-911
▁conv	-912
▁feu	-913
▁sais	-914
▁no	-915
êtes	-916
temp	-917
▁ten	-918
cs	-919
▁mère	-920
endu	-921
!...	-922
imp	-923
era	-924
he	-925
▁appr	-926
dem	-927
tel	-928
▁W	-929
▁présent	-930
mbre	-931
La	-932
▁avaient	-933
acc	-934
▁év	-935
alité	-936
▁heures	-937
▁ri	-938
▁hommes	-939
gt	-940
▁sour	-941
▁Al	-942
▁nature	-943
ann	-944
▁auc	-945
tu	-946
▁fra	-947
▁serait	-948
▁maison	-949
▁Dans	-950
▁sembl	-951
▁inc	-952
pendant	-953
▁supp	-954
▁ins	-955
ari	-956
fin	-957
▁beaucoup	-958
lig	-959
▁chaque	-960
▁liv	-961
▁bas	-962
▁cri	-963
Les	-964
▁maî	-965
▁partie	-966
▁'	-967
▁lar	-968
▁place	-969
▁pauv	-970
prit	-971
oie	-972
uite	-973
▁Saint	-974
ner	-975
OU	-976
ach	-977
▁tomb	-978
je	-979
▁Dieu	-980
▁France	-981
▁côté	-982
uv	-983
aines	-984
▁pied	-985
▁publi	-986
▁Ar	-987
aître	-988
esse	-989
alement	-990
▁jou	-991
och	-992
ccup	-993
▁seulement	-994
oign	-995
hé	-996
▁cœur	-997
▁voix	-998
▁gl	-999
▁elles	-1000
▁appar	-1001
ément	-1002
ât	-1003
▁premier	-1004
▁pol	-1005
IT	-1006
▁nuit	-1007
▁vrai	-1008
ène	-1009
▁prod	-1010
iter	-1011
▁Une	-1012
▁cré	-1013
ouss	-1014
▁sy	-1015
cteur	-1016
▁arriv	-1017
▁servi	-1018
▁sub	-1019
▁À	-1020
▁É	-1021
▁st	-1022
▁donner	-1023
ode	-1024
▁contr	-1025
ourd	-1026
▁contin	-1027
▁première	-1028
▁cal	-1029
ié	-1030
▁corps	-1031
▁soci	-1032
onde	-1033
là	-1034
gé	-1035
cid	-1036
ange	-1037
▁mieux	-1038
An	-1039
ell	-1040
▁â	-1041
▁bonne	-1042
▁esp	-1043
▁reconn	-1044
▁soir	-1045
exp	-1046
▁*	-1047
▁lu	-1048
atre	-1049
▁Ils	-1050
▁sup	-1051
▁franç	-1052
▁conc	-1053
▁mois	-1054
ises	-1055
ett	-1056
inc	-1057
ule	-1058
urent	-1059
aisse	-1060
▁dév	-1061
éci	-1062
leur	-1063
gent	-1064
ult	-1065
▁sign	-1066
▁nécess	-1067
▁bois	-1068
▁bar	-1069
itude	-1070
CH	-1071
▁In	-1072
▁resp	-1073
▁trait	-1074
oses	-1075
▁ici	-1076
rez	-1077
▁lit	-1078
fs	-1079
opp	-1080
▁simp	-1081
▁mari	-1082
ilité	-1083
▁siè	-1084
yp	-1085
▁tour	-1086
appr	-1087
ze	-1088
▁princip	-1089
rie	-1090
▁const	-1091
▁gros	-1092
▁pouvait	-1093
ust	-1094
▁Cette	-1095
▁comb	-1096
▁peine	-1097
rière	-1098
▁guer	-1099
▁ci	-1100
▁prendre	-1101
avais	-1102
▁»,	-1103
▁k	-1104
gl	-1105
dess	-1106
▁».	-1107
ellement	-1108
ambre	-1109
aît	-1110
temps	-1111
▁id	-1112
▁eux	-1113
▁prom	-1114
yant	-1115
ath	-1116
▁chem	-1117
onnes	-1118
ud	-1119
AU	-1120
alis	-1121
▁quoi	-1122
eaux	-1123
ieurs	-1124
▁va	-1125
▁fig	-1126
iment	-1127
Il	-1128
▁consid	-1129
érieur	-1130
▁bras	-1131
▁monsieur	-1132
▁Pr	-1133
▁mer	-1134
eut	-1135
homme	-1136
▁vois	-1137
uses	-1138
▁reste	-1139
tout	-1140
▁souvent	-1141
▁capit	-1142
▁ref	-1143
▁Re	-1144
▁presque	-1145
▁dispos	-1146
▁bes	-1147
▁ques	-1148
▁&	-1149
▁rep	-1150
▁commun	-1151
orti	-1152
AL	-1153
▁sort	-1154
rée	-1155
▁enfants	-1156
oût	-1157
ili	-1158
nent	-1159
gan	-1160
▁op	-1161
▁remp	-1162
llem	-1163
▁bat	-1164
▁effet	-1165
oilà	-1166
Ar	-1167
▁sé	-1168
ration	-1169
▁Tout	-1170
▁piè	-1171
▁indi	-1172
▁ton	-1173
la	-1174
▁répondit	-1175
▁cin	-1176
▁vu	-1177
olog	-1178
▁vue	-1179
▁rel	-1180
anche	-1181
ailleurs	-1182
▁proc	-1183
aff	-1184
enf	-1185
▁loin	-1186
quoi	-1187
avoir	-1188
▁
«	-1189
▁doute	-1190
▁table	-1191
nement	-1192
▁mains	-1193
oles	-1194
▁voit	-1195
▁gens	-1196
▁quatre	-1197
▁pauvre	-1198
part	-1199
cien	-1200
TE	-1201
▁mouv	-1202
amb	-1203
mis	-1204
cev	-1205
▁serv	-1206
▁sens	-1207
▁différ	-1208
▁vér	-1209
▁fix	-1210
tin	-1211
▁pat	-1212
En	-1213
OR	-1214
▁souff	-1215
raph	-1216
fait	-1217
▁avons	-1218
cont	-1219
entes	-1220
iles	-1221
▁mo	-1222
oupe	-1223
irent	-1224
▁crois	-1225
▁vou	-1226
ib	-1227
▁dom	-1228
ision	-1229
uy	-1230
abl	-1231
▁cir	-1232
▁fils	-1233
▁travail	-1234
autres	-1235
▁rend	-1236
▁raison	-1237
▁travers	-1238
▁gu	-1239
▁empl	-1240
eff	-1241
abord	-1242
▁can	-1243
▁prov	-1244
▁mod	-1245
TION	-1246
off	-1247
▁Mme	-1248
▁x	-1249
ières	-1250
iez	-1251
▁parce	-1252
gré	-1253
erne	-1254
hui	-1255
▁réc	-1256
▁suite	-1257
▁soi	-1258
▁surtout	-1259
▁ta	-1260
ètres	-1261
▁Ah	-1262
IE	-1263
équ	-1264
▁plusieurs	-1265
▁faisait	-1266
erci	-1267
▁éch	-1268
enait	-1269
▁laqu	-1270
écri	-1271
▁rapport	-1272
▁Tr	-1273
▁po	-1274
▁bout	-1275
ile	-1276
enu	-1277
ierre	-1278
▁form	-1279
issement	-1280
dit	-1281
▁guerre	-1282
▁Jean	-1283
▁doi	-1284
els	-1285
ern	-1286
▁Ma	-1287
qué	-1288
uire	-1289
moi	-1290
▁II	-1291
▁jeunes	-1292
▁plais	-1293
▁possible	-1294
gu	-1295
après	-1296
ième	-1297
uits	-1298
▁vieux	-1299
▁commen	-1300
▁vit	-1301
▁ville	-1302
▁ami	-1303
▁mét	-1304
▁journ	-1305
▁matin	-1306
rir	-1307
▁jet	-1308
ric	-1309
▁laquelle	-1310
▁mor	-1311
xe	-1312
▁ess	-1313
▁enfin	-1314
lu	-1315
▁maintenant	-1316
rat	-1317
ss	-1318
▁partic	-1319
▁écl	-1320
▁aj	-1321
▁aurait	-1322
▁ti	-1323
▁quit	-1324
▁Mon	-1325
▁abs	-1326
oute	-1327
▁représ	-1328
▁longtemps	-1329
enant	-1330
sions	-1331
▁eut	-1332
entre	-1333
▁milieu	-1334
elopp	-1335
vement	-1336
ma	-1337
▁sang	-1338
▁parler	-1339
▁chambre	-1340
▁suff	-1341
ème	-1342
................	-1343
ote	-1344
anger	-1345
▁réf	-1346
resse	-1347
▁arr	-1348
▁command	-1349
ienne	-1350
éch	-1351
▁avez	-1352
▁rue	-1353
dessus	-1354
▁seule	-1355
▁=	-1356
heur	-1357
▁particuli	-1358
ume	-1359
▁rencont	-1360
▁Que	-1361
▁lib	-1362
isme	-1363
▁"	-1364
arti	-1365
▁famille	-1366
▁reç	-1367
▁situ	-1368
▁prév	-1369
ind	-1370
▁lev	-1371
▁compte	-1372
****	-1373
rier	-1374
▁choses	-1375
▁Oui	-1376
▁tard	-1377
lles	-1378
ich	-1379
▁obs	-1380
▁loi	-1381
▁enfant	-1382
▁Gr	-1383
uc	-1384
▁étran	-1385
▁forme	-1386
ilis	-1387
urer	-1388
érieure	-1389
▁desc	-1390
▁vos	-1391
êmes	-1392
oid	-1393
action	-1394
dic	-1395
▁march	-1396
erre	-1397
▁retr	-1398
▁toi	-1399
▁ayant	-1400
▁couv	-1401
▁nouveau	-1402
▁Tu	-1403
âte	-1404
▁caract	-1405
ention	-1406
oque	-1407
IL	-1408
▁fou	-1409
ateur	-1410
▁sc	-1411
UR	-1412
ingt	-1413
iller	-1414
gr	-1415
▁cependant	-1416
▁propos	-1417
aleur	-1418
▁généra	-1419
ia	-1420
illet	-1421
auche	-1422
▁sil	-1423
▁force	-1424
▁mur	-1425
▁chef	-1426
▁él	-1427
aute	-1428
ras	-1429
riv	-1430
▁fai	-1431
gne	-1432
ouis	-1433
ah	-1434
▁trouver	-1435
▁connaiss	-1436
jourd	-1437
▁eût	-1438
▁moyen	-1439
▁import	-1440
inst	-1441
ences	-1442
▁plac	-1443
reux	-1444
▁tourn	-1445
istoire	-1446
▁dess	-1447
NE	-1448
ice	-1449
oux	-1450
▁pouvoir	-1451
▁mettre	-1452
▁chemin	-1453
▁Non	-1454
▁ang	-1455
▁trouve	-1456
▁disait	-1457
ctu	-1458
▁façon	-1459
▁pén	-1460
▁route	-1461
▁Quand	-1462
▁roi	-1463
ression	-1464
▁résul	-1465
▁tran	-1466
▁cours	-1467
itre	-1468
▁donne	-1469
avant	-1470
QU	-1471
ug	-1472
leurs	-1473
ettes	-1474
▁appel	-1475
▁•	-1476
▁dernier	-1477
▁maître	-1478
lir	-1479
▁lettre	-1480
bes	-1481
▁décl	-1482
▁fonc	-1483
az	-1484
étais	-1485
ombre	-1486
▁question	-1487
tiv	-1488
▁spéci	-1489
▁grands	-1490
▁sac	-1491
érêt	-1492
▁gard	-1493
▁etc	-1494
▁belle	-1495
issait	-1496
▁compagn	-1497
▁hum	-1498
▁Com	-1499
▁plan	-1500
lus	-1501
tiques	-1502
▁mit	-1503
▁Des	-1504
inaire	-1505
▁dès	-1506
▁continu	-1507
▁Y	-1508
onse	-1509
▁pi	-1510
▁donné	-1511
▁tend	-1512
▁dix	-1513
▁tir	-1514
▁passer	-1515
▁chac	-1516
inf	-1517
▁droite	-1518
pt	-1519
èle	-1520
▁dur	-1521
▁not	-1522
œuv	-1523
▁bord	-1524
▁rap	-1525
▁fall	-1526
TA	-1527
▁bal	-1528
arde	-1529
▁soup	-1530
▁sorte	-1531
▁chap	-1532
▁exemp	-1533
ive	-1534
ération	-1535
▁francs	-1536
▁remar	-1537
▁dém	-1538
èrement	-1539
▁mad	-1540
▁femmes	-1541
▁impos	-1542
▁peuvent	-1543
istes	-1544
amment	-1545
▁autour	-1546
port	-1547
▁Cl	-1548
▁fus	-1549
OM	-1550
▁comment	-1551
qui	-1552
▁sujet	-1553
ites	-1554
rig	-1555
▁devait	-1556
▁lorsque	-1557
▁cheval	-1558
enti	-1559
In	-1560
▁petits	-1561
olution	-1562
ades	-1563
bl	-1564
▁cur	-1565
erç	-1566
▁français	-1567
▁cause	-1568
▁ça	-1569
oyer	-1570
▁Ces	-1571
▁LA	-1572
▁représent	-1573
▁besoin	-1574
▁sû	-1575
▁front	-1576
ude	-1577
▁^	-1578
minist	-1579
▁demande	-1580
▁obli	-1581
▁prix	-1582
ron	-1583
RA	-1584
▁séri	-1585
▁siècle	-1586
▁ém	-1587
ection	-1588
▁nouvelle	-1589
ôle	-1590
ientôt	-1591
ov	-1592
▁pap	-1593
▁z	-1594
▁thé	-1595
ane	-1596
rage	-1597
▁rendre	-1598
▁colon	-1599
rant	-1600
▁camp	-1601
▁rév	-1602
ograph	-1603
▁gauche	-1604
one	-1605
▁exc	-1606
▁veux	-1607
▁sorti	-1608
suite	-1609
lez	-1610
▁offici	-1611
quis	-1612
ainte	-1613
▁mai	-1614
▁occup	-1615
▁Char	-1616
chant	-1617
▁mauv	-1618
erc	-1619
tien	-1620
▁puiss	-1621
▁Ne	-1622
▁service	-1623
▁madame	-1624
ablement	-1625
onst	-1626
▁ext	-1627
▁men	-1628
oires	-1629
▁êtes	-1630
▁divers	-1631
lier	-1632
ori	-1633
▁croy	-1634
▁ress	-1635
tenir	-1636
▁face	-1637
rais	-1638
olu	-1639
▁emb	-1640
illage	-1641
▁mouvement	-1642
rique	-1643
ussit	-1644
▁aucun	-1645
èg	-1646
▁Car	-1647
▁art	-1648
oche	-1649
▁mille	-1650
▁gen	-1651
rés	-1652
▁imm	-1653
ub	-1654
rip	-1655
▁venait	-1656
oph	-1657
ris	-1658
istre	-1659
quet	-1660
onner	-1661
▁ligne	-1662
▁sauv	-1663
▁terr	-1664
▁aucune	-1665
▁ajout	-1666
ourg	-1667
▁Eh	-1668
▁ense	-1669
oix	-1670
aï	-1671
ime	-1672
atique	-1673
onom	-1674
▁font	-1675
▁Oh	-1676
▁disc	-1677
▁parl	-1678
étaient	-1679
vre	-1680
▁Th	-1681
▁sommes	-1682
ordre	-1683
▁peup	-1684
▁ir	-1685
----------------	-1686
▁trou	-1687
▁pouss	-1688
▁savoir	-1689
▁Puis	-1690
▁vert	-1691
onté	-1692
▁fav	-1693
aie	-1694
▁manière	-1695
ENT	-1696
▁gouver	-1697
▁furent	-1698
▁vingt	-1699
ram	-1700
▁conse	-1701
▁semble	-1702
rim	-1703
erm	-1704
▁cinq	-1705
▁mus	-1706
bres	-1707
▁noir	-1708
▁allait	-1709
▁circ	-1710
usement	-1711
inter	-1712
oupes	-1713
▁habit	-1714
env	-1715
liqu	-1716
▁rac	-1717
▁demanda	-1718
onneur	-1719
ible	-1720
▁lumi	-1721
▁juge	-1722
▁constitu	-1723
▁passé	-1724
erce	-1725
▁pen	-1726
ganis	-1727
▁Z	-1728
▁celles	-1729
▁fût	-1730
▁somme	-1731
▁frapp	-1732
▁voilà	-1733
erait	-1734
ompagn	-1735
▁ET	-1736
▁plaisir	-1737
andis	-1738
aci	-1739
▁atte	-1740
veill	-1741
RO	-1742
▁Franç	-1743
ache	-1744
esprit	-1745
âce	-1746
oleil	-1747
▁Alors	-1748
SE	-1749
▁lorsqu	-1750
endait	-1751
onné	-1752
▁inv	-1753
▁Cel	-1754
LA	-1755
ige	-1756
Ch	-1757
▁profond	-1758
ardin	-1759
▁nation	-1760
tic	-1761
▁aujourd	-1762
▁milit	-1763
▁lang	-1764
▁Se	-1765
éré	-1766
issant	-1767
▁second	-1768
erve	-1769
▁Av	-1770
▁suivant	-1771
Un	-1772
hab	-1773
ication	-1774
▁suc	-1775
?...	-1776
▁déli	-1777
▁visage	-1778
érer	-1779
▁air	-1780
▁Sa	-1781
▁dispar	-1782
th	-1783
▁surpr	-1784
RI	-1785
▁rê	-1786
▁bientôt	-1787
ots	-1788
ète	-1789
III	-1790
lex	-1791
écria	-1792
ussitôt	-1793
let	-1794
▁but	-1795
▁aller	-1796
adi	-1797
▁Quel	-1798
ager	-1799
▁demi	-1800
▁Comme	-1801
orme	-1802
▁péri	-1803
▁Sur	-1804
▁fil	-1805
▁conditions	-1806
▁Son	-1807
né	-1808
▁prob	-1809
ends	-1810
▁blanc	-1811
▁étant	-1812
uve	-1813
DE	-1814
▁pieds	-1815
▁rempl	-1816
▁pal	-1817
▁mots	-1818
dire	-1819
▁propri	-1820
▁viol	-1821
oth	-1822
▁juin	-1823
tive	-1824
▁vient	-1825
▁pourquoi	-1826
▁état	-1827
médi	-1828
▁vari	-1829
▁[	-1830
▁rent	-1831
atis	-1832
▁polit	-1833
Je	-1834
▁sus	-1835
ront	-1836
▁succ	-1837
▁années	-1838
▁sold	-1839
▁Mont	-1840
euses	-1841
ieuse	-1842
▁fourn	-1843
iner	-1844
tile	-1845
less	-1846
▁préf	-1847
▁Or	-1848
▁relig	-1849
▁six	-1850
▁propre	-1851
▁valeur	-1852
▁ciel	-1853
▁contraire	-1854
▁prépar	-1855
anci	-1856
▁envir	-1857
otte	-1858
amour	-1859
ueil	-1860
▁soleil	-1861
téress	-1862
oss	-1863
▁reprit	-1864
▁lequel	-1865
eté	-1866
▁laisser	-1867
▁Br	-1868
llemand	-1869
▁cru	-1870
▁veut	-1871
uction	-1872
▁quelle	-1873
▁destin	-1874
▁nécessaire	-1875
▁derrière	-1876
▁sait	-1877
oï	-1878
▁dernière	-1879
raient	-1880
▁développ	-1881
argent	-1882
▁situation	-1883
▁civ	-1884
▁tre	-1885
▁également	-1886
▁mour	-1887
ules	-1888
▁commandant	-1889
▁capitaine	-1890
occup	-1891
▁lo	-1892
▁pai	-1893
duction	-1894
▁prit	-1895
▁joie	-1896
vres	-1897
.-	-1898
▁caus	-1899
▁ve	-1900
emb	-1901
cience	-1902
ril	-1903
▁complè	-1904
▁malgré	-1905
▁amis	-1906
▁milli	-1907
ermin	-1908
▁loc	-1909
▁pare	-1910
ira	-1911
▁pourtant	-1912
▁faci	-1913
▁poss	-1914
igneur	-1915
▁constr	-1916
▁Louis	-1917
▁désir	-1918
ute	-1919
▁résultat	-1920
ber	-1921
éli	-1922
▁champ	-1923
▁simple	-1924
▁fré	-1925
▁réun	-1926
uf	-1927
▁compos	-1928
arer	-1929
çait	-1930
▁parmi	-1931
▁devoir	-1932
▁longue	-1933
ailles	-1934
▁malheure	-1935
tice	-1936
▁seront	-1937
▁DES	-1938
▁bi	-1939
amen	-1940
▁garde	-1941
▁lè	-1942
▁instant	-1943
▁pourrait	-1944
▁chacun	-1945
▁meille	-1946
▁bra	-1947
▁pensée	-1948
lais	-1949
aul	-1950
▁certaine	-1951
▁dég	-1952
▁bonheur	-1953
▁bless	-1954
êtres	-1955
▁venir	-1956
▁...	-1957
âtre	-1958
œuvre	-1959
▁recev	-1960
anti	-1961
auté	-1962
▁sem	-1963
éb	-1964
orité	-1965
▁Après	-1966
▁hér	-1967
▁entra	-1968
▁région	-1969
▁vas	-1970
▁vieille	-1971
▁semblait	-1972
▁écrit	-1973
▁ensuite	-1974
iné	-1975
▁w	-1976
▁silence	-1977
Al	-1978
RES	-1979
elon	-1980
▁bén	-1981
ident	-1982
ception	-1983
▁esprit	-1984
▁val	-1985
érable	-1986
▁riv	-1987
▁Jac	-1988
▁rapide	-1989
IV	-1990
gment	-1991
▁cul	-1992
AP	-1993
ys	-1994
▁enne	-1995
▁figure	-1996
▁Ph	-1997
▁vite	-1998
▁tém	-1999
âteau	-2000
▁transport	-2001
▁grandes	-2002
▁grâce	-2003
▁tandis	-2004
cé	-2005
▁jol	-2006
avez	-2007
▁nav	-2008
▁mesure	-2009
▁doivent	-2010
▁élev	-2011
armée	-2012
oindre	-2013
▁élé	-2014
udi	-2015
reur	-2016
ast	-2017
▁chercher	-2018
▁frère	-2019
▁reti	-2020
▁autant	-2021
▁ut	-2022
▁Comm	-2023
▁fen	-2024
oll	-2025
▁anim	-2026
opul	-2027
état	-2028
pond	-2029
▁voulu	-2030
▁certain	-2031
▁fac	-2032
cin	-2033
ède	-2034
ative	-2035
▁règ	-2036
ott	-2037
▁rais	-2038
▁public	-2039
▁recher	-2040
▁us	-2041
ards	-2042
▁telle	-2043
issent	-2044
▁partir	-2045
pe	-2046
CE	-2047
▁pou	-2048
érations	-2049
ignes	-2050
▁découv	-2051
▁bruit	-2052
▁douce	-2053
▁projet	-2054
ènes	-2055
ateurs	-2056
asser	-2057
▁décid	-2058
▁ble	-2059
demain	-2060
▁déclar	-2061
aign	-2062
▁charge	-2063
▁réd	-2064
▁afin	-2065
▁red	-2066
vers	-2067
▁lut	-2068
cal	-2069
▁pièce	-2070
▁satis	-2071
▁aussitôt	-2072
▁fonction	-2073
ture	-2074
▁rouge	-2075
empl	-2076
▁/	-2077
tifs	-2078
arrêt	-2079
ME	-2080
èse	-2081
rice	-2082
▁confi	-2083
▁exemple	-2084
oiselle	-2085
cha	-2086
iff	-2087
erté	-2088
▁quant	-2089
▁bour	-2090
enfant	-2091
▁lim	-2092
▁fallait	-2093
itation	-2094
vient	-2095
▁groupe	-2096
vier	-2097
▁faite	-2098
tient	-2099
▁présence	-2100
▁end	-2101
▁Du	-2102
ry	-2103
▁DU	-2104
ccas	-2105
▁employ	-2106
rible	-2107
▁exéc	-2108
ouill	-2109
▁cad	-2110
▁demander	-2111
ome	-2112
▁plut	-2113
quels	-2114
endemain	-2115
▁syst	-2116
utes	-2117
▁lumière	-2118
ueur	-2119
▁large	-2120
▁Enfin	-2121
▁procéd	-2122
▁souvenir	-2123
yl	-2124
▁maîtres	-2125
▁paroles	-2126
▁pron	-2127
▁juillet	-2128
▁vais	-2129
ettres	-2130
▁parfait	-2131
▁pâ	-2132
▁cav	-2133
▁nu	-2134
enue	-2135
étés	-2136
ribu	-2137
▁vent	-2138
oris	-2139
▁heureux	-2140
iennent	-2141
▁tromp	-2142
▁perd	-2143
ètre	-2144
▁vérité	-2145
assi	-2146
rons	-2147
▁pours	-2148
▁~	-2149
▁Marie	-2150
ensi	-2151
respond	-2152
ura	-2153
ides	-2154
▁intérêt	-2155
riers	-2156
▁dos	-2157
▁précéd	-2158
▁dû	-2159
▁Est	-2160
▁eng	-2161
eusement	-2162
uré	-2163
▁ray	-2164
▁passe	-2165
▁Comment	-2166
▁dra	-2167
▁retourn	-2168
ctions	-2169
istance	-2170
▁retour	-2171
▁repos	-2172
▁dél	-2173
ission	-2174
▁voulait	-2175
▁croire	-2176
OT	-2177
▁plutôt	-2178
▁fol	-2179
▁conséqu	-2180
quement	-2181
▁lendemain	-2182
▁III	-2183
▁mêmes	-2184
▁change	-2185
▁observ	-2186
▁Mal	-2187
pect	-2188
▁prend	-2189
▁petites	-2190
▁aim	-2191
CI	-2192
▁gal	-2193
▁Mad	-2194
▁bran	-2195
▁auprès	-2196
▁voud	-2197
On	-2198
ta	-2199
▁nul	-2200
▁ait	-2201
nous	-2202
▁disp	-2203
cer	-2204
▁actu	-2205
obre	-2206
honneur	-2207
în	-2208
enez	-2209
▁générale	-2210
▁rappel	-2211
▁tent	-2212
▁pièces	-2213
▁priv	-2214
lect	-2215
▁oubli	-2216
▁mati	-2217
▁caractère	-2218
▁aura	-2219
▁tel	-2220
▁détermin	-2221
▁malade	-2222
▁livres	-2223
▁Cependant	-2224
œil	-2225
▁Pl	-2226
▁gagn	-2227
RAN	-2228
icile	-2229
ray	-2230
▁village	-2231
▁armée	-2232
▁Ex	-2233
lor	-2234
▁stat	-2235
▁Col	-2236
LES	-2237
chée	-2238
insi	-2239
illon	-2240
▁tri	-2241
▁mars	-2242
anne	-2243
▁marche	-2244
ivers	-2245
▁certains	-2246
▁Hen	-2247
▁rom	-2248
▁apport	-2249
▁parfois	-2250
▁XV	-2251
▁my	-2252
▁mètres	-2253
▁peur	-2254
onte	-2255
▁défin	-2256
idi	-2257
lever	-2258
▁faisant	-2259
▁phy	-2260
pte	-2261
▁exist	-2262
iti	-2263
ouverte	-2264
▁chant	-2265
time	-2266
▁cab	-2267
▁entendu	-2268
▁mauvais	-2269
▁nouvelles	-2270
▁trouvait	-2271
inte	-2272
où	-2273
lique	-2274
▁entière	-2275
▁refus	-2276
oh	-2277
éon	-2278
▁établ	-2279
hors	-2280
▁vérit	-2281
onge	-2282
▁)	-2283
▁nég	-2284
▁travaill	-2285
▁correspond	-2286
itié	-2287
▁société	-2288
çons	-2289
▁livre	-2290
aissance	-2291
▁kil	-2292
▁française	-2293
▁titre	-2294
▁prot	-2295
▁personnes	-2296
aller	-2297
▁méde	-2298
▁be	-2299
reuse	-2300
outer	-2301
alités	-2302
▁travaux	-2303
▁produit	-2304
▁Monsieur	-2305
▁popul	-2306
con	-2307
▁St	-2308
▁sau	-2309
▁LE	-2310
illerie	-2311
ertes	-2312
agit	-2313
▁paraiss	-2314
▁prét	-2315
▁comte	-2316
men	-2317
âti	-2318
ptembre	-2319
Et	-2320
▁position	-2321
MENT	-2322
▁cit	-2323
QUE	-2324
ls	-2325
gie	-2326
▁sépar	-2327
uel	-2328
▁ach	-2329
▁sin	-2330
▁paraît	-2331
▁août	-2332
▁oct	-2333
▁âme	-2334
▁atta	-2335
▁espè	-2336
OL	-2337
yn	-2338
endit	-2339
lication	-2340
▁tranqu	-2341
orts	-2342
▁sœur	-2343
sp	-2344
▁jardin	-2345
.).	-2346
▁Cor	-2347
lise	-2348
▁met	-2349
▁faites	-2350
▁objet	-2351
cieux	-2352
▁os	-2353
▁tot	-2354
▁direction	-2355
▁peuple	-2356
▁cam	-2357
▁courant	-2358
crit	-2359
mine	-2360
article	-2361
▁chau	-2362
▁fi	-2363
▁CH	-2364
rine	-2365
▁cer	-2366
▁Qui	-2367
▁lettres	-2368
▁docteur	-2369
▁Pas	-2370
▁mun	-2371
▁marchand	-2372
▁puisque	-2373
crip	-2374
vention	-2375
▁chois	-2376
man	-2377
▁plein	-2378
▁selon	-2379
▁entrepr	-2380
▁départ	-2381
▁classe	-2382
▁vin	-2383
af	-2384
▁cat	-2385
▁ensemble	-2386
ctes	-2387
llement	-2388
▁oui	-2389
clus	-2390
▁plu	-2391
▁suffis	-2392
arc	-2393
▁Sans	-2394
na	-2395
▁impossible	-2396
tt	-2397
quelles	-2398
▁points	-2399
éric	-2400
tip	-2401
▁matéri	-2402
abilité	-2403
▁dehors	-2404
▁déch	-2405
▁fleurs	-2406
ements	-2407
▁foi	-2408
anté	-2409
▁bure	-2410
▁Pierre	-2411
▁tenir	-2412
▁rav	-2413
clam	-2414
Au	-2415
▁idée	-2416
onnement	-2417
▁respect	-2418
▁permet	-2419
▁press	-2420
▁ban	-2421
▁château	-2422
▁seconde	-2423
bé	-2424
▁détail	-2425
Dans	-2426
▁liberté	-2427
▁Lors	-2428
▁murm	-2429
tivité	-2430
▁réalis	-2431
▁termin	-2432
▁intéress	-2433
▁sûr	-2434
▁prêt	-2435
▁typ	-2436
▁libre	-2437
▁immédi	-2438
anvier	-2439
ination	-2440
▁filles	-2441
MA	-2442
▁circonst	-2443
▁premiers	-2444
▁sourire	-2445
▁coups	-2446
▁garçon	-2447
▁diri	-2448
rav	-2449
chait	-2450
▁roy	-2451
▁dr	-2452
▁parc	-2453
îner	-2454
▁salle	-2455
▁rob	-2456
▁frais	-2457
obs	-2458
▁rire	-2459
▁sentiment	-2460
idée	-2461
▁année	-2462
▁division	-2463
uste	-2464
▁faits	-2465
▁vint	-2466
endue	-2467
onie	-2468
▁sui	-2469
ope	-2470
▁forces	-2471
avaient	-2472
ennemi	-2473
▁IV	-2474
nexe	-2475
▁Cela	-2476
▁voyage	-2477
usse	-2478
ivid	-2479
histoire	-2480
▁épr	-2481
indre	-2482
▁recomm	-2483
▁chass	-2484
********	-2485
oqu	-2486
urait	-2487
▁mén	-2488
▁mariage	-2489
aime	-2490
érence	-2491
ève	-2492
ccasion	-2493
▁minutes	-2494
▁commerce	-2495
▁présente	-2496
ts	-2497
▁saint	-2498
loit	-2499
▁début	-2500
▁larmes	-2501
▁diffic	-2502
▁ordre	-2503
eng	-2504
▁mag	-2505
▁avril	-2506
hô	-2507
mment	-2508
▁huit	-2509
ii	-2510
▁ferme	-2511
çant	-2512
▁servir	-2513
▁fati	-2514
▁poin	-2515
isions	-2516
▁porter	-2517
▁économ	-2518
▁extr	-2519
étude	-2520
erver	-2521
ares	-2522
issements	-2523
▁connaître	-2524
▁troupes	-2525
▁journée	-2526
▁lèvres	-2527
▁th	-2528
▁parties	-2529
année	-2530
son	-2531
▁étrang	-2532
co	-2533
▁cult	-2534
Ce	-2535
aj	-2536
tie	-2537
▁maj	-2538
▁■	-2539
▁Bl	-2540
▁opp	-2541
▁moit	-2542
▁politique	-2543
▁moyens	-2544
▁trouvé	-2545
▁mér	-2546
▁venu	-2547
▁four	-2548
cident	-2549
▁mou	-2550
▁parole	-2551
EL	-2552
▁All	-2553
▁jur	-2554
▁cheveux	-2555
▁savait	-2556
▁vain	-2557
tier	-2558
▁perdu	-2559
▁nour	-2560
▁méth	-2561
▁date	-2562
IER	-2563
▁rense	-2564
▁veu	-2565
▁fortune	-2566
▁habitu	-2567
▁rester	-2568
▁envoy	-2569
▁outre	-2570
▁renf	-2571
gue	-2572
▁ru	-2573
▁prog	-2574
▁paix	-2575
étaire	-2576
cembre	-2577
▁aband	-2578
▁Pourquoi	-2579
▁memb	-2580
▁juste	-2581
▁béné	-2582
ina	-2583
▁chiff	-2584
▁conserv	-2585
ubli	-2586
tal	-2587
▁guère	-2588
liquer	-2589
▁militaire	-2590
âme	-2591
êter	-2592
▁Gu	-2593
▁trib	-2594
iser	-2595
▁lois	-2596
romp	-2597
▁rôle	-2598
▁droits	-2599
▁tes	-2600
cessi	-2601
▁compagnie	-2602
âmes	-2603
asses	-2604
▁campagne	-2605
▁septembre	-2606
arm	-2607
▁Jacques	-2608
▁environ	-2609
essi	-2610
▁vivre	-2611
▁voyait	-2612
▁bouche	-2613
aurais	-2614
dition	-2615
▁passage	-2616
▁Bar	-2617
▁mél	-2618
▁rang	-2619
▁système	-2620
▁transf	-2621
▁modi	-2622
▁essay	-2623
ousse	-2624
appel	-2625
▁Ainsi	-2626
avantage	-2627
aume	-2628
ifi	-2629
ital	-2630
Or	-2631
▁regret	-2632
der	-2633
▁voiture	-2634
▁songe	-2635
▁soin	-2636
▁moitié	-2637
▁brû	-2638
rou	-2639
▁Deux	-2640
ît	-2641
hum	-2642
▁entendre	-2643
tellig	-2644
oids	-2645
▁én	-2646
▁volonté	-2647
▁voulez	-2648
▁méc	-2649
▁amour	-2650
atif	-2651
▁doigt	-2652
OUR	-2653
orde	-2654
▁Cour	-2655
êcher	-2656
ouse	-2657
▁vag	-2658
▁anci	-2659
▁tenait	-2660
AT	-2661
▁satisf	-2662
ince	-2663
ocher	-2664
mont	-2665
▁commence	-2666
iments	-2667
endra	-2668
rog	-2669
ATION	-2670
approch	-2671
▁brill	-2672
Pour	-2673
▁disting	-2674
cad	-2675
enn	-2676
▁justice	-2677
cles	-2678
pl	-2679
ox	-2680
▁voie	-2681
▁soldats	-2682
▁Ser	-2683
▁Elles	-2684
AS	-2685
ruction	-2686
▁haute	-2687
▁pénét	-2688
▁goût	-2689
▁mise	-2690
▁retrouv	-2691
val	-2692
▁Voir	-2693
▁faible	-2694
De	-2695
▁équ	-2696
fice	-2697
▁couvert	-2698
▁accep	-2699
ologie	-2700
▁augment	-2701
its	-2702
ministration	-2703
▁organis	-2704
▁promen	-2705
▁Voilà	-2706
▁chevaux	-2707
▁certaines	-2708
léch	-2709
irait	-2710
▁oblig	-2711
▁vic	-2712
alog	-2713
Etat	-2714
▁lent	-2715
toi	-2716
▁sortir	-2717
▁cess	-2718
▁cli	-2719
io	-2720
cteurs	-2721
▁secret	-2722
▁ant	-2723
évrier	-2724
IC	-2725
▁arti	-2726
▁faud	-2727
▁surf	-2728
▁calme	-2729
▁difficile	-2730
▁magn	-2731
▁constat	-2732
▁dén	-2733
onf	-2734
▁pleine	-2735
erbe	-2736
▁désesp	-2737
▁content	-2738
alent	-2739
▁log	-2740
▁mém	-2741
oncer	-2742
▁myst	-2743
▁compris	-2744
▁demeur	-2745
▁has	-2746
bert	-2747
fici	-2748
▁aperç	-2749
ET	-2750
▁mul	-2751
▁accord	-2752
▁suivre	-2753
▁fab	-2754
▁sout	-2755
▁court	-2756
▁voici	-2757
appar	-2758
▁compt	-2759
▁er	-2760
yr	-2761
bout	-2762
▁reçu	-2763
▁Soci	-2764
▁chère	-2765
▁éclat	-2766
oyez	-2767
▁nord	-2768
▁terrain	-2769
isc	-2770
▁arm	-2771
orter	-2772
▁commune	-2773
▁gouvernement	-2774
▁personn	-2775
▁Ge	-2776
▁membres	-2777
▁hu	-2778
▁resse	-2779
▁janvier	-2780
▁succès	-2781
▁tél	-2782
▁Pro	-2783
▁quin	-2784
▁répondre	-2785
▁Note	-2786
APIT	-2787
Qu	-2788
rées	-2789
nements	-2790
▁bureau	-2791
oud	-2792
orie	-2793
▁ordres	-2794
▁colle	-2795
enus	-2796
éris	-2797
▁tex	-2798
▁coul	-2799
ha	-2800
▁parv	-2801
▁octobre	-2802
▁grav	-2803
▁duc	-2804
Mais	-2805
chev	-2806
▁réserv	-2807
▁Cr	-2808
onnée	-2809
▁Beau	-2810
▁hors	-2811
▁Ad	-2812
itif	-2813
jec	-2814
▁exécut	-2815
▁affaires	-2816
êche	-2817
ustri	-2818
▁pourra	-2819
▁distance	-2820
▁idées	-2821
▁parle	-2822
ramme	-2823
onti	-2824
▁affaire	-2825
▁charm	-2826
▁puisse	-2827
ave	-2828
▁ram	-2829
▁put	-2830
▁comprendre	-2831
▁brus	-2832
▁terrible	-2833
▁lignes	-2834
▁tort	-2835
oration	-2836
ué	-2837
▁Mlle	-2838
oré	-2839
▁ancien	-2840
▁absolu	-2841
▁allemand	-2842
▁étab	-2843
▁vraiment	-2844
▁partout	-2845
▁ajouta	-2846
▁décembre	-2847
rale	-2848
▁liqu	-2849
▁î	-2850
éro	-2851
US	-2852
▁sept	-2853
écl	-2854
ias	-2855
demment	-2856
âche	-2857
▁Rép	-2858
ister	-2859
▁soient	-2860
▁admi	-2861
trod	-2862
▁Ren	-2863
▁parents	-2864
isl	-2865
▁Tous	-2866
▁Am	-2867
▁dame	-2868
▁ign	-2869
▁arriver	-2870
▁arrêt	-2871
▁norm	-2872
▁action	-2873
▁papier	-2874
quée	-2875
osp	-2876
▁gre	-2877
uie	-2878
uir	-2879
artillerie	-2880
igine	-2881
▁fenêtre	-2882
▁cos	-2883
oo	-2884
▁langue	-2885
Nous	-2886
ville	-2887
▁Madame	-2888
▁relev	-2889
attaque	-2890
▁mê	-2891
▁centre	-2892
▁froid	-2893
▁dépl	-2894
êté	-2895
▁savez	-2896
line	-2897
iquement	-2898
▁forte	-2899
mpe	-2900
▁triste	-2901
atri	-2902
▁mob	-2903
▁double	-2904
▁brig	-2905
▁cuis	-2906
rém	-2907
▁Sal	-2908
▁combat	-2909
▁Ses	-2910
▁production	-2911
▁diverses	-2912
exc	-2913
▁courage	-2914
▁commande	-2915
esses	-2916
otion	-2917
▁connais	-2918
ip	-2919
vez	-2920
▁condam	-2921
▁racont	-2922
arch	-2923
▁arbres	-2924
exéc	-2925
▁recevoir	-2926
▁moindre	-2927
▁riche	-2928
▁demain	-2929
hér	-2930
dez	-2931
▁forêt	-2932
▁hasard	-2933
▁Henri	-2934
▁adress	-2935
▁Pendant	-2936
acle	-2937
▁fid	-2938
atement	-2939
▁véritable	-2940
▁el	-2941
erai	-2942
▁troisième	-2943
▁malad	-2944
▁base	-2945
▁montre	-2946
▁répét	-2947
▁période	-2948
▁sing	-2949
ost	-2950
▁num	-2951
▁clair	-2952
▁particulier	-2953
▁services	-2954
▁phil	-2955
▁pense	-2956
OI	-2957
▁tranquille	-2958
aman	-2959
▁camar	-2960
▁combien	-2961
APITRE	-2962
église	-2963
▁Bon	-2964
▁amen	-2965
▁signe	-2966
lin	-2967
œurs	-2968
▁feuilles	-2969
▁pratique	-2970
▁Nord	-2971
éph	-2972
▁laisse	-2973
▁nombreux	-2974
veille	-2975
▁officiers	-2976
▁malheureux	-2977
▁désign	-2978
▁demeure	-2979
rin	-2980
▁mett	-2981
Par	-2982
▁coin	-2983
▁matière	-2984
▁poursuiv	-2985
▁ris	-2986
atoire	-2987
▁hauteur	-2988
bourg	-2989
▁dress	-2990
▁Min	-2991
▁lis	-2992
▁maisons	-2993
eterre	-2994
▁éléments	-2995
Am	-2996
▁convers	-2997
▁renseigne	-2998
rire	-2999
▁prince	-3000
▁tomber	-3001
of	-3002
▁individ	-3003
iver	-3004
▁bâti	-3005
▁adm	-3006
luence	-3007
▁trouva	-3008
▁précip	-3009
▁hist	-3010
▁fréqu	-3011
▁pauvres	-3012
mêmes	-3013
▁cous	-3014
▁rendu	-3015
vant	-3016
▁signal	-3017
▁genre	-3018
▁domes	-3019
▁Angl	-3020
▁douleur	-3021
ôme	-3022
▁facile	-3023
▁remarqu	-3024
eries	-3025
rement	-3026
▁manif	-3027
▁agré	-3028
chn	-3029
aim	-3030
▁dimin	-3031
▁Paul	-3032
▁gent	-3033
▁confiance	-3034
▁jau	-3035
.),	-3036
▁administ	-3037
▁bons	-3038
llez	-3039
▁pont	-3040
ivement	-3041
▁tirer	-3042
aide	-3043
osité	-3044
▁batt	-3045
▁précis	-3046
enses	-3047
ordinaire	-3048
▁ouvert	-3049
ita	-3050
uff	-3051
▁ali	-3052
avons	-3053
▁complètement	-3054
exist	-3055
▁penser	-3056
▁connaissance	-3057
▁étudi	-3058
ext	-3059
▁hor	-3060
isp	-3061
▁taille	-3062
▁disposition	-3063
▁colonel	-3064
▁sud	-3065
▁cél	-3066
ouff	-3067
oise	-3068
▁époque	-3069
▁réponse	-3070
▁vig	-3071
▁fum	-3072
rages	-3073
▁direc	-3074
▁Cap	-3075
▁imag	-3076
enc	-3077
aurait	-3078
ographie	-3079
▁rare	-3080
vembre	-3081
bilité	-3082
▁principe	-3083
▁Rob	-3084
▁hô	-3085
ives	-3086
objet	-3087
▁Cons	-3088
▁pierre	-3089
▁faute	-3090
▁mourir	-3091
▁malheur	-3092
ercev	-3093
ames	-3094
▁échapp	-3095
ensible	-3096
oureux	-3097
▁ment	-3098
▁voyant	-3099
▁assur	-3100
ores	-3101
▁élect	-3102
odes	-3103
▁prol	-3104
▁debout	-3105
▁rencontre	-3106
▁arrière	-3107
▁simplement	-3108
▁davantage	-3109
▁délic	-3110
▁plant	-3111
▁quitter	-3112
▁Plus	-3113
demoiselle	-3114
eût	-3115
ulté	-3116
esseur	-3117
▁Aussi	-3118
▁mademoiselle	-3119
cture	-3120
▁épau	-3121
▁coll	-3122
autant	-3123
▁obten	-3124
▁premières	-3125
tir	-3126
énom	-3127
aite	-3128
▁gaz	-3129
auss	-3130
▁perdre	-3131
▁chré	-3132
auc	-3133
▁don	-3134
quête	-3135
▁prim	-3136
▁poste	-3137
▁résultats	-3138
GE	-3139
▁physi	-3140
urité	-3141
▁arrive	-3142
▁souri	-3143
oisse	-3144
▁cinqu	-3145
▁foule	-3146
▁seigneur	-3147
▁entrer	-3148
▁santé	-3149
xim	-3150
▁mach	-3151
▁prisonn	-3152
▁pard	-3153
▁PAR	-3154
▁laissé	-3155
▁Notre	-3156
▁conscience	-3157
▁gé	-3158
▁bleu	-3159
▁prise	-3160
▁février	-3161
▁train	-3162
▁arrivé	-3163
▁surface	-3164
▁avis	-3165
oî	-3166
▁attend	-3167
▁No	-3168
▁culture	-3169
▁trembl	-3170
▁contra	-3171
ates	-3172
▁expos	-3173
MP	-3174
assé	-3175
arn	-3176
ateau	-3177
▁Français	-3178
▁caval	-3179
pi	-3180
▁volume	-3181
ensemble	-3182
▁parut	-3183
▁ministre	-3184
liers	-3185
▁Ber	-3186
▁derniers	-3187
urg	-3188
▁manger	-3189
▁Quant	-3190
▁âge	-3191
▁ordinaire	-3192
ppe	-3193
érée	-3194
run	-3195
▁somm	-3196
tim	-3197
▁dorm	-3198
▁morte	-3199
▁beauté	-3200
▁prati	-3201
▁utilis	-3202
▁décret	-3203
édi	-3204
oiss	-3205
jour	-3206
Fig	-3207
anterie	-3208
▁vieill	-3209
oue	-3210
▁oppos	-3211
▁respons	-3212
oû	-3213
▁posséd	-3214
▁poids	-3215
▁rapidement	-3216
▁Fr	-3217
ourt	-3218
▁Charles	-3219
arg	-3220
andes	-3221
▁blan	-3222
▁bataill	-3223
▁dispositions	-3224
apt	-3225
▁lire	-3226
ulg	-3227
▁niv	-3228
▁visite	-3229
▁Moi	-3230
▁tableau	-3231
inet	-3232
▁meu	-3233
Si	-3234
▁doux	-3235
▁Rou	-3236
oriz	-3237
▁supérieur	-3238
intérêt	-3239
▁surprise	-3240
▁éprouv	-3241
▁voisin	-3242
ulaire	-3243
udes	-3244
▁blanche	-3245
▁Bien	-3246
ANT	-3247
▁conduite	-3248
agement	-3249
▁exac	-3250
▁Me	-3251
▁anglais	-3252
▁inqui	-3253
▁Sch	-3254
▁quelquefois	-3255
llemagne	-3256
▁quantité	-3257
▁dites	-3258
▁contemp	-3259
ocu	-3260
▁salon	-3261
▁dîner	-3262
▁sacri	-3263
▁Conse	-3264
▁circonstances	-3265
▁Toute	-3266
ortion	-3267
▁armes	-3268
érique	-3269
mid	-3270
▁spect	-3271
▁réserve	-3272
ONS	-3273
import	-3274
▁plupart	-3275
auteur	-3276
▁is	-3277
▁élè	-3278
▁manqu	-3279
▁instru	-3280
▁philos	-3281
URE	-3282
usion	-3283
▁type	-3284
idence	-3285
▁maîtresse	-3286
OS	-3287
▁exam	-3288
▁pain	-3289
▁Geor	-3290
▁atteint	-3291
sse	-3292
▁leva	-3293
▁conseil	-3294
▁cath	-3295
▁Cet	-3296
▁accompagn	-3297
▁ore	-3298
▁vertu	-3299
intérieur	-3300
AC	-3301
▁police	-3302
▁Avec	-3303
▁sentiments	-3304
▁charg	-3305
ars	-3306
ak	-3307
▁cre	-3308
▁EN	-3309
▁caf	-3310
▁portant	-3311
▁côt	-3312
▁veille	-3313
▁Vi	-3314
▁tap	-3315
▁danger	-3316
▁roul	-3317
▁étroit	-3318
▁quelqu	-3319
▁immédiatement	-3320
Art	-3321
▁Pet	-3322
▁écriv	-3323
iteur	-3324
dement	-3325
▁Dé	-3326
▁produits	-3327
AI	-3328
mier	-3329
▁cot	-3330
érie	-3331
uelle	-3332
▁IN	-3333
▁auquel	-3334
établ	-3335
▁chargé	-3336
▁colère	-3337
▁quart	-3338
▁mépr	-3339
▁Bel	-3340
mblée	-3341
gique	-3342
▁journal	-3343
bas	-3344
▁condition	-3345
▁lesquels	-3346
ultés	-3347
▁Lu	-3348
▁singuli	-3349
anim	-3350
▁riches	-3351
ications	-3352
ctor	-3353
▁défaut	-3354
▁tient	-3355
▁gui	-3356
abs	-3357
▁donnait	-3358
▁secours	-3359
▁tribun	-3360
▁marché	-3361
▁consol	-3362
,,	-3363
▁industri	-3364
▁lab	-3365
ichel	-3366
▁Quelle	-3367
▁suppos	-3368
▁montrer	-3369
éral	-3370
▁allons	-3371
▁grave	-3372
▁Grand	-3373
▁entour	-3374
▁espèce	-3375
▁rej	-3376
érieurs	-3377
oici	-3378
▁fur	-3379
▁circul	-3380
▁regarder	-3381
▁série	-3382
▁relati	-3383
▁ferm	-3384
aindre	-3385
oches	-3386
▁vont	-3387
▁poit	-3388
▁LES	-3389
▁absolument	-3390
once	-3391
▁compar	-3392
▁pure	-3393
cier	-3394
agé	-3395
sionn	-3396
▁questions	-3397
▁passait	-3398
oure	-3399
▁Rev	-3400
▁jeunesse	-3401
▁assis	-3402
aces	-3403
▁permis	-3404
▁triomp	-3405
LI	-3406
▁princes	-3407
▁assi	-3408
inion	-3409
ton	-3410
accord	-3411
▁multip	-3412
▁fant	-3413
▁développement	-3414
avance	-3415
▁régime	-3416
roy	-3417
imm	-3418
▁réguli	-3419
▁fleur	-3420
▁accomp	-3421
▁lieutenant	-3422
▁dépar	-3423
▁VI	-3424
orable	-3425
▁remplac	-3426
▁différentes	-3427
▁déd	-3428
▁bonnes	-3429
▁novembre	-3430
estre	-3431
▁mémoire	-3432
▁gai	-3433
▁oncle	-3434
▁permett	-3435
▁beaux	-3436
▁habitants	-3437
▁belles	-3438
▁colonne	-3439
▁puissance	-3440
▁évé	-3441
▁geste	-3442
▁côtés	-3443
fig	-3444
▁Allons	-3445
agnes	-3446
èles	-3447
▁parlait	-3448
fier	-3449
▁remerci	-3450
car	-3451
anité	-3452
▁biens	-3453
▁reconnaître	-3454
▁connu	-3455
▁prote	-3456
▁extrême	-3457
▁longueur	-3458
▁parlé	-3459
cription	-3460
▁disant	-3461
vis	-3462
entrée	-3463
▁nécessaires	-3464
èche	-3465
orer	-3466
▁méd	-3467
▁formes	-3468
▁passa	-3469
▁faisaient	-3470
élas	-3471
▁couleur	-3472
trait	-3473
▁témoign	-3474
▁of	-3475
▁tempéra	-3476
▁continua	-3477
▁supérieure	-3478
▁marqu	-3479
▁Où	-3480
arie	-3481
ayant	-3482
▁qualité	-3483
▁médecin	-3484
jou	-3485
▁restait	-3486
tine	-3487
▁cents	-3488
adis	-3489
dent	-3490
▁minist	-3491
▁verre	-3492
orc	-3493
osse	-3494
▁secr	-3495
organis	-3496
▁marquis	-3497
▁cant	-3498
▁susp	-3499
▁bre	-3500
▁meur	-3501
ranger	-3502
omie	-3503
èque	-3504
▁Val	-3505
▁mauvaise	-3506
▁dois	-3507
▁soud	-3508
▁transform	-3509
▁vivement	-3510
▁répand	-3511
▁subst	-3512
▁ressembl	-3513
▁bel	-3514
▁Lorsque	-3515
▁morce	-3516
ara	-3517
▁Depuis	-3518
▁fera	-3519
offici	-3520
▁heureuse	-3521
ouer	-3522
évolution	-3523
émie	-3524
▁rig	-3525
▁fini	-3526
▁saut	-3527
▁calcul	-3528
odi	-3529
érience	-3530
▁sombre	-3531
▁nouveaux	-3532
▁Société	-3533
▁chien	-3534
▁tantôt	-3535
▁étrange	-3536
éh	-3537
nel	-3538
cr	-3539
ani	-3540
▁Comp	-3541
▁bourge	-3542
▁profit	-3543
▁conversation	-3544
▁dépos	-3545
▁paraissait	-3546
allée	-3547
▁pâle	-3548
▁seraient	-3549
ancer	-3550
lo	-3551
▁pur	-3552
acité	-3553
ni	-3554
née	-3555
▁voyez	-3556
▁endroit	-3557
▁réalité	-3558
areil	-3559
▁dissi	-3560
▁symp	-3561
▁renseignements	-3562
uves	-3563
...,	-3564
nation	-3565
▁excell	-3566
▁jambes	-3567
angé	-3568
▁doucement	-3569
▁mas	-3570
▁argent	-3571
▁dout	-3572
▁joy	-3573
issaient	-3574
▁loge	-3575
▁manque	-3576
ogne	-3577
CHAPITRE	-3578
▁descend	-3579
▁sentait	-3580
▁uns	-3581
▁personnel	-3582
Cette	-3583
▁existe	-3584
ith	-3585
▁nez	-3586
lément	-3587
▁drap	-3588
▁donna	-3589
▁lutte	-3590
▁flam	-3591
nex	-3592
ilisation	-3593
▁quo	-3594
▁tiers	-3595
▁AU	-3596
olique	-3597
▁Très	-3598
chées	-3599
▁cout	-3600
▁mouvements	-3601
EC	-3602
▁pot	-3603
tives	-3604
▁ois	-3605
rimer	-3606
▁regarda	-3607
▁territ	-3608
riques	-3609
▁faveur	-3610
ament	-3611
▁dents	-3612
▁consomm	-3613
▁pren	-3614
teau	-3615
▁lait	-3616
▁franch	-3617
▁réfléch	-3618
glise	-3619
ustrie	-3620
▁soins	-3621
▁publique	-3622
osph	-3623
ÉS	-3624
▁hés	-3625
ARD	-3626
Angl	-3627
▁hyp	-3628
▁tendre	-3629
▁Rien	-3630
uns	-3631
▁règle	-3632
cession	-3633
urope	-3634
▁Per	-3635
▁phénom	-3636
administration	-3637
arriv	-3638
▁gris	-3639
▁alla	-3640
▁Conseil	-3641
ège	-3642
▁Compagn	-3643
érance	-3644
▁opérations	-3645
îmes	-3646
▁François	-3647
▁eur	-3648
▁durée	-3649
âch	-3650
oirs	-3651
▁payer	-3652
▁XX	-3653
▁différents	-3654
▁trente	-3655
▁Ly	-3656
liqua	-3657
tienne	-3658
▁regardait	-3659
tesse	-3660
êque	-3661
▁faibles	-3662
oseph	-3663
inture	-3664
▁scène	-3665
▁parfaitement	-3666
airement	-3667
▁traits	-3668
▁dirige	-3669
▁considérable	-3670
ifique	-3671
▁histoire	-3672
cieuse	-3673
▁voulut	-3674
▁basse	-3675
▁reprod	-3676
rup	-3677
▁indig	-3678
▁AR	-3679
dans	-3680
▁attention	-3681
origine	-3682
▁cris	-3683
▁propriété	-3684
▁termes	-3685
imag	-3686
aude	-3687
▁longues	-3688
duc	-3689
▁organ	-3690
▁Ind	-3691
▁ouvriers	-3692
▁brave	-3693
▁mi	-3694
itt	-3695
▁Imp	-3696
▁aime	-3697
avenir	-3698
▁comprend	-3699
lant	-3700
▁devenir	-3701
▁maladie	-3702
ouche	-3703
hy	-3704
▁éclair	-3705
lie	-3706
▁lour	-3707
▁réflex	-3708
user	-3709
);	-3710
▁revenir	-3711
▁chapeau	-3712
▁extra	-3713
▁défense	-3714
▁gê	-3715
▁Made	-3716
▁lesquelles	-3717
▁bataille	-3718
AIS	-3719
▁quinze	-3720
ologique	-3721
▁chasse	-3722
▁problè	-3723
▁Ed	-3724
▁super	-3725
arri	-3726
▁robe	-3727
aye	-3728
▁pa	-3729
▁jolie	-3730
▁devient	-3731
▁mine	-3732
▁remont	-3733
▁puisqu	-3734
▁Fl	-3735
▁inn	-3736
umes	-3737
▁Dès	-3738
irai	-3739
▁..	-3740
▁tante	-3741
▁deuxième	-3742
▁merveille	-3743
▁Del	-3744
▁épaules	-3745
oni	-3746
grès	-3747
existence	-3748
abbé	-3749
itut	-3750
▁affir	-3751
emploi	-3752
▁science	-3753
▁cesse	-3754
occasion	-3755
▁regarde	-3756
▁lentement	-3757
rable	-3758
érité	-3759
▁mission	-3760
oncé	-3761
▁sûre	-3762
▁viens	-3763
utile	-3764
▁législ	-3765
ectu	-3766
▁Quoi	-3767
▁vaisse	-3768
▁seuls	-3769
fié	-3770
▁Di	-3771
▁syn	-3772
assin	-3773
▁batter	-3774
▁docu	-3775
▁passant	-3776
▁côte	-3777
atience	-3778
rist	-3779
▁voyag	-3780
▁commis	-3781
▁techn	-3782
▁bor	-3783
▁consent	-3784
mm	-3785
dré	-3786
▁chefs	-3787
▁poitrine	-3788
▁attendre	-3789
range	-3790
erd	-3791
▁portait	-3792
▁certainement	-3793
▁profonde	-3794
▁objets	-3795
▁modèle	-3796
▁revenu	-3797
▁nécessité	-3798
isé	-3799
gén	-3800
▁intellig	-3801
arrêta	-3802
▁Mari	-3803
▁catég	-3804
▁niveau	-3805
▁Mr	-3806
▁consac	-3807
▁nombreuses	-3808
▁masse	-3809
▁souh	-3810
▁pitié	-3811
▁efforts	-3812
▁généralement	-3813
▁Main	-3814
ini	-3815
▁dernières	-3816
▁détr	-3817
▁immob	-3818
▁régiment	-3819
▁note	-3820
▁noire	-3821
▁PRO	-3822
▁inconn	-3823
érieures	-3824
▁peau	-3825
▁jouer	-3826
rance	-3827
▁coeur	-3828
aperç	-3829
▁suivi	-3830
itution	-3831
onna	-3832
tible	-3833
▁arriva	-3834
bon	-3835
▁terres	-3836
▁animaux	-3837
▁
.	-3838
▁détails	-3839
▁entièrement	-3840
▁perp	-3841
▁rose	-3842
▁suffit	-3843
FF	-3844
▁radi	-3845
▁capital	-3846
▁nette	-3847
ignement	-3848
▁obtenir	-3849
▁sév	-3850
▁Con	-3851
▁monn	-3852
▁diable	-3853
▁vaut	-3854
▁rêve	-3855
▁ennemis	-3856
obles	-3857
▁Cf	-3858
▁the	-3859
ase	-3860
▁café	-3861
AUX	-3862
▁vive	-3863
▁murs	-3864
▁quoique	-3865
▁militaires	-3866
▁genoux	-3867
▁moyenne	-3868
esté	-3869
otes	-3870
inaires	-3871
▁doigts	-3872
▁Man	-3873
▁Compagnie	-3874
teur	-3875
DU	-3876
rich	-3877
cu	-3878
ublique	-3879
▁construction	-3880
▁mode	-3881
▁post	-3882
▁millions	-3883
idité	-3884
Ex	-3885
ieuses	-3886
▁interromp	-3887
▁conj	-3888
▁crainte	-3889
▁prie	-3890
avec	-3891
▁éner	-3892
▁propres	-3893
guer	-3894
igné	-3895
▁bais	-3896
▁actes	-3897
▁venue	-3898
lent	-3899
oiles	-3900
▁crime	-3901
ouc	-3902
▁gri	-3903
▁alli	-3904
▁allez	-3905
entend	-3906
▁ais	-3907
▁légère	-3908
▁reconnaiss	-3909
▁musique	-3910
▁tôt	-3911
▁Pal	-3912
itée	-3913
▁baiss	-3914
▁complète	-3915
▁chag	-3916
▁proch	-3917
▁section	-3918
▁philosoph	-3919
DI	-3920
▁pan	-3921
▁facilement	-3922
lée	-3923
▁pouvaient	-3924
ART	-3925
uiss	-3926
onnait	-3927
▁devenu	-3928
▁pav	-3929
▁Bert	-3930
aies	-3931
▁méthode	-3932
▁retrouver	-3933
▁Mus	-3934
▁cercle	-3935
élev	-3936
▁honn	-3937
vu	-3938
▁kilom	-3939
▁population	-3940
OC	-3941
calier	-3942
▁murmura	-3943
▁phras	-3944
atte	-3945
▁compter	-3946
▁essenti	-3947
▁président	-3948
▁résistance	-3949
ow	-3950
▁conven	-3951
▁Bi	-3952
abri	-3953
▁mesures	-3954
▁prép	-3955
▁Vers	-3956
▁établi	-3957
acement	-3958
▁peux	-3959
dessous	-3960
▁concerne	-3961
▁fonctions	-3962
onnant	-3963
▁poign	-3964
VI	-3965
Une	-3966
▁voudrais	-3967
▁sép	-3968
▁entend	-3969
oun	-3970
▁texte	-3971
▁jeta	-3972
▁écout	-3973
▁maman	-3974
▁matériel	-3975
▁avions	-3976
deur	-3977
mat	-3978
sier	-3979
▁cop	-3980
▁raisons	-3981
▁laissa	-3982
▁stup	-3983
AM	-3984
▁fé	-3985
▁vouloir	-3986
exécution	-3987
adress	-3988
angle	-3989
▁branches	-3990
▁portée	-3991
▁nationale	-3992
▁quar	-3993
▁Ab	-3994
▁portrait	-3995
âge	-3996
▁curé	-3997
▁
*	-3998
▁semaine	-3999
▁Mes	-4000
▁mécan	-4001
▁siège	-4002
▁surveill	-4003
ercice	-4004
▁Là	-4005
▁recouv	-4006
orique	-4007
érés	-4008
▁rivière	-4009
▁regards	-4010
▁éloign	-4011
conque	-4012
avan	-4013
▁recommand	-4014
▁bête	-4015
▁réussi	-4016
▁amie	-4017
rop	-4018
the	-4019
▁ennemi	-4020
▁notamment	-4021
itaire	-4022
uil	-4023
ctoire	-4024
itive	-4025
▁portes	-4026
▁réclam	-4027
neur	-4028
▁atti	-4029
▁meilleur	-4030
▁preuve	-4031
▁successi	-4032
▁regardant	-4033
orce	-4034
école	-4035
▁quarti	-4036
▁soldat	-4037
▁utile	-4038
▁séc	-4039
▁Sainte	-4040
▁diam	-4041
▁pouvez	-4042
▁Celui	-4043
érant	-4044
▁pla	-4045
▁orig	-4046
▁Voici	-4047
▁Peut	-4048
▁vente	-4049
▁inj	-4050
dé	-4051
ke	-4052
oué	-4053
tte	-4054
▁Aut	-4055
▁aille	-4056
▁administra	-4057
▁compl	-4058
▁fête	-4059
▁sauf	-4060
talie	-4061
▁adop	-4062
▁déliv	-4063
▁eaux	-4064
▁Votre	-4065
▁digne	-4066
éloign	-4067
▁humaine	-4068
▁jal	-4069
▁neuf	-4070
▁garder	-4071
onnés	-4072
▁pein	-4073
▁Quelques	-4074
▁tenu	-4075
iennes	-4076
▁mm	-4077
▁cach	-4078
▁page	-4079
▁ressour	-4080
AB	-4081
aissez	-4082
mil	-4083
▁soum	-4084
naire	-4085
▁Lond	-4086
▁fraî	-4087
ana	-4088
▁tor	-4089
▁conduis	-4090
▁décor	-4091
▁théâtre	-4092
▁Seu	-4093
▁reine	-4094
▁Allemand	-4095
osc	-4096
——	-4097
▁anciens	-4098
oient	-4099
▁acte	-4100
▁donnée	-4101
▁resta	-4102
▁ps	-4103
▁Gén	-4104
ispens	-4105
▁frères	-4106
oe	-4107
▁dér	-4108
▁retard	-4109
▁agric	-4110
lés	-4111
▁commiss	-4112
cre	-4113
▁Port	-4114
▁amb	-4115
▁acqu	-4116
▁pensées	-4117
▁professeur	-4118
jor	-4119
umé	-4120
▁vête	-4121
ribution	-4122
▁garn	-4123
uler	-4124
▁jusque	-4125
▁morale	-4126
▁sinc	-4127
▁relations	-4128
Annexe	-4129
▁brut	-4130
her	-4131
▁légèrement	-4132
▁couleurs	-4133
▁pér	-4134
opé	-4135
orr	-4136
lait	-4137
▁vieillard	-4138
ueill	-4139
▁sci	-4140
ormes	-4141
▁brusquement	-4142
▁préoccup	-4143
▁intérêts	-4144
ral	-4145
▁solution	-4146
▁obé	-4147
étant	-4148
videmment	-4149
▁étions	-4150
▁Cal	-4151
▁dessus	-4152
▁monter	-4153
'.	-4154
▁froi	-4155
affaire	-4156
Ad	-4157
▁navire	-4158
▁appelle	-4159
▁conduit	-4160
▁toutefois	-4161
AG	-4162
▁chaleur	-4163
▁troupe	-4164
▁commandement	-4165
itant	-4166
▁grosse	-4167
▁perf	-4168
voir	-4169
▁chacune	-4170
instruction	-4171
▁noms	-4172
hor	-4173
▁Su	-4174
mar	-4175
▁gagner	-4176
moins	-4177
érait	-4178
▁tombe	-4179
ièvre	-4180
▁terme	-4181
▁dépend	-4182
attend	-4183
▁centim	-4184
▁Jés	-4185
▁montagne	-4186
ureur	-4187
▁champs	-4188
▁indiqu	-4189
ERS	-4190
ricul	-4191
▁Jeanne	-4192
unes	-4193
▁Bou	-4194
▁illus	-4195
▁effort	-4196
euil	-4197
▁dange	-4198
▁groupes	-4199
blioth	-4200
▁palais	-4201
▁trad	-4202
▁Cont	-4203
rég	-4204
acte	-4205
▁pét	-4206
▁vend	-4207
▁cinquante	-4208
▁autrefois	-4209
étab	-4210
▁devint	-4211
▁introd	-4212
sur	-4213
▁avent	-4214
telle	-4215
▁serais	-4216
▁vide	-4217
ÉE	-4218
érir	-4219
▁déjeu	-4220
reau	-4221
▁Tur	-4222
▁vieilles	-4223
▁exig	-4224
▁concl	-4225
▁suivante	-4226
ries	-4227
▁tit	-4228
▁sensible	-4229
▁prouv	-4230
anes	-4231
omin	-4232
▁éviter	-4233
▁Mor	-4234
▁métal	-4235
▁Pers	-4236
écu	-4237
▁gloire	-4238
▁appuy	-4239
▁enlev	-4240
▁reten	-4241
▁caractéris	-4242
inée	-4243
▁morts	-4244
▁Sous	-4245
▁Che	-4246
▁banc	-4247
▁récit	-4248
▁dames	-4249
▁saurait	-4250
▁tab	-4251
▁marcher	-4252
▁minute	-4253
▁élevé	-4254
▁permettre	-4255
▁pun	-4256
▁présenter	-4257
▁Pré	-4258
▁sortit	-4259
▁indispens	-4260
▁révél	-4261
orge	-4262
ano	-4263
▁précau	-4264
▁nobles	-4265
▁fau	-4266
aband	-4267
olue	-4268
èmes	-4269
▁naturel	-4270
▁ô	-4271
gle	-4272
épend	-4273
ormais	-4274
▁Ou	-4275
▁arrivée	-4276
▁sommeil	-4277
▁pareille	-4278
▁toit	-4279
▁exploit	-4280
▁noble	-4281
oeu	-4282
ault	-4283
▁signif	-4284
▁tenant	-4285
ennes	-4286
▁Russ	-4287
▁choix	-4288
▁reconnaissance	-4289
ick	-4290
▁boulev	-4291
▁pouvais	-4292
▁reprendre	-4293
▁manifest	-4294
▁messi	-4295
illi	-4296
▁effets	-4297
oubli	-4298
▁canon	-4299
▁recherche	-4300
▁économique	-4301
▁pluie	-4302
▁passion	-4303
▁devaient	-4304
uisse	-4305
Elle	-4306
▁Dou	-4307
▁religion	-4308
inv	-4309
▁ouvrage	-4310
▁obst	-4311
▁continue	-4312
▁léger	-4313
▁Tour	-4314
▁possi	-4315
eus	-4316
▁Maintenant	-4317
▁convain	-4318
ock	-4319
▁crit	-4320
▁envelopp	-4321
ancé	-4322
INE	-4323
▁abond	-4324
▁solide	-4325
▁Jam	-4326
aigne	-4327
▁bataillon	-4328
▁progrès	-4329
▁pareil	-4330
▁viennent	-4331
fr	-4332
AND	-4333
▁maxim	-4334
▁prenait	-4335
▁pri	-4336
▁Léon	-4337
▁cria	-4338
▁crédit	-4339
▁fusil	-4340
ulation	-4341
▁faudrait	-4342
UN	-4343
effet	-4344
IG	-4345
LO	-4346
▁Ni	-4347
▁arrêté	-4348
▁prenant	-4349
▁embr	-4350
▁tal	-4351
▁insp	-4352
fication	-4353
▁croyait	-4354
▁demandé	-4355
▁ouverte	-4356
usage	-4357
▁asse	-4358
▁placé	-4359
alle	-4360
▁
»	-4361
▁soumis	-4362
▁Jus	-4363
▁degré	-4364
▁entier	-4365
▁bât	-4366
tern	-4367
▁noirs	-4368
▁autrement	-4369
▁conséquence	-4370
▁bag	-4371
▁race	-4372
▁salut	-4373
▁traitement	-4374
assur	-4375
▁commerci	-4376
▁officier	-4377
rémité	-4378
▁génie	-4379
▁régions	-4380
▁principes	-4381
oz	-4382
ÉR	-4383
▁croix	-4384
▁proportion	-4385
dieu	-4386
Angleterre	-4387
arité	-4388
org	-4389
▁COM	-4390
époque	-4391
▁auraient	-4392
fices	-4393
▁ceci	-4394
aly	-4395
▁ignor	-4396
▁œuvre	-4397
reg	-4398
▁domaine	-4399
naires	-4400
▁obligé	-4401
frique	-4402
▁Dem	-4403
▁cra	-4404
anou	-4405
▁Thé	-4406
irer	-4407
▁probablement	-4408
▁dent	-4409
▁fruits	-4410
endrait	-4411
▁pes	-4412
ressi	-4413
emple	-4414
▁unique	-4415
▁contact	-4416
▁Sud	-4417
itait	-4418
▁nerv	-4419
▁dessin	-4420
▁mépris	-4421
▁continuer	-4422
tait	-4423
ka	-4424
tiens	-4425
▁pointe	-4426
activité	-4427
▁Voy	-4428
▁compli	-4429
▁vill	-4430
▁difficultés	-4431
▁roug	-4432
▁prud	-4433
▁romp	-4434
ym	-4435
▁parall	-4436
▁Rome	-4437
▁vague	-4438
▁contrat	-4439
▁envers	-4440
▁fle	-4441
▁données	-4442
▁commença	-4443
▁lac	-4444
ésie	-4445
hôtel	-4446
▁Robert	-4447
▁aliment	-4448
aisses	-4449
▁travailler	-4450
▁Cath	-4451
ilippe	-4452
▁fixe	-4453
▁surv	-4454
▁discours	-4455
tex	-4456
▁firent	-4457
▁spectacle	-4458
Allemagne	-4459
▁gout	-4460
observ	-4461
▁Ros	-4462
▁mystéri	-4463
▁Be	-4464
▁pensait	-4465
tivement	-4466
▁chaud	-4467
zar	-4468
indi	-4469
▁coucher	-4470
hiver	-4471
▁pages	-4472
roi	-4473
▁tels	-4474
▁mut	-4475
▁exactement	-4476
▁associ	-4477
▁céd	-4478
▁entreprises	-4479
▁Ju	-4480
▁courir	-4481
▁FRAN	-4482
aule	-4483
▁désire	-4484
importance	-4485
▁RE	-4486
ticles	-4487
▁patri	-4488
uites	-4489
ôts	-4490
échapp	-4491
▁neige	-4492
▁saur	-4493
rid	-4494
▁poche	-4495
▁égal	-4496
▁montant	-4497
▁vap	-4498
▁moul	-4499
▁fier	-4500
atta	-4501
esti	-4502
itue	-4503
▁douze	-4504
ètes	-4505
▁directement	-4506
nelle	-4507
outes	-4508
ondes	-4509
▁appris	-4510
autorité	-4511
alogue	-4512
Ces	-4513
▁q	-4514
▁kilomètres	-4515
▁inutile	-4516
▁Georges	-4517
CHE	-4518
▁rues	-4519
ibles	-4520
▁Bern	-4521
oyen	-4522
▁armées	-4523
▁repouss	-4524
▁souhait	-4525
Jean	-4526
▁satisfaction	-4527
▁prêtre	-4528
PH	-4529
▁hier	-4530
▁donnent	-4531
UL	-4532
▁El	-4533
atiques	-4534
▁jeter	-4535
▁bron	-4536
etz	-4537
rag	-4538
▁arra	-4539
▁doul	-4540
▁cart	-4541
▁serai	-4542
▁Allemands	-4543
▁exerc	-4544
▁existence	-4545
▁Roi	-4546
riture	-4547
▁dure	-4548
ancien	-4549
hommes	-4550
▁créanci	-4551
èbre	-4552
onv	-4553
TS	-4554
▁trah	-4555
▁Nap	-4556
entrepr	-4557
▁département	-4558
illons	-4559
▁cy	-4560
▁Ré	-4561
▁directeur	-4562
TR	-4563
▁mens	-4564
▁ramen	-4565
▁achet	-4566
sière	-4567
▁répliqua	-4568
▁isol	-4569
arme	-4570
▁connaît	-4571
erreur	-4572
cide	-4573
▁ailleurs	-4574
▁boî	-4575
▁procès	-4576
spagne	-4577
achement	-4578
▁camarades	-4579
Est	-4580
▁achev	-4581
▁répar	-4582
▁pût	-4583
assurer	-4584
▁capable	-4585
▁barb	-4586
pes	-4587
inct	-4588
▁vitesse	-4589
▁so	-4590
riez	-4591
▁Can	-4592
▁repas	-4593
▁effec	-4594
▁silen	-4595
▁install	-4596
onnées	-4597
▁nat	-4598
▁attent	-4599
▁AN	-4600
▁revint	-4601
▁Is	-4602
▁connaissait	-4603
▁fonds	-4604
▁caisse	-4605
▁loint	-4606
▁dim	-4607
▁princesse	-4608
▁tellement	-4609
▁sangl	-4610
▁mu	-4611
▁Lou	-4612
ensive	-4613
▁quarante	-4614
▁mand	-4615
organisation	-4616
▁rouges	-4617
exploit	-4618
tru	-4619
▁blancs	-4620
▁curi	-4621
▁scul	-4622
▁température	-4623
▁villes	-4624
▁fenêtres	-4625
▁défendre	-4626
▁sujets	-4627
▁He	-4628
▁hon	-4629
▁sert	-4630
per	-4631
▁donnant	-4632
▁Cam	-4633
▁étrangers	-4634
▁différence	-4635
▁nommé	-4636
▁sable	-4637
importe	-4638
▁pp	-4639
rite	-4640
major	-4641
▁Juli	-4642
▁sérieux	-4643
cy	-4644
anmoins	-4645
ua	-4646
▁pouvons	-4647
▁assurer	-4648
oua	-4649
habitude	-4650
▁sociale	-4651
cis	-4652
cadémie	-4653
▁semaines	-4654
▁géné	-4655
tiennent	-4656
▁familles	-4657
▁laissant	-4658
▁devra	-4659
▁prison	-4660
▁remettre	-4661
▁out	-4662
anges	-4663
onnet	-4664
▁group	-4665
▁respec	-4666
ussent	-4667
▁vaste	-4668
essionne	-4669
▁naissance	-4670
estes	-4671
▁soul	-4672
▁social	-4673
▁remarquer	-4674
▁revoir	-4675
▁événements	-4676
▁convient	-4677
▁Jésus	-4678
▁généraux	-4679
ky	-4680
▁procédé	-4681
▁naturellement	-4682
▁protest	-4683
▁dor	-4684
▁sociétés	-4685
▁Londres	-4686
▁Anglais	-4687
lection	-4688
▁parcour	-4689
▁cu	-4690
▁fat	-4691
****************	-4692
▁désormais	-4693
IQUE	-4694
▁suit	-4695
▁attendant	-4696
▁collè	-4697
entendre	-4698
▁actions	-4699
▁taux	-4700
▁qualités	-4701
▁important	-4702
voy	-4703
▁Pol	-4704
espère	-4705
▁aveu	-4706
▁renouv	-4707
icol	-4708
ôtre	-4709
▁sab	-4710
▁toile	-4711
chés	-4712
œu	-4713
▁
-	-4714
lige	-4715
',	-4716
▁fact	-4717
eront	-4718
vé	-4719
▁exclus	-4720
▁dimanche	-4721
infanterie	-4722
hier	-4723
ailli	-4724
▁chair	-4725
▁formation	-4726
llemande	-4727
▁désert	-4728
▁lune	-4729
▁pier	-4730
▁trés	-4731
empêcher	-4732
▁produis	-4733
▁jaune	-4734
▁autoris	-4735
cole	-4736
onds	-4737
old	-4738
quin	-4739
Inst	-4740
ierge	-4741
▁entr	-4742
▁centimètres	-4743
▁possède	-4744
▁bourgeois	-4745
▁immense	-4746
QUES	-4747
▁baron	-4748
▁rentrer	-4749
▁delà	-4750
▁conduire	-4751
▁ha	-4752
▁retraite	-4753
▁demandait	-4754
aves	-4755
▁Michel	-4756
▁cand	-4757
licité	-4758
illé	-4759
onique	-4760
▁trouvent	-4761
▁gliss	-4762
▁sentir	-4763
ilités	-4764
▁ferait	-4765
uti	-4766
▁appréci	-4767
lam	-4768
▁chaî	-4769
▁longs	-4770
oiff	-4771
▁total	-4772
▁Art	-4773
erg	-4774
▁qual	-4775
▁Joseph	-4776
▁brigade	-4777
▁province	-4778
▁éd	-4779
▁assure	-4780
▁semblable	-4781
▁mic	-4782
ontiers	-4783
▁changement	-4784
oral	-4785
▁Sc	-4786
▁!...	-4787
AD	-4788
mère	-4789
tér	-4790
▁porté	-4791
▁chemins	-4792
▁rapports	-4793
▁venaient	-4794
uter	-4795
aimer	-4796
▁mérite	-4797
▁XI	-4798
▁suppli	-4799
ories	-4800
▁Champ	-4801
OG	-4802
▁fe	-4803
▁révolution	-4804
çaient	-4805
▁propriétaire	-4806
▁cord	-4807
▁larg	-4808
▁pous	-4809
▁médic	-4810
hous	-4811
pent	-4812
▁reb	-4813
▁emport	-4814
▁précisément	-4815
▁messieurs	-4816
État	-4817
▁articles	-4818
ettez	-4819
ombres	-4820
▁partis	-4821
▁faux	-4822
ÉN	-4823
▁pénible	-4824
▁produire	-4825
▁poudre	-4826
▁far	-4827
▁obsc	-4828
Europe	-4829
▁san	-4830
impos	-4831
▁médi	-4832
▁oreilles	-4833
▁Bois	-4834
itch	-4835
▁cle	-4836
▁poète	-4837
▁siècles	-4838
▁rappr	-4839
œuvres	-4840
▁Prov	-4841
▁cultiv	-4842
▁durant	-4843
▁attaque	-4844
▁actuellement	-4845
▁Arch	-4846
▁famili	-4847
▁dévou	-4848
▁sauver	-4849
▁diss	-4850
olte	-4851
élég	-4852
▁tire	-4853
▁cherch	-4854
▁Roy	-4855
ainement	-4856
▁quelconque	-4857
URS	-4858
los	-4859
▁MAR	-4860
▁souver	-4861
▁jugement	-4862
▁importance	-4863
▁sympath	-4864
▁laissait	-4865
▁paraître	-4866
BLE	-4867
housias	-4868
▁cabinet	-4869
▁conform	-4870
▁placer	-4871
Ou	-4872
▁cherche	-4873
▁arch	-4874
▁lever	-4875
▁exception	-4876
▁République	-4877
erme	-4878
zaine	-4879
▁discip	-4880
▁chagrin	-4881
bliothèque	-4882
oile	-4883
▁allemande	-4884
yle	-4885
embr	-4886
▁éb	-4887
cine	-4888
▁spir	-4889
▁aigu	-4890
▁zone	-4891
▁revient	-4892
▁simples	-4893
▁décision	-4894
oureuse	-4895
▁spécial	-4896
▁miss	-4897
▁responsabilité	-4898
▁fun	-4899
▁Toutes	-4900
▁disparu	-4901
erte	-4902
......	-4903
influence	-4904
êle	-4905
urant	-4906
▁volont	-4907
raction	-4908
▁écrire	-4909
raille	-4910
réd	-4911
▁MM	-4912
ône	-4913
▁préparation	-4914
intéress	-4915
▁fièvre	-4916
▁recherches	-4917
lève	-4918
▁bonté	-4919
isée	-4920
atives	-4921
ouest	-4922
▁conséquent	-4923
▁espèces	-4924
▁faim	-4925
▁indiff	-4926
iges	-4927
▁Marc	-4928
▁résolu	-4929
▁telles	-4930
ires	-4931
▁problème	-4932
▁principal	-4933
ax	-4934
rad	-4935
▁démont	-4936
èce	-4937
▁fis	-4938
▁pois	-4939
▁Dire	-4940
▁croiss	-4941
orb	-4942
▁domestique	-4943
▁perte	-4944
▁délai	-4945
▁Es	-4946
▁véri	-4947
▁désespoir	-4948
▁vivant	-4949
▁surpris	-4950
érables	-4951
▁haine	-4952
officier	-4953
▁bande	-4954
▁pierres	-4955
▁indic	-4956
▁protég	-4957
quets	-4958
▁autom	-4959
▁rayons	-4960
eth	-4961
▁avais	-4962
▁épous	-4963
▁élèves	-4964
ciences	-4965
▁ménage	-4966
▁élég	-4967
▁attach	-4968
▁posses	-4969
▁infin	-4970
▁Jamais	-4971
▁tendresse	-4972
alt	-4973
usc	-4974
▁apercev	-4975
▁pouvant	-4976
mide	-4977
▁univers	-4978
▁embarr	-4979
▁constitution	-4980
▁occasion	-4981
ILLE	-4982
onça	-4983
onomie	-4984
▁sortes	-4985
▁As	-4986
▁craign	-4987
rières	-4988
veiller	-4989
▁expression	-4990
▁ill	-4991
▁Toul	-4992
▁équi	-4993
▁changer	-4994
éter	-4995
▁sortie	-4996
iz	-4997
toine	-4998
appelle	-4999
▁tiss	-5000
▁sinon	-5001
▁blessé	-5002
▁and	-5003
père	-5004
▁quartier	-5005
cée	-5006
▁souvenirs	-5007
TH	-5008
▁saison	-5009
▁liquide	-5010
rès	-5011
▁phot	-5012
quette	-5013
oreille	-5014
ocra	-5015
▁complet	-5016
▁déjeuner	-5017
▁tué	-5018
▁ressources	-5019
▁instants	-5020
▁vég	-5021
▁profondément	-5022
ende	-5023
▁pil	-5024
▁agréable	-5025
ivre	-5026
ison	-5027
▁costu	-5028
▁recueil	-5029
▁agents	-5030
▁parf	-5031
établissement	-5032
▁ç	-5033
endroit	-5034
▁chapitre	-5035
▁Ann	-5036
▁règles	-5037
▁manquer	-5038
▁rapproch	-5039
▁rencontrer	-5040
▁lés	-5041
eue	-5042
gre	-5043
ocation	-5044
édie	-5045
TIONS	-5046
▁persu	-5047
▁âmes	-5048
édition	-5049
▁vif	-5050
▁misérable	-5051
▁monu	-5052
,.	-5053
▁hy	-5054
ONT	-5055
▁fixé	-5056
▁conserver	-5057
▁André	-5058
▁Ass	-5059
▁divisions	-5060
tements	-5061
paravant	-5062
▁soulev	-5063
▁appelé	-5064
▁rares	-5065
▁confir	-5066
arrêter	-5067
assent	-5068
▁allaient	-5069
SI	-5070
▁plantes	-5071
lications	-5072
▁employés	-5073
aid	-5074
▁aimait	-5075
▁assist	-5076
▁rejet	-5077
▁accus	-5078
▁source	-5079
▁mol	-5080
verse	-5081
▁mange	-5082
fe	-5083
▁numéro	-5084
émi	-5085
▁malades	-5086
▁oublié	-5087
▁concern	-5088
attention	-5089
▁esc	-5090
▁communi	-5091
▁rappelle	-5092
▁suivantes	-5093
▁lourd	-5094
▁usage	-5095
elin	-5096
▁Bour	-5097
ecture	-5098
▁commençait	-5099
▁théorie	-5100
▁téléph	-5101
▁curiosité	-5102
▁curieux	-5103
èbres	-5104
▁cité	-5105
expression	-5106
admi	-5107
▁toil	-5108
échal	-5109
▁tribunal	-5110
ki	-5111
▁recul	-5112
erb	-5113
▁chauff	-5114
▁traité	-5115
escalier	-5116
▁descendre	-5117
ottes	-5118
▁faudra	-5119
MM	-5120
ung	-5121
ophe	-5122
▁honte	-5123
▁riant	-5124
▁comptes	-5125
▁garanti	-5126
cent	-5127
▁Marguer	-5128
▁environs	-5129
nt	-5130
▁tâche	-5131
urée	-5132
rient	-5133
▁séjour	-5134
▁naturelle	-5135
▁importante	-5136
▁collec	-5137
▁vêtements	-5138
huit	-5139
▁trist	-5140
RÉ	-5141
ensité	-5142
uch	-5143
▁gren	-5144
▁contribu	-5145
▁juger	-5146
▁sommet	-5147
▁lecture	-5148
▁prisonniers	-5149
▁carte	-5150
▁vallée	-5151
étaires	-5152
inois	-5153
▁retourner	-5154
Louis	-5155
▁meurt	-5156
▁décidé	-5157
▁honneur	-5158
▁ancienne	-5159
▁article	-5160
industrie	-5161
mand	-5162
▁Den	-5163
ommage	-5164
aleurs	-5165
ension	-5166
Re	-5167
▁Lyon	-5168
ession	-5169
▁Leur	-5170
▁coupable	-5171
▁compagnons	-5172
▁joli	-5173
▁vêt	-5174
ych	-5175
▁prolong	-5176
Des	-5177
Aut	-5178
▁extraordinaire	-5179
▁coiff	-5180
▁Rég	-5181
▁boire	-5182
▁partage	-5183
inal	-5184
armes	-5185
▁volontiers	-5186
▁soirée	-5187
êch	-5188
Académie	-5189
IST	-5190
aintes	-5191
dev	-5192
Fran	-5193
▁chiffre	-5194
bs	-5195
▁amp	-5196
▁supr	-5197
▁cuisine	-5198
▁mass	-5199
▁protection	-5200
▁métier	-5201
▁commencement	-5202
ck	-5203
▁patrie	-5204
▁soie	-5205
▁misère	-5206
▁vendre	-5207
ley	-5208
éner	-5209
land	-5210
▁croyez	-5211
▁redout	-5212
OB	-5213
île	-5214
▁soupir	-5215
▁bis	-5216
▁rive	-5217
CES	-5218
▁croit	-5219
.—	-5220
▁noy	-5221
▁honnête	-5222
▁unités	-5223
▁blanches	-5224
▁Guill	-5225
▁télég	-5226
▁magas	-5227
avis	-5228
oléon	-5229
▁inform	-5230
▁chevalier	-5231
▁études	-5232
▁Sy	-5233
rande	-5234
▁conseils	-5235
lit	-5236
▁soix	-5237
▁douc	-5238
▁Trois	-5239
▁orient	-5240
▁détourn	-5241
ft	-5242
▁dissim	-5243
▁Rom	-5244
▁couche	-5245
▁destinée	-5246
▁physique	-5247
▁cyl	-5248
erine	-5249
erons	-5250
fort	-5251
▁individu	-5252
▁Ag	-5253
▁Comb	-5254
▁plat	-5255
▁emprun	-5256
▁évidemment	-5257
▁ital	-5258
▁besoins	-5259
▁trouble	-5260
▁grosses	-5261
▁déput	-5262
PE	-5263
▁morceau	-5264
ILL	-5265
▁vel	-5266
ernes	-5267
▁quitté	-5268
icip	-5269
rand	-5270
▁chiens	-5271
▁figures	-5272
▁voisins	-5273
▁gram	-5274
▁soudain	-5275
▁fortement	-5276
arrivée	-5277
▁savais	-5278
▁Dr	-5279
riculture	-5280
▁abord	-5281
atifs	-5282
tig	-5283
▁Etats	-5284
▁former	-5285
accep	-5286
▁mons	-5287
▁dépenses	-5288
orizon	-5289
enaient	-5290
▁projets	-5291
▁fatigu	-5292
nés	-5293
▁inex	-5294
▁tuer	-5295
▁latin	-5296
▁cacher	-5297
▁resté	-5298
▁rub	-5299
▁tén	-5300
reuve	-5301
▁Gouver	-5302
▁indigènes	-5303
▁fatigue	-5304
▁recours	-5305
▁voitures	-5306
▁découvrir	-5307
hon	-5308
établir	-5309
oquer	-5310
tiers	-5311
▁patron	-5312
alisme	-5313
rammes	-5314
▁Philippe	-5315
cie	-5316
omn	-5317
▁Vol	-5318
inait	-5319
▁ailes	-5320
▁commission	-5321
▁Entre	-5322
▁ressort	-5323
▁végét	-5324
▁fournir	-5325
▁souriant	-5326
▁nettement	-5327
ohn	-5328
▁langage	-5329
texte	-5330
▁coût	-5331
▁souffrir	-5332
lis	-5333
▁bomb	-5334
▁bêtes	-5335
opération	-5336
▁peuples	-5337
▁feuille	-5338
émin	-5339
instant	-5340
▁parlant	-5341
iron	-5342
▁expéri	-5343
midi	-5344
▁VII	-5345
▁jadis	-5346
▁financi	-5347
▁meilleure	-5348
▁intérieure	-5349
▁Marguerite	-5350
▁impéri	-5351
▁émotion	-5352
▁appare	-5353
▁secteur	-5354
▁support	-5355
▁arrivait	-5356
▁remplir	-5357
ays	-5358
▁lin	-5359
▁sch	-5360
criptions	-5361
▁auxquels	-5362
▁joue	-5363
▁lieux	-5364
▁envoyé	-5365
▁retomb	-5366
▁physion	-5367
ITE	-5368
▁matières	-5369
application	-5370
▁pel	-5371
▁sainte	-5372
▁innoc	-5373
fre	-5374
▁Co	-5375
▁envie	-5376
▁objec	-5377
▁Code	-5378
▁tar	-5379
▁roses	-5380
▁attribu	-5381
▁Prés	-5382
mission	-5383
▁montagnes	-5384
AIN	-5385
▁roman	-5386
▁Maj	-5387
▁Str	-5388
CO	-5389
ly	-5390
ouvre	-5391
▁éterne	-5392
▁liaison	-5393
▁enn	-5394
▁course	-5395
lend	-5396
aises	-5397
▁Guer	-5398
▁sein	-5399
▁journaux	-5400
miers	-5401
▁coû	-5402
▁perfection	-5403
▁Gre	-5404
▁aspect	-5405
▁fabric	-5406
▁foyer	-5407
IR	-5408
▁fronti	-5409
andre	-5410
cinq	-5411
▁Martin	-5412
▁ly	-5413
aste	-5414
Av	-5415
ancée	-5416
▁blessés	-5417
uffis	-5418
▁humain	-5419
▁indispensable	-5420
XX	-5421
▁ros	-5422
▁comprends	-5423
TAT	-5424
▁maximum	-5425
ouvert	-5426
▁prises	-5427
▁employé	-5428
ata	-5429
érat	-5430
▁principaux	-5431
▁représente	-5432
▁étranger	-5433
▁constitue	-5434
▁tress	-5435
▁midi	-5436
▁marchandises	-5437
ok	-5438
oïs	-5439
▁toucher	-5440
cidents	-5441
exploitation	-5442
itime	-5443
▁répart	-5444
▁troub	-5445
Pierre	-5446
▁prodig	-5447
▁sage	-5448
▁joues	-5449
▁hâte	-5450
PAR	-5451
▁représentant	-5452
▁rasse	-5453
▁Journ	-5454
▁soign	-5455
▁héros	-5456
▁voile	-5457
▁plans	-5458
▁trouvaient	-5459
▁Avant	-5460
▁Seigneur	-5461
unité	-5462
▁cuir	-5463
▁tourner	-5464
fl	-5465
dien	-5466
▁égale	-5467
▁chaise	-5468
▁prière	-5469
ssent	-5470
▁repar	-5471
▁coupe	-5472
iré	-5473
▁courte	-5474
▁bond	-5475
▁Chaque	-5476
▁réduit	-5477
itement	-5478
▁ur	-5479
▁Russie	-5480
▁charges	-5481
▁Bal	-5482
▁tournant	-5483
▁Aux	-5484
▁magist	-5485
▁possession	-5486
erse	-5487
▁aimer	-5488
▁effray	-5489
▁plaine	-5490
▁rempli	-5491
▁préparer	-5492
▁Nouv	-5493
demn	-5494
urie	-5495
hés	-5496
▁minim	-5497
agré	-5498
leine	-5499
times	-5500
▁taill	-5501
inqui	-5502
▁causes	-5503
ressions	-5504
▁aimable	-5505
REM	-5506
▁rappeler	-5507
▁passi	-5508
▁satisfait	-5509
▁caractères	-5510
oyens	-5511
▁
'	-5512
▁suscep	-5513
▁voisine	-5514
▁dimen	-5515
▁craindre	-5516
vue	-5517
ilier	-5518
▁absolue	-5519
fiée	-5520
▁vraie	-5521
▁veuve	-5522
▁égard	-5523
UX	-5524
rimé	-5525
▁courbe	-5526
étique	-5527
accomp	-5528
▁Ben	-5529
ulaires	-5530
▁duquel	-5531
▁spéciale	-5532
▁frappé	-5533
▁larges	-5534
▁admirable	-5535
▁pourraient	-5536
laise	-5537
aurice	-5538
▁soupç	-5539
▁sensi	-5540
▁limite	-5541
arbre	-5542
▁conç	-5543
▁mena	-5544
▁gare	-5545
issante	-5546
inant	-5547
▁coloni	-5548
astr	-5549
▁obtenu	-5550
▁comtesse	-5551
▁vac	-5552
▁couronne	-5553
▁territoire	-5554
qués	-5555
▁françaises	-5556
▁adj	-5557
▁cass	-5558
▁lou	-5559
dy	-5560
aisons	-5561
▁victoire	-5562
▁sauvage	-5563
▁auteurs	-5564
▁conclus	-5565
▁hérit	-5566
crits	-5567
entra	-5568
▁épar	-5569
▁pression	-5570
▁séd	-5571
▁Flor	-5572
▁devenue	-5573
unis	-5574
▁Petit	-5575
▁den	-5576
▁friss	-5577
▁tristesse	-5578
agée	-5579
umul	-5580
▁mous	-5581
▁retirer	-5582
▁aimé	-5583
▁Er	-5584
ALE	-5585
▁têtes	-5586
▁exige	-5587
▁invent	-5588
▁XIV	-5589
examen	-5590
▁mitraille	-5591
▁hard	-5592
▁ridic	-5593
▁inférieure	-5594
▁Pe	-5595
▁judi	-5596
▁rude	-5597
▁repris	-5598
▁confond	-5599
▁charmante	-5600
▁cadre	-5601
▁tomba	-5602
▁dil	-5603
▁parfum	-5604
▁réellement	-5605
▁Hol	-5606
▁paru	-5607
▁subs	-5608
rions	-5609
atrice	-5610
▁sentit	-5611
▁énorme	-5612
▁élément	-5613
▁chauss	-5614
▁personnage	-5615
▁quitt	-5616
Ab	-5617
▁litté	-5618
▁nulle	-5619
▁fauteuil	-5620
▁lux	-5621
▁songer	-5622
▁découvert	-5623
épar	-5624
▁démar	-5625
itudes	-5626
▁Père	-5627
huile	-5628
▁vole	-5629
▁Catherine	-5630
▁bri	-5631
ouvant	-5632
▁juridi	-5633
▁soixante	-5634
▁finit	-5635
étranger	-5636
ora	-5637
lan	-5638
▁Mé	-5639
mosph	-5640
▁magnifique	-5641
▁glob	-5642
▁printemps	-5643
▁produ	-5644
▁Lib	-5645
▁vaisseau	-5646
▁rendit	-5647
▁privil	-5648
▁moments	-5649
▁Éc	-5650
▁Peu	-5651
avent	-5652
hi	-5653
▁promp	-5654
▁Lui	-5655
▁cuiv	-5656
▁fine	-5657
▁Christ	-5658
▁cm	-5659
ns	-5660
expérience	-5661
▁hautes	-5662
▁peintre	-5663
▁station	-5664
▁internation	-5665
▁sages	-5666
▁causer	-5667
▁mélanc	-5668
▁tourment	-5669
▁commencer	-5670
▁promenade	-5671
▁reli	-5672
▁observations	-5673
asp	-5674
▁mante	-5675
chement	-5676
esc	-5677
▁dat	-5678
▁band	-5679
▁chute	-5680
▁tenue	-5681
▁opération	-5682
cte	-5683
▁XVI	-5684
istique	-5685
▁accent	-5686
▁matel	-5687
asc	-5688
▁auparavant	-5689
isation	-5690
▁tranchées	-5691
▁consommation	-5692
▁parois	-5693
▁Lorsqu	-5694
▁renvers	-5695
▁corre	-5696
▁ball	-5697
▁mettait	-5698
▁débarr	-5699
▁boute	-5700
del	-5701
▁êtres	-5702
oli	-5703
▁municip	-5704
▁malheureuse	-5705
▁revi	-5706
▁cadav	-5707
▁fidèle	-5708
ouille	-5709
▁oiseaux	-5710
▁quelles	-5711
▁concours	-5712
icolas	-5713
▁incl	-5714
▁paysans	-5715
▁cér	-5716
Cl	-5717
▁bords	-5718
ologiques	-5719
arb	-5720
▁postes	-5721
▁religieux	-5722
▁physionomie	-5723
▁compagnon	-5724
▁phénomènes	-5725
itivement	-5726
▁composition	-5727
▁déclaration	-5728
mière	-5729
▁reconnu	-5730
▁voyageurs	-5731
▁colonies	-5732
tez	-5733
dr	-5734
Afrique	-5735
onnette	-5736
▁consul	-5737
▁consiste	-5738
acé	-5739
rime	-5740
▁changé	-5741
▁tur	-5742
▁Ceux	-5743
▁humeur	-5744
▁particip	-5745
espoir	-5746
▁prétend	-5747
▁sécurité	-5748
▁sir	-5749
ony	-5750
▁douceur	-5751
▁édi	-5752
Es	-5753
▁sculpt	-5754
▁persuad	-5755
▁doct	-5756
▁cerve	-5757
▁Ap	-5758
ERIE	-5759
herbe	-5760
▁civil	-5761
▁grammes	-5762
MES	-5763
▁publics	-5764
mond	-5765
épaule	-5766
▁chiffres	-5767
exercice	-5768
▁allum	-5769
▁difficulté	-5770
▁siff	-5771
mpereur	-5772
▁assise	-5773
▁monnaie	-5774
garde	-5775
▁évent	-5776
▁promis	-5777
îné	-5778
▁lun	-5779
▁lourde	-5780
▁réveill	-5781
▁récomp	-5782
▁communes	-5783
▁résolution	-5784
▁initi	-5785
▁Chambre	-5786
▁cla	-5787
▁Li	-5788
agent	-5789
▁ride	-5790
▁Déc	-5791
▁remis	-5792
▁concernant	-5793
▁Nos	-5794
▁souci	-5795
▁marque	-5796
▁Cong	-5797
▁domestiques	-5798
ONNE	-5799
▁plate	-5800
ones	-5801
▁dipl	-5802
intellig	-5803
▁oublier	-5804
▁marquise	-5805
▁voulais	-5806
▁précieux	-5807
onvén	-5808
▁victime	-5809
▁toilette	-5810
▁corde	-5811
ENS	-5812
▁châ	-5813
apon	-5814
vice	-5815
▁établissements	-5816
▁kilog	-5817
Se	-5818
▁boîte	-5819
▁charme	-5820
▁interv	-5821
mon	-5822
ués	-5823
▁hal	-5824
▁retenir	-5825
▁inférieur	-5826
UE	-5827
▁Cond	-5828
▁étude	-5829
rimés	-5830
▁formé	-5831
eld	-5832
▁succession	-5833
▁Sim	-5834
▁souffle	-5835
▁suivants	-5836
▁professionne	-5837
ilibre	-5838
itations	-5839
ieusement	-5840
▁Napoléon	-5841
▁Messi	-5842
▁lampe	-5843
îne	-5844
▁tableaux	-5845
▁atteindre	-5846
Sur	-5847
▁var	-5848
▁ferai	-5849
▁oeu	-5850
âcher	-5851
▁Personne	-5852
SS	-5853
ercices	-5854
▁commencé	-5855
▁membre	-5856
▁cérém	-5857
énergie	-5858
▁occupé	-5859
▁rayon	-5860
▁spiritu	-5861
▁affect	-5862
▁fussent	-5863
rette	-5864
ordeaux	-5865
▁Claire	-5866
onnier	-5867
uait	-5868
▁phrase	-5869
do	-5870
absence	-5871
▁emploi	-5872
▁Même	-5873
▁ouvrages	-5874
.'	-5875
▁éti	-5876
▁ouvrit	-5877
▁activité	-5878
▁semblables	-5879
▁chasseur	-5880
agnol	-5881
▁discussi	-5882
▁Gal	-5883
▁naï	-5884
▁mainten	-5885
▁arbre	-5886
ourir	-5887
▁semblaient	-5888
▁rô	-5889
opinion	-5890
col	-5891
▁prête	-5892
oppos	-5893
▁Chap	-5894
apercev	-5895
érées	-5896
▁Pont	-5897
▁quels	-5898
▁empêcher	-5899
▁paiement	-5900
VE	-5901
lieu	-5902
èvre	-5903
▁arb	-5904
▁ingén	-5905
▁montré	-5906
▁gouverneur	-5907
▁favoris	-5908
mpire	-5909
▁jeté	-5910
▁critique	-5911
▁Pat	-5912
▁Alex	-5913
▁mira	-5914
▁suprême	-5915
▁bateau	-5916
▁valeurs	-5917
ief	-5918
ança	-5919
▁redev	-5920
▁proposition	-5921
ae	-5922
astre	-5923
œufs	-5924
aisseur	-5925
▁paille	-5926
▁pensé	-5927
orraine	-5928
▁terreur	-5929
▁bizar	-5930
▁bronze	-5931
aspect	-5932
▁Inst	-5933
▁contrôle	-5934
▁Guillaume	-5935
assa	-5936
endi	-5937
itent	-5938
iteurs	-5939
▁résulte	-5940
Italie	-5941
▁blanch	-5942
appareil	-5943
▁carré	-5944
ize	-5945
▁débar	-5946
imes	-5947
ccident	-5948
▁considérer	-5949
▁MA	-5950
▁tradition	-5951
▁por	-5952
▁gentil	-5953
▁coutume	-5954
▁distin	-5955
arté	-5956
rables	-5957
yg	-5958
▁foss	-5959
▁rè	-5960
▁création	-5961
adresse	-5962
▁pourront	-5963
étend	-5964
alisation	-5965
enseignement	-5966
espace	-5967
▁pleurer	-5968
Pr	-5969
▁chasseurs	-5970
▁magistrat	-5971
anément	-5972
▁branche	-5973
▁apprendre	-5974
épr	-5975
▁Sp	-5976
▁eau	-5977
▁fleuve	-5978
▁rendait	-5979
▁congé	-5980
▁fruit	-5981
▁pensa	-5982
dis	-5983
ands	-5984
igny	-5985
▁terri	-5986
°,	-5987
aurai	-5988
▁mystère	-5989
obé	-5990
▁faiblesse	-5991
OIS	-5992
▁tut	-5993
▁agir	-5994
▁délég	-5995
hal	-5996
▁aide	-5997
arrière	-5998
▁principale	-5999
inn	-6000
▁Cos	-6001
▁Sec	-6002
▁anglaise	-6003
▁justif	-6004
▁provin	-6005
ographique	-6006
da	-6007
CTION	-6008
▁Belgique	-6009
▁Cas	-6010
▁ajoute	-6011
oine	-6012
▁devoirs	-6013
▁extrêmement	-6014
▁plaît	-6015
▁assuré	-6016
truction	-6017
▁Gen	-6018
▁auront	-6019
▁suppose	-6020
gues	-6021
▁cheminée	-6022
▁réput	-6023
▁Op	-6024
cool	-6025
ttes	-6026
acre	-6027
appui	-6028
▁plomb	-6029
▁motif	-6030
▁costume	-6031
▁Toutefois	-6032
ANS	-6033
▁Méd	-6034
▁maintenir	-6035
gyp	-6036
▁ah	-6037
▁cousin	-6038
ûmes	-6039
hérit	-6040
astique	-6041
▁célèbre	-6042
rud	-6043
▁flanc	-6044
▁incap	-6045
▁Victor	-6046
▁soigne	-6047
▁justement	-6048
uée	-6049
▁sollic	-6050
▁Bas	-6051
▁Hélas	-6052
entions	-6053
▁venant	-6054
IB	-6055
▁battre	-6056
▁moderne	-6057
▁creus	-6058
berg	-6059
▁tiens	-6060
▁ay	-6061
impôt	-6062
▁
•	-6063
▁rect	-6064
▁contract	-6065
▁classi	-6066
▁Rose	-6067
▁actuelle	-6068
▁devenait	-6069
▁pourrais	-6070
▁tronc	-6071
▁routes	-6072
▁commissaire	-6073
▁Math	-6074
extrémité	-6075
▁traîn	-6076
rain	-6077
▁Nation	-6078
▁ouvrir	-6079
▁préj	-6080
▁XIII	-6081
▁immobile	-6082
▁chir	-6083
▁presse	-6084
▁expliquer	-6085
▁vén	-6086
▁renouvel	-6087
▁villages	-6088
mie	-6089
▁seuil	-6090
▁Sav	-6091
▁tonnes	-6092
.;	-6093
aph	-6094
▁reçoit	-6095
igner	-6096
▁folie	-6097
▁attendait	-6098
ouches	-6099
▁technique	-6100
ardins	-6101
▁contient	-6102
▁résist	-6103
ignité	-6104
▁influence	-6105
▁particulière	-6106
▁horrible	-6107
▁Madeleine	-6108
▁Cert	-6109
▁esprits	-6110
éduc	-6111
▁délicat	-6112
▁ard	-6113
EX	-6114
ims	-6115
▁to	-6116
▁rét	-6117
chante	-6118
▁moral	-6119
▁personnages	-6120
▁chance	-6121
▁dormir	-6122
▁raconter	-6123
▁violence	-6124
▁cerveau	-6125
Espagne	-6126
raise	-6127
▁devons	-6128
▁offre	-6129
TES	-6130
ocat	-6131
pre	-6132
▁gré	-6133
intes	-6134
▁pose	-6135
▁convention	-6136
▁vapeur	-6137
▁institu	-6138
▁Révolution	-6139
▁auxquelles	-6140
▁désol	-6141
▁trace	-6142
▁acquis	-6143
▁soutenir	-6144
ouverture	-6145
intention	-6146
quier	-6147
▁crut	-6148
▁communication	-6149
Empereur	-6150
acer	-6151
▁Const	-6152
Mar	-6153
rac	-6154
Saint	-6155
▁batteries	-6156
▁dite	-6157
ellent	-6158
▁graves	-6159
▁appartient	-6160
▁flamme	-6161
▁plateau	-6162
▁salari	-6163
quant	-6164
▁sucre	-6165
▁circonstance	-6166
èdent	-6167
itaires	-6168
▁rejoindre	-6169
▁folle	-6170
▁entrée	-6171
▁AL	-6172
▁parfaite	-6173
▁fasse	-6174
▁revenus	-6175
▁catégorie	-6176
AV	-6177
▁Louise	-6178
▁fallut	-6179
▁bénéfici	-6180
▁sim	-6181
illée	-6182
▁divin	-6183
prop	-6184
outch	-6185
▁camarade	-6186
rang	-6187
▁sœurs	-6188
▁irré	-6189
▁religieuse	-6190
cieusement	-6191
▁Tant	-6192
▁notes	-6193
▁Mo	-6194
rix	-6195
onci	-6196
▁voyons	-6197
humanité	-6198
▁décrit	-6199
▁hypoth	-6200
▁uniquement	-6201
xes	-6202
▁perman	-6203
▁pus	-6204
TRE	-6205
eul	-6206
uine	-6207
entrer	-6208
▁saisit	-6209
▁prétexte	-6210
▁dut	-6211
▁gorge	-6212
raphe	-6213
▁rage	-6214
▁montra	-6215
▁voisinage	-6216
▁appliqu	-6217
▁portent	-6218
▁cig	-6219
▁vulg	-6220
▁vigueur	-6221
▁grandeur	-6222
▁poussière	-6223
▁opinion	-6224
▁pé	-6225
▁Malgré	-6226
adies	-6227
ouvrage	-6228
▁concur	-6229
▁machine	-6230
omas	-6231
▁Hug	-6232
▁chapelle	-6233
▁entendit	-6234
aissent	-6235
DES	-6236
position	-6237
▁Jo	-6238
reaux	-6239
raisembl	-6240
▁frém	-6241
▁améric	-6242
iction	-6243
▁plume	-6244
▁wag	-6245
▁dessous	-6246
▁munitions	-6247
▁fan	-6248
▁hur	-6249
▁heur	-6250
▁compét	-6251
▁Ville	-6252
▁finir	-6253
▁cuivre	-6254
▁unif	-6255
▁envah	-6256
▁réaliser	-6257
ayer	-6258
▁national	-6259
▁néanmoins	-6260
▁Pauv	-6261
▁pist	-6262
▁élevée	-6263
▁bourg	-6264
oudre	-6265
▁autor	-6266
tellectu	-6267
▁favorable	-6268
▁style	-6269
▁motifs	-6270
▁Font	-6271
TIN	-6272
▁europé	-6273
▁étouff	-6274
▁Rés	-6275
▁advers	-6276
▁levant	-6277
▁vertic	-6278
▁SU	-6279
rom	-6280
▁ty	-6281
▁cartes	-6282
▁ministère	-6283
▁tours	-6284
▁XVIII	-6285
▁disent	-6286
▁roch	-6287
▁découverte	-6288
▁Bordeaux	-6289
▁Aug	-6290
▁formule	-6291
by	-6292
▁chat	-6293
▁proie	-6294
horizon	-6295
alyse	-6296
▁retent	-6297
▁affection	-6298
▁supporter	-6299
éal	-6300
auff	-6301
dres	-6302
▁Fréd	-6303
▁sieur	-6304
▁John	-6305
▁Bret	-6306
hyp	-6307
tent	-6308
▁chargés	-6309
▁indépend	-6310
ham	-6311
▁reçut	-6312
▁surveillance	-6313
▁maire	-6314
▁bénéfice	-6315
aston	-6316
▁Lettre	-6317
▁colonnes	-6318
▁Pi	-6319
▁pousser	-6320
▁apparaît	-6321
▁totale	-6322
▁largeur	-6323
▁Ste	-6324
enues	-6325
▁prai	-6326
▁peint	-6327
▁splend	-6328
▁prêtres	-6329
°.	-6330
▁verd	-6331
INS	-6332
rations	-6333
▁ajouter	-6334
dou	-6335
▁tiré	-6336
▁venge	-6337
▁comprom	-6338
▁écart	-6339
aup	-6340
élève	-6341
▁venus	-6342
nant	-6343
▁Dis	-6344
▁intellectu	-6345
-.	-6346
uyer	-6347
▁fixer	-6348
onnance	-6349
▁avantages	-6350
▁Ici	-6351
atures	-6352
▁ressent	-6353
▁franc	-6354
▁queue	-6355
▁und	-6356
TABLE	-6357
▁ratt	-6358
▁précédent	-6359
ereur	-6360
▁Mac	-6361
▁pant	-6362
▁leçon	-6363
diction	-6364
▁cherchait	-6365
ilde	-6366
▁Enc	-6367
▁perpét	-6368
▁rencontré	-6369
▁dépit	-6370
▁documents	-6371
▁navig	-6372
ettant	-6373
▁dépens	-6374
▁couteau	-6375
▁vir	-6376
pour	-6377
▁certes	-6378
MENTS	-6379
ouvrir	-6380
▁serez	-6381
Hen	-6382
▁escl	-6383
▁affec	-6384
▁nouvel	-6385
agissait	-6386
▁établir	-6387
▁chans	-6388
▁oh	-6389
▁poussa	-6390
mann	-6391
▁Chine	-6392
▁accident	-6393
housiasme	-6394
▁profondeur	-6395
▁grec	-6396
aix	-6397
▁vagues	-6398
▁semblent	-6399
▁Bul	-6400
▁publié	-6401
▁fumée	-6402
incl	-6403
éducation	-6404
▁Celle	-6405
▁limites	-6406
▁Reims	-6407
▁glace	-6408
▁plante	-6409
▁trésor	-6410
▁résol	-6411
riche	-6412
▁détachement	-6413
chon	-6414
▁prier	-6415
▁apparten	-6416
arriver	-6417
▁tourna	-6418
▁manquait	-6419
roge	-6420
▁intime	-6421
▁approch	-6422
▁éte	-6423
▁canons	-6424
▁succéd	-6425
▁suivit	-6426
alys	-6427
▁Auc	-6428
▁nourriture	-6429
▁rêv	-6430
pital	-6431
▁meilleurs	-6432
▁titres	-6433
chen	-6434
atrième	-6435
▁Marthe	-6436
tibles	-6437
aissait	-6438
▁candid	-6439
ulé	-6440
▁mout	-6441
▁App	-6442
▁poing	-6443
▁joyeux	-6444
▁devrait	-6445
▁balles	-6446
ventions	-6447
▁choc	-6448
▁qualifi	-6449
uant	-6450
▁canton	-6451
▁Pourtant	-6452
▁fournit	-6453
▁sph	-6454
oubl	-6455
autom	-6456
ker	-6457
▁Mil	-6458
AY	-6459
▁crise	-6460
▁choisir	-6461
▁solitude	-6462
▁nuages	-6463
oblig	-6464
onnez	-6465
illets	-6466
▁horiz	-6467
▁provis	-6468
▁procédés	-6469
moiselle	-6470
▁grille	-6471
▁maréchal	-6472
outez	-6473
▁venez	-6474
▁observer	-6475
▁connue	-6476
▁contenant	-6477
▁Vierge	-6478
▁Journal	-6479
▁clef	-6480
▁travaille	-6481
▁desse	-6482
▁troubl	-6483
achet	-6484
ribuer	-6485
▁vieil	-6486
IM	-6487
▁raisonn	-6488
▁tranchée	-6489
▁échapper	-6490
ambres	-6491
▁coton	-6492
▁navires	-6493
plus	-6494
▁signes	-6495
▁politiques	-6496
▁favor	-6497
▁détach	-6498
▁triomphe	-6499
rices	-6500
▁interpr	-6501
Franç	-6502
▁froide	-6503
obsc	-6504
▁Tou	-6505
tific	-6506
▁tira	-6507
▁paysan	-6508
▁transports	-6509
▁chaîne	-6510
▁constater	-6511
olie	-6512
▁Sén	-6513
▁vil	-6514
▁pertes	-6515
hu	-6516
▁lord	-6517
▁parla	-6518
▁Messieurs	-6519
ômes	-6520
▁envis	-6521
▁papiers	-6522
▁répondu	-6523
▁permettent	-6524
ks	-6525
▁suffisamment	-6526
ape	-6527
▁Gil	-6528
▁particuliers	-6529
Dame	-6530
▁pais	-6531
▁pénétrer	-6532
ERV	-6533
▁sûreté	-6534
▁retourna	-6535
▁brit	-6536
▁nett	-6537
▁État	-6538
▁atteign	-6539
▁barbe	-6540
▁manteau	-6541
▁combin	-6542
▁document	-6543
éth	-6544
▁logis	-6545
▁risque	-6546
▁ventre	-6547
ignation	-6548
▁payement	-6549
▁Grande	-6550
▁animal	-6551
▁croyais	-6552
can	-6553
▁douter	-6554
▁édition	-6555
▁Commission	-6556
ester	-6557
▁remplacer	-6558
illy	-6559
▁Te	-6560
▁Tom	-6561
▁exempl	-6562
▁importe	-6563
▁excellent	-6564
raire	-6565
▁profession	-6566
▁net	-6567
xi	-6568
▁Dup	-6569
▁Tra	-6570
impression	-6571
ros	-6572
▁livrer	-6573
▁Chac	-6574
▁allé	-6575
▁ombre	-6576
▁soyez	-6577
▁épuis	-6578
accompagn	-6579
bi	-6580
▁anti	-6581
ataire	-6582
▁royaume	-6583
▁œil	-6584
atoires	-6585
▁couvent	-6586
▁correspondant	-6587
lot	-6588
▁Cré	-6589
▁faill	-6590
▁aperçut	-6591
▁bris	-6592
▁flot	-6593
▁fallu	-6594
▁jambe	-6595
▁Seulement	-6596
▁Arg	-6597
offre	-6598
▁mélange	-6599
▁montrait	-6600
▁recommen	-6601
▁dangereux	-6602
▁active	-6603
▁négoci	-6604
▁intérieur	-6605
▁remb	-6606
▁œuvres	-6607
▁interrog	-6608
▁mir	-6609
etière	-6610
ôte	-6611
ood	-6612
▁poul	-6613
ignon	-6614
▁voies	-6615
▁tang	-6616
▁direct	-6617
▁relative	-6618
▁conséquences	-6619
auf	-6620
▁probable	-6621
▁procurer	-6622
hém	-6623
▁Trib	-6624
▁massi	-6625
▁placés	-6626
▁Camb	-6627
alie	-6628
ombe	-6629
attendre	-6630
▁étend	-6631
▁sacrifice	-6632
▁ot	-6633
▁fréquent	-6634
ada	-6635
▁Lég	-6636
▁Ministre	-6637
rèrent	-6638
▁labor	-6639
▁Bernard	-6640
▁indiffér	-6641
tés	-6642
▁appareils	-6643
oug	-6644
▁chê	-6645
▁combatt	-6646
orth	-6647
▁minimum	-6648
▁étendue	-6649
uellement	-6650
▁veulent	-6651
▁glor	-6652
▁moin	-6653
▁meubles	-6654
▁distinguer	-6655
UM	-6656
axe	-6657
▁gém	-6658
intelligence	-6659
▁aient	-6660
▁capitale	-6661
▁Général	-6662
▁remarque	-6663
▁exag	-6664
▁notaire	-6665
éf	-6666
égard	-6667
▁Seine	-6668
▁har	-6669
▁cell	-6670
▁témoin	-6671
▁dépôt	-6672
équip	-6673
▁disais	-6674
▁Em	-6675
▁richesse	-6676
▁classes	-6677
rov	-6678
▁sel	-6679
▁appeler	-6680
▁rarement	-6681
▁charmant	-6682
▁Henry	-6683
estin	-6684
▁saisir	-6685
▁Majesté	-6686
▁règne	-6687
▁carrière	-6688
ao	-6689
Ass	-6690
uts	-6691
ATIONS	-6692
▁règlement	-6693
observation	-6694
▁Lav	-6695
▁sembla	-6696
▁disparaître	-6697
▁fortes	-6698
agu	-6699
Char	-6700
▁fantais	-6701
▁Président	-6702
",	-6703
▁Souv	-6704
▁répondait	-6705
ider	-6706
▁sug	-6707
▁Conf	-6708
▁facil	-6709
urier	-6710
▁talent	-6711
▁philosophie	-6712
▁Mademoiselle	-6713
▁iv	-6714
▁Haut	-6715
▁délib	-6716
▁liste	-6717
▁Maurice	-6718
▁rendez	-6719
▁patience	-6720
▁amus	-6721
▁pêche	-6722
▁crimine	-6723
▁°	-6724
▁Mat	-6725
▁loup	-6726
éry	-6727
▁Fin	-6728
▁divis	-6729
▁sauvages	-6730
▁solenne	-6731
▁Frédéric	-6732
▁encour	-6733
▁judici	-6734
▁secrétaire	-6735
▁cim	-6736
▁dirait	-6737
▁forment	-6738
▁jardins	-6739
▁écras	-6740
▁britann	-6741
▁blé	-6742
hin	-6743
oger	-6744
▁réjou	-6745
onçait	-6746
▁littérat	-6747
▁anciennes	-6748
ièce	-6749
▁ident	-6750
▁sois	-6751
▁galop	-6752
▁erreur	-6753
onel	-6754
oule	-6755
▁entendait	-6756
quait	-6757
allais	-6758
▁apparence	-6759
▁traces	-6760
ssemblée	-6761
▁garçons	-6762
▁papa	-6763
▁seules	-6764
▁boul	-6765
▁Bourg	-6766
ifs	-6767
uyant	-6768
▁GU	-6769
▁menti	-6770
▁eurent	-6771
exemple	-6772
Ph	-6773
amin	-6774
ject	-6775
▁dirig	-6776
▁visible	-6777
▁déterminer	-6778
▁prévu	-6779
otal	-6780
▁VIII	-6781
▁normale	-6782
▁cessé	-6783
▁manières	-6784
▁spécialement	-6785
Unis	-6786
grés	-6787
▁insuffis	-6788
▁ordinaires	-6789
▁relativement	-6790
▁admis	-6791
▁paris	-6792
▁remarquable	-6793
bal	-6794
issage	-6795
▁rab	-6796
engage	-6797
onnaire	-6798
▁agricoles	-6799
».	-6800
oques	-6801
ticle	-6802
▁mond	-6803
▁mû	-6804
ouvrit	-6805
▁réflexions	-6806
sign	-6807
interromp	-6808
▁histor	-6809
▁prennent	-6810
▁cavalerie	-6811
▁Max	-6812
▁régn	-6813
oissons	-6814
▁marbre	-6815
ami	-6816
ancy	-6817
▁los	-6818
issance	-6819
▁successivement	-6820
▁arrêter	-6821
▁dévouement	-6822
▁EX	-6823
▁voû	-6824
essage	-6825
▁batterie	-6826
▁lat	-6827
inrent	-6828
▁éclai	-6829
▁amoureux	-6830
neau	-6831
▁Neu	-6832
▁Sup	-6833
▁conqu	-6834
▁brouill	-6835
▁restent	-6836
ôtres	-6837
▁calc	-6838
▁littér	-6839
Amérique	-6840
oeuvre	-6841
▁prouver	-6842
▁ridicule	-6843
▁donnés	-6844
▁gend	-6845
▁compagnies	-6846
▁Esp	-6847
▁....	-6848
onnent	-6849
▁effic	-6850
▁remit	-6851
▁prisonnier	-6852
;'	-6853
cins	-6854
▁pleins	-6855
▁transm	-6856
GES	-6857
▁améli	-6858
▁sévère	-6859
▁dedans	-6860
*.	-6861
aw	-6862
▁rot	-6863
▁merci	-6864
▁choisi	-6865
▁retrouve	-6866
veu	-6867
▁reprises	-6868
lules	-6869
▁balle	-6870
alors	-6871
▁réflexion	-6872
▁citer	-6873
▁cellules	-6874
▁précautions	-6875
▁Tiens	-6876
▁Pauvre	-6877
▁créature	-6878
▁réception	-6879
ître	-6880
▁hélas	-6881
▁joint	-6882
▁frapper	-6883
jà	-6884
van	-6885
▁accr	-6886
entour	-6887
▁Jules	-6888
image	-6889
▁loy	-6890
▁psych	-6891
▁caisses	-6892
▁Mars	-6893
Ouest	-6894
▁Gaston	-6895
▁frag	-6896
▁diamètre	-6897
▁écoles	-6898
▁comporte	-6899
ties	-6900
▁Claude	-6901
▁électrique	-6902
TEUR	-6903
▁forc	-6904
▁Musée	-6905
quemment	-6906
▁IX	-6907
▁excep	-6908
▁degrés	-6909
▁placée	-6910
agés	-6911
▁Luc	-6912
▁sèche	-6913
▁sourit	-6914
▁Ib	-6915
aites	-6916
▁pend	-6917
▁impré	-6918
ducation	-6919
▁précédente	-6920
▁faç	-6921
inform	-6922
▁tapis	-6923
oliques	-6924
▁adresse	-6925
▁maladies	-6926
itaine	-6927
▁comprit	-6928
▁attitude	-6929
▁prévenir	-6930
lotte	-6931
▁osc	-6932
▁pul	-6933
▁Angleterre	-6934
ji	-6935
ettait	-6936
▁Pard	-6937
▁Dav	-6938
lui	-6939
rances	-6940
▁fabrication	-6941
▁drôle	-6942
▁lieues	-6943
▁micr	-6944
▁Dur	-6945
▁réunion	-6946
▁Lé	-6947
▁rass	-6948
▁statue	-6949
COM	-6950
▁Belle	-6951
▁Marse	-6952
▁pensez	-6953
▁répéta	-6954
▁descrip	-6955
▁effectu	-6956
▁civilisation	-6957
arra	-6958
▁ara	-6959
▁modif	-6960
▁perdue	-6961
▁proche	-6962
▁sér	-6963
eline	-6964
expliquer	-6965
;.	-6966
▁claire	-6967
▁prononcer	-6968
fer	-6969
▁pati	-6970
▁dirai	-6971
orée	-6972
sace	-6973
▁touche	-6974
assurance	-6975
▁phénomène	-6976
▁civile	-6977
rante	-6978
▁pardon	-6979
▁plaque	-6980
▁collection	-6981
▁racines	-6982
▁devi	-6983
▁lueur	-6984
▁terrains	-6985
▁mouch	-6986
▁modes	-6987
▁ge	-6988
erais	-6989
▁accepter	-6990
▁Lille	-6991
▁préfet	-6992
▁employer	-6993
illa	-6994
▁Don	-6995
▁séance	-6996
▁Antoine	-6997
yth	-6998
usses	-6999
chi	-7000
assistance	-7001
âtres	-7002
▁leçons	-7003
ÉTAT	-7004
▁tas	-7005
▁indications	-7006
▁Ter	-7007
▁feux	-7008
▁russe	-7009
asbourg	-7010
;&	-7011
▁Ven	-7012
▁déclara	-7013
entends	-7014
▁aventure	-7015
▁noblesse	-7016
▁nullement	-7017
tée	-7018
▁SO	-7019
TER	-7020
RU	-7021
▁souper	-7022
▁plong	-7023
▁planches	-7024
▁boulevard	-7025
▁hôtel	-7026
▁allant	-7027
▁partit	-7028
▁RÉ	-7029
ords	-7030
▁créer	-7031
▁bâtiment	-7032
▁Né	-7033
▁obus	-7034
dt	-7035
Vous	-7036
▁exact	-7037
rs	-7038
▁vues	-7039
▁crist	-7040
ices	-7041
▁chrétien	-7042
Pl	-7043
▁vécu	-7044
▁dignité	-7045
▁Rec	-7046
Ag	-7047
ilé	-7048
▁remarqué	-7049
▁fabri	-7050
Église	-7051
▁collab	-7052
▁néglig	-7053
▁voyais	-7054
▁Voyons	-7055
▁journées	-7056
nier	-7057
▁San	-7058
▁Ton	-7059
▁harm	-7060
▁Lorraine	-7061
adm	-7062
▁équip	-7063
▁inconvén	-7064
▁Ec	-7065
Orient	-7066
médiaire	-7067
euille	-7068
▁conservé	-7069
▁expérience	-7070
iche	-7071
▁relever	-7072
▁prêts	-7073
▁fameux	-7074
▁places	-7075
-,	-7076
▁Maître	-7077
▁OU	-7078
approcha	-7079
▁artifici	-7080
▁principales	-7081
to	-7082
▁aisément	-7083
▁dir	-7084
▁prononc	-7085
OP	-7086
ouch	-7087
▁programme	-7088
ali	-7089
▁Off	-7090
gypte	-7091
▁Droit	-7092
erts	-7093
▁impression	-7094
▁scand	-7095
▁morceaux	-7096
no	-7097
acles	-7098
▁interrompit	-7099
▁proprement	-7100
Après	-7101
ortun	-7102
▁Fer	-7103
▁ate	-7104
ublic	-7105
quatre	-7106
▁attaques	-7107
▁tranquillement	-7108
vie	-7109
▁ramp	-7110
apport	-7111
▁logement	-7112
augment	-7113
▁majorité	-7114
olo	-7115
▁perç	-7116
▁aperçu	-7117
▁quatrième	-7118
arge	-7119
▁tonne	-7120
▁quitte	-7121
▁montrant	-7122
▁fâch	-7123
▁Revue	-7124
▁prosp	-7125
▁espoir	-7126
iciens	-7127
▁marier	-7128
registre	-7129
▁prolonge	-7130
▁ber	-7131
▁Encore	-7132
aret	-7133
▁XII	-7134
Comme	-7135
élect	-7136
▁rêver	-7137
▁église	-7138
▁Bientôt	-7139
▁sergent	-7140
▁eussent	-7141
ino	-7142
▁amené	-7143
▁fixée	-7144
▁caoutch	-7145
▁Gui	-7146
▁présentent	-7147
bel	-7148
▁test	-7149
illers	-7150
reinte	-7151
▁fureur	-7152
mosphère	-7153
rité	-7154
▁annexe	-7155
Rou	-7156
▁revenait	-7157
▁appartenant	-7158
▁quoiqu	-7159
▁gaieté	-7160
▁réunis	-7161
▁couverture	-7162
▁historique	-7163
cus	-7164
oies	-7165
▁élève	-7166
▁entraîn	-7167
▁crier	-7168
▁cousine	-7169
▁conseiller	-7170
ôm	-7171
▁chim	-7172
▁manus	-7173
études	-7174
affaires	-7175
▁médioc	-7176
▁permission	-7177
▁fâ	-7178
▁Cass	-7179
▁subir	-7180
▁sciences	-7181
▁ï	-7182
▁Gé	-7183
▁rond	-7184
▁messe	-7185
▁temple	-7186
▁témoins	-7187
▁Rel	-7188
▁payé	-7189
ref	-7190
environ	-7191
▁ruisse	-7192
▁pouvoirs	-7193
assant	-7194
▁courb	-7195
▁savons	-7196
▁Quelque	-7197
▁peinture	-7198
▁sienne	-7199
entretien	-7200
berge	-7201
▁cote	-7202
▁servante	-7203
▁grains	-7204
▁certitude	-7205
IRE	-7206
▁cerc	-7207
occuper	-7208
▁courut	-7209
▁milliers	-7210
▁chron	-7211
équation	-7212
▁superbe	-7213
▁Dés	-7214
▁her	-7215
▁nomm	-7216
introd	-7217
ancienne	-7218
▁poser	-7219
▁étrangères	-7220
▁ov	-7221
▁aurez	-7222
▁défend	-7223
▁peines	-7224
assés	-7225
▁intéressant	-7226
▁époux	-7227
▁Manche	-7228
▁vivres	-7229
▁continuait	-7230
lac	-7231
atelier	-7232
▁Thomas	-7233
▁Strasbourg	-7234
▁hom	-7235
▁générales	-7236
arte	-7237
▁habitudes	-7238
▁intég	-7239
▁coqu	-7240
▁dot	-7241
oigne	-7242
tension	-7243
▁modeste	-7244
mique	-7245
▁engage	-7246
▁constituent	-7247
OY	-7248
▁méthodes	-7249
▁sociales	-7250
▁persp	-7251
étér	-7252
▁PREM	-7253
▁constamment	-7254
effor	-7255
▁séparer	-7256
▁PR	-7257
▁conver	-7258
ev	-7259
OTAL	-7260
aum	-7261
▁Oct	-7262
émotion	-7263
▁agricole	-7264
▁flott	-7265
érieurement	-7266
▁dimensions	-7267
fic	-7268
▁çà	-7269
rict	-7270
▁billet	-7271
▁souverain	-7272
▁parag	-7273
▁troup	-7274
▁marchait	-7275
JOR	-7276
▁pans	-7277
▁sachant	-7278
▁souffrance	-7279
ouette	-7280
▁sympathie	-7281
▁catholique	-7282
ola	-7283
▁hect	-7284
ERT	-7285
▁
&	-7286
ator	-7287
organ	-7288
▁brun	-7289
▁revue	-7290
phe	-7291
▁lumine	-7292
omét	-7293
▁Ouv	-7294
▁devez	-7295
▁ruines	-7296
▁Sol	-7297
itable	-7298
▁CON	-7299
▁ras	-7300
ographe	-7301
za	-7302
▁mirent	-7303
▁séparation	-7304
égal	-7305
▁puissant	-7306
▁intention	-7307
▁bloc	-7308
▁baiser	-7309
▁Trav	-7310
iration	-7311
▁caress	-7312
▁savent	-7313
▁connaissez	-7314
▁Ban	-7315
Paris	-7316
▁édit	-7317
▁actuel	-7318
économie	-7319
oureusement	-7320
▁Fig	-7321
acier	-7322
▁mince	-7323
▁Lucien	-7324
▁principalement	-7325
▁Long	-7326
▁royal	-7327
▁effect	-7328
▁major	-7329
▁millim	-7330
▁laissez	-7331
▁fuite	-7332
▁tribunaux	-7333
orn	-7334
assée	-7335
▁menace	-7336
ardi	-7337
▁clarté	-7338
ela	-7339
▁sourc	-7340
Henri	-7341
▁monte	-7342
▁redress	-7343
▁prochain	-7344
quiè	-7345
istiques	-7346
ROU	-7347
▁fière	-7348
▁viande	-7349
▁concent	-7350
▁Gouvernement	-7351
aura	-7352
▁tube	-7353
obtenir	-7354
▁suivait	-7355
▁comprenait	-7356
▁affreux	-7357
éte	-7358
▁paraissent	-7359
▁grat	-7360
▁ravit	-7361
▁remise	-7362
▁Histoire	-7363
▁Rem	-7364
années	-7365
▁braves	-7366
▁nuits	-7367
▁convenable	-7368
aub	-7369
ommages	-7370
▁libres	-7371
▁directe	-7372
▁plaindre	-7373
union	-7374
▁Service	-7375
letin	-7376
uctions	-7377
▁poésie	-7378
▁terminé	-7379
ENNE	-7380
Tout	-7381
arque	-7382
▁promesse	-7383
▁luxe	-7384
▁médecins	-7385
▁chrétiens	-7386
▁exercices	-7387
Lors	-7388
▁bav	-7389
▁symb	-7390
oce	-7391
tifi	-7392
Marie	-7393
▁frontière	-7394
arl	-7395
accus	-7396
endic	-7397
▁sortant	-7398
▁contempor	-7399
▁Arr	-7400
▁due	-7401
ERRE	-7402
▁étinc	-7403
▁envoyer	-7404
▁triomph	-7405
▁auteur	-7406
▁mettant	-7407
▁considération	-7408
Ang	-7409
amitié	-7410
éprouv	-7411
▁soigneusement	-7412
adj	-7413
▁jalous	-7414
envelopp	-7415
▁application	-7416
ST	-7417
iel	-7418
▁DÉ	-7419
▁Guerre	-7420
▁climat	-7421
▁gardes	-7422
▁pourvu	-7423
▁servait	-7424
▁violent	-7425
▁positions	-7426
ogn	-7427
▁Po	-7428
▁asc	-7429
ignor	-7430
uation	-7431
CON	-7432
▁greff	-7433
éron	-7434
▁mètre	-7435
▁indiqué	-7436
▁discussion	-7437
▁réputation	-7438
▁maud	-7439
▁passée	-7440
bum	-7441
alon	-7442
▁étage	-7443
▁May	-7444
▁réuss	-7445
▁comport	-7446
▁autorité	-7447
▁horizont	-7448
oub	-7449
ôtel	-7450
▁Bat	-7451
▁ult	-7452
enfants	-7453
ueux	-7454
▁Voyez	-7455
LAN	-7456
ceau	-7457
▁quai	-7458
▁image	-7459
▁réglement	-7460
Voir	-7461
olet	-7462
▁allong	-7463
entreprise	-7464
▁défi	-7465
asseoir	-7466
▁Nicolas	-7467
▁sap	-7468
▁affirm	-7469
▁jure	-7470
▁ceinture	-7471
▁eh	-7472
uent	-7473
acine	-7474
▁prières	-7475
ION	-7476
▁Va	-7477
▁vib	-7478
▁analog	-7479
▁étroite	-7480
▁paroisse	-7481
".	-7482
écart	-7483
▁destiné	-7484
▁progressi	-7485
▁fréquemment	-7486
isses	-7487
▁circuit	-7488
install	-7489
▁accour	-7490
▁possédait	-7491
lées	-7492
▁débiteur	-7493
▁propriétés	-7494
MAJOR	-7495
▁apporter	-7496
écout	-7497
▁Prof	-7498
▁forcé	-7499
▁épais	-7500
▁absence	-7501
TIF	-7502
omac	-7503
rap	-7504
rirent	-7505
▁instr	-7506
Institut	-7507
▁volumes	-7508
▁marchands	-7509
Is	-7510
▁stip	-7511
Eglise	-7512
rel	-7513
▁hâ	-7514
quent	-7515
▁fémin	-7516
▁amitié	-7517
▁offrir	-7518
neaux	-7519
▁charité	-7520
▁ennemie	-7521
▁littérature	-7522
▁religieuses	-7523
actions	-7524
▁parlez	-7525
▁décider	-7526
aillement	-7527
▁QU	-7528
ataires	-7529
▁pattes	-7530
Inde	-7531
▁monument	-7532
▁Combien	-7533
▁importants	-7534
▁provisoire	-7535
▁sut	-7536
▁onze	-7537
▁fixés	-7538
appelait	-7539
Empire	-7540
▁guide	-7541
▁Comité	-7542
▁résister	-7543
▁épouvant	-7544
ATE	-7545
rien	-7546
▁rochers	-7547
▁reproche	-7548
▁restaur	-7549
chesse	-7550
▁tombé	-7551
▁fonctionnement	-7552
▁pomp	-7553
▁inten	-7554
▁supposer	-7555
ân	-7556
▁culte	-7557
▁préal	-7558
▁ration	-7559
▁entreprise	-7560
oct	-7561
vet	-7562
▁attaché	-7563
▁coff	-7564
▁espér	-7565
▁singulier	-7566
itifs	-7567
▁mystérieux	-7568
▁At	-7569
ané	-7570
assit	-7571
attendait	-7572
▁cimetière	-7573
▁renv	-7574
▁monta	-7575
▁trous	-7576
▁passent	-7577
▁préférence	-7578
▁types	-7579
▁fausse	-7580
▁normal	-7581
▁vengeance	-7582
ht	-7583
▁devront	-7584
▁Annexe	-7585
animal	-7586
▁royale	-7587
▁Div	-7588
▁imb	-7589
▁chaude	-7590
▁Trait	-7591
ernelle	-7592
▁suffisante	-7593
unt	-7594
▁Soit	-7595
▁gran	-7596
▁paquet	-7597
▁scient	-7598
▁Parlement	-7599
qua	-7600
▁arrond	-7601
▁constante	-7602
▁distribution	-7603
▁étendu	-7604
▁relatives	-7605
écrire	-7606
▁Merci	-7607
▁situé	-7608
▁aver	-7609
uration	-7610
▁bonnet	-7611
▁doctrine	-7612
▁créanciers	-7613
aug	-7614
▁mouill	-7615
▁composé	-7616
Assemblée	-7617
▁vaisseaux	-7618
▁formid	-7619
▁porti	-7620
▁citoyens	-7621
▁SE	-7622
▁rois	-7623
illait	-7624
▁instructions	-7625
▁las	-7626
liqué	-7627
▁disaient	-7628
▁exécuter	-7629
▁provenant	-7630
▁ronde	-7631
▁he	-7632
▁Cat	-7633
▁Cent	-7634
▁arme	-7635
▁dieux	-7636
▁dispose	-7637
onnais	-7638
cieuses	-7639
▁trompe	-7640
ustes	-7641
▁hauss	-7642
aliment	-7643
▁poussé	-7644
▁prévoir	-7645
▁).	-7646
▁Ver	-7647
▁réaction	-7648
▁considéré	-7649
▁Chez	-7650
reuves	-7651
ena	-7652
▁entré	-7653
▁vesti	-7654
▁utiles	-7655
▁vivait	-7656
▁Holl	-7657
▁décour	-7658
▁Toulouse	-7659
▁Att	-7660
▁Allemagne	-7661
oum	-7662
▁hont	-7663
▁teint	-7664
▁distinction	-7665
▁Barr	-7666
▁Heure	-7667
▁canne	-7668
▁revêt	-7669
jection	-7670
▁pension	-7671
assemblée	-7672
ÉES	-7673
▁unes	-7674
angers	-7675
midité	-7676
cence	-7677
▁profiter	-7678
dieux	-7679
▁voil	-7680
▁approuv	-7681
rot	-7682
▁bruy	-7683
endrai	-7684
▁chirurg	-7685
mun	-7686
▁aéri	-7687
▁marine	-7688
▁machines	-7689
▁possibilité	-7690
âne	-7691
▁enfer	-7692
▁diriger	-7693
▁largement	-7694
▁em	-7695
▁altern	-7696
▁suivie	-7697
REN	-7698
▁mines	-7699
▁victimes	-7700
aucun	-7701
▁réelle	-7702
empereur	-7703
▁montait	-7704
▁sentier	-7705
ressement	-7706
▁précaution	-7707
▁passions	-7708
▁plaisant	-7709
▁importantes	-7710
▁forts	-7711
▁états	-7712
Op	-7713
▁pât	-7714
▁estime	-7715
▁quitta	-7716
▁bâtiments	-7717
Tr	-7718
▁enchant	-7719
TIC	-7720
▁marches	-7721
Ils	-7722
▁traiter	-7723
▁renoncer	-7724
tivités	-7725
▁avantage	-7726
haut	-7727
▁gagné	-7728
piration	-7729
▁supérieurs	-7730
▁correspondance	-7731
▁organes	-7732
apprendre	-7733
AIRE	-7734
illant	-7735
▁chanter	-7736
▁lecteur	-7737
▁intelligence	-7738
»,	-7739
▁déclare	-7740
▁fonctionnaires	-7741
▁linge	-7742
▁Valent	-7743
▁couché	-7744
▁appareil	-7745
As	-7746
▁Gir	-7747
▁scrup	-7748
▁interdit	-7749
▁Ali	-7750
▁fidèles	-7751
pin	-7752
liger	-7753
cemment	-7754
▁poursuivre	-7755
▁satisfaire	-7756
▁cylind	-7757
▁mourut	-7758
▁réserves	-7759
IX	-7760
▁Parce	-7761
▁étonné	-7762
▁colonie	-7763
▁om	-7764
▁savant	-7765
▁refuser	-7766
▁manœuvre	-7767
▁ténèbres	-7768
igneurs	-7769
ennent	-7770
▁gravité	-7771
▁indique	-7772
uies	-7773
▁buv	-7774
▁courants	-7775
ITÉ	-7776
cir	-7777
▁brod	-7778
▁surn	-7779
▁contrô	-7780
▁tourne	-7781
▁appelait	-7782
▁voudrait	-7783
▁propose	-7784
▁trouvera	-7785
▁heureusement	-7786
▁lé	-7787
▁sortait	-7788
▁plaisirs	-7789
▁cadres	-7790
▁condamné	-7791
▁moteur	-7792
El	-7793
▁besogne	-7794
▁présenté	-7795
yre	-7796
anny	-7797
atti	-7798
aider	-7799
gérie	-7800
royable	-7801
▁désirs	-7802
▁gestes	-7803
▁parent	-7804
▁personnelle	-7805
enz	-7806
▁juges	-7807
mile	-7808
▁vaill	-7809
▁rocher	-7810
▁accueil	-7811
▁Constant	-7812
▁endroits	-7813
▁écrivait	-7814
▁bapt	-7815
ocations	-7816
▁Charlotte	-7817
▁abandonné	-7818
▁économiques	-7819
ITS	-7820
léans	-7821
▁fuir	-7822
▁central	-7823
▁prudence	-7824
▁descendit	-7825
▁
,	-7826
▁noires	-7827
▁espérer	-7828
rure	-7829
UB	-7830
▁planche	-7831
dite	-7832
▁arc	-7833
enons	-7834
oncle	-7835
alcool	-7836
▁étrangère	-7837
champ	-7838
▁spéciales	-7839
MAR	-7840
uels	-7841
▁couper	-7842
▁images	-7843
uge	-7844
▁déterminé	-7845
affir	-7846
▁divine	-7847
amer	-7848
effort	-7849
▁prononcé	-7850
▁mienne	-7851
aimait	-7852
▁créancier	-7853
▁Holmes	-7854
▁Aussitôt	-7855
chet	-7856
▁Albert	-7857
mentation	-7858
▁bienveill	-7859
▁subitement	-7860
▁Autre	-7861
▁rassembl	-7862
▁sérieuse	-7863
▁téléphon	-7864
enser	-7865
obscurité	-7866
▁propriétaires	-7867
▁occas	-7868
▁formant	-7869
OIRE	-7870
ustr	-7871
Enfin	-7872
rence	-7873
▁réduction	-7874
▁gardé	-7875
▁Gaz	-7876
▁Jeu	-7877
▁étal	-7878
▁venons	-7879
ulations	-7880
▁catégories	-7881
▁porteurs	-7882
▁tendance	-7883
onction	-7884
▁Chacun	-7885
▁mobile	-7886
▁souffert	-7887
vel	-7888
▁bul	-7889
▁neveu	-7890
agir	-7891
▁abatt	-7892
▁rendus	-7893
▁chi	-7894
▁vins	-7895
érid	-7896
devant	-7897
▁rêves	-7898
▁die	-7899
élène	-7900
▁restée	-7901
▁nerveux	-7902
▁paisible	-7903
▁circulaire	-7904
▁For	-7905
expos	-7906
érale	-7907
▁deviner	-7908
GU	-7909
OUS	-7910
orp	-7911
▁hi	-7912
▁lâche	-7913
▁allemandes	-7914
èches	-7915
▁récolte	-7916
▁Lec	-7917
▁applic	-7918
▁visiter	-7919
▁évident	-7920
tige	-7921
relle	-7922
▁réel	-7923
▁Berlin	-7924
▁contente	-7925
irs	-7926
▁asp	-7927
chent	-7928
inale	-7929
▁forêts	-7930
▁origine	-7931
▁superfici	-7932
▁répartition	-7933
MB	-7934
arre	-7935
ogue	-7936
▁nomme	-7937
▁énergie	-7938
ID	-7939
alli	-7940
▁GÉN	-7941
ification	-7942
▁mart	-7943
▁caché	-7944
▁quoti	-7945
▁saill	-7946
▁présenta	-7947
blou	-7948
▁spont	-7949
aujourd	-7950
▁attendu	-7951
▁reconnut	-7952
▁songeait	-7953
▁crains	-7954
acée	-7955
delà	-7956
uise	-7957
▁Pét	-7958
▁bud	-7959
ituer	-7960
espèce	-7961
▁rente	-7962
ardinal	-7963
▁désagré	-7964
▁prochaine	-7965
▁préparé	-7966
fais	-7967
▁habits	-7968
▁cherchant	-7969
▁conformément	-7970
▁félic	-7971
IES	-7972
aré	-7973
abeth	-7974
▁assembl	-7975
ancel	-7976
uisant	-7977
▁bizarre	-7978
▁pavillon	-7979
▁conception	-7980
aig	-7981
▁Mag	-7982
onies	-7983
▁éveill	-7984
▁Sauv	-7985
▁Nancy	-7986
▁sources	-7987
arma	-7988
édrale	-7989
▁creux	-7990
▁caoutchouc	-7991
TRES	-7992
euble	-7993
▁jetant	-7994
▁tromper	-7995
▁
■	-7996
▁lass	-7997
▁servant	-7998
▁étoiles	-7999
▁interval	-8000
éclat	-8001
▁verrons	-8002
▁autorités	-8003
▁secou	-8004
▁médecine	-8005
œuf	-8006
queur	-8007
▁réfug	-8008
orgueil	-8009
▁timbre	-8010
▁allemands	-8011
embar	-8012
▁aise	-8013
▁révol	-8014
▁trouvant	-8015
▁connaissances	-8016
▁domicile	-8017
umer	-8018
siers	-8019
iversité	-8020
▁représentants	-8021
oché	-8022
elet	-8023
écoul	-8024
▁infir	-8025
▁relation	-8026
▁singulière	-8027
MÉE	-8028
quées	-8029
▁Lac	-8030
▁pros	-8031
demnité	-8032
▁consist	-8033
▁reconnaît	-8034
ed	-8035
ALES	-8036
uelles	-8037
▁terribles	-8038
▁secondaire	-8039
▁exclusivement	-8040
obst	-8041
▁Pre	-8042
▁créé	-8043
aucune	-8044
▁laine	-8045
▁poisson	-8046
▁échange	-8047
▁supplément	-8048
▁pli	-8049
▁valet	-8050
acha	-8051
acide	-8052
▁Bra	-8053
TIQUE	-8054
▁manqué	-8055
autrefois	-8056
▁secondes	-8057
édé	-8058
▁Jos	-8059
▁sagesse	-8060
▁équations	-8061
▁amant	-8062
▁avance	-8063
▁phosph	-8064
▁proclam	-8065
▁sérieusement	-8066
▁cœurs	-8067
▁Lang	-8068
▁Tandis	-8069
obligation	-8070
▁clairement	-8071
▁mord	-8072
▁tint	-8073
andant	-8074
▁profil	-8075
▁paysage	-8076
onçant	-8077
udence	-8078
▁furieux	-8079
onseigneur	-8080
▁Mém	-8081
▁inconnu	-8082
ca	-8083
ORT	-8084
▁vice	-8085
▁touché	-8086
▁mitrailleuses	-8087
éros	-8088
▁Mère	-8089
▁centres	-8090
AINT	-8091
▁fraîche	-8092
▁nations	-8093
iger	-8094
▁dict	-8095
▁empê	-8096
▁vraisembl	-8097
▁organisation	-8098
OND	-8099
Quand	-8100
▁bonhomme	-8101
▁particulières	-8102
arin	-8103
▁flè	-8104
▁Berthe	-8105
▁distribu	-8106
▁longuement	-8107
▁Sh	-8108
▁impr	-8109
deux	-8110
urne	-8111
▁Croix	-8112
▁accès	-8113
▁domin	-8114
▁fermer	-8115
offe	-8116
▁Sil	-8117
▁bac	-8118
trême	-8119
archie	-8120
▁ruine	-8121
▁mention	-8122
▁traverse	-8123
▁ressemble	-8124
▁ecc	-8125
▁côtes	-8126
▁pente	-8127
▁arrivant	-8128
▁équiv	-8129
▁définitivement	-8130
▁Mi	-8131
▁lant	-8132
▁bataillons	-8133
▁New	-8134
▁dérob	-8135
▁chrétienne	-8136
Du	-8137
jon	-8138
▁Van	-8139
▁fusils	-8140
▁cavalier	-8141
▁répondis	-8142
▁Arm	-8143
▁destinés	-8144
nait	-8145
oïde	-8146
quit	-8147
▁chal	-8148
Ann	-8149
enance	-8150
▁connus	-8151
▁preuves	-8152
▁exécution	-8153
▁héroï	-8154
▁Barb	-8155
▁Pays	-8156
▁reposer	-8157
▁essayer	-8158
heim	-8159
▁Mrs	-8160
▁prends	-8161
▁analogue	-8162
▁imagination	-8163
lem	-8164
▁Sir	-8165
évêque	-8166
▁délicate	-8167
▁populaire	-8168
▁féc	-8169
ageux	-8170
icien	-8171
▁variations	-8172
▁législation	-8173
▁Her	-8174
reurs	-8175
▁joign	-8176
▁individus	-8177
▁Verd	-8178
▁roues	-8179
▁
"	-8180
▁décomp	-8181
illement	-8182
▁couverte	-8183
agriculture	-8184
▁obligations	-8185
▁indiquer	-8186
▁sor	-8187
endez	-8188
▁établie	-8189
▁contenu	-8190
▁définitive	-8191
▁inquiétude	-8192
▁Commerce	-8193
▁désordre	-8194
▁sat	-8195
▁pêch	-8196
inière	-8197
▁jette	-8198
▁subli	-8199
▁magasin	-8200
▁incapable	-8201
èques	-8202
▁ému	-8203
risti	-8204
▁tonn	-8205
arrête	-8206
▁destruction	-8207
Col	-8208
get	-8209
▁États	-8210
▁distinc	-8211
▁coc	-8212
▁goutte	-8213
▁pensais	-8214
▁’	-8215
aure	-8216
▁pis	-8217
asion	-8218
▁aviez	-8219
culaire	-8220
▁relève	-8221
▁dessein	-8222
nellement	-8223
▁riz	-8224
▁maigre	-8225
▁régulièrement	-8226
▁Dép	-8227
UREAU	-8228
/.	-8229
▁The	-8230
▁bec	-8231
▁pousse	-8232
erman	-8233
▁raf	-8234
▁réci	-8235
▁variétés	-8236
accro	-8237
duite	-8238
▁visites	-8239
oïsme	-8240
▁estim	-8241
gée	-8242
forme	-8243
▁signée	-8244
▁tombait	-8245
▁Ca	-8246
▁Rich	-8247
▁flor	-8248
▁môme	-8249
existe	-8250
Imp	-8251
uleux	-8252
▁Anne	-8253
éviter	-8254
èvement	-8255
▁profess	-8256
▁répéter	-8257
▁servent	-8258
▁Donc	-8259
upp	-8260
▁Trans	-8261
-'	-8262
▁recueill	-8263
las	-8264
▁frappa	-8265
iliation	-8266
▁Versailles	-8267
▁Pau	-8268
▁Marius	-8269
▁réseau	-8270
▁salaire	-8271
▁Aff	-8272
▁anc	-8273
▁serons	-8274
▁textes	-8275
▁collège	-8276
▁mauvaises	-8277
▁Cin	-8278
▁examen	-8279
▁douleurs	-8280
▁bu	-8281
ispr	-8282
▁boit	-8283
▁trouvai	-8284
ophie	-8285
écile	-8286
▁poursui	-8287
▁généreux	-8288
▁pratiques	-8289
▁merveilleux	-8290
▁iss	-8291
▁chemise	-8292
▁org	-8293
▁marchant	-8294
▁sensation	-8295
▁brusque	-8296
▁bienfait	-8297
▁démarche	-8298
cas	-8299
▁ra	-8300
▁Déjà	-8301
▁clin	-8302
▁adieu	-8303
▁étais	-8304
▁minuit	-8305
▁étiez	-8306
▁Loi	-8307
▁taxe	-8308
▁sauvé	-8309
▁rentra	-8310
▁viendra	-8311
▁demandes	-8312
▁destinées	-8313
▁fonte	-8314
▁comptait	-8315
▁syndic	-8316
▁Gar	-8317
▁Ceci	-8318
▁DANS	-8319
▁malh	-8320
▁cultures	-8321
jj	-8322
▁posé	-8323
érences	-8324
▁répète	-8325
▁parvenir	-8326
▁revanche	-8327
▁réfléchir	-8328
▁coord	-8329
▁charger	-8330
agner	-8331
▁extrém	-8332
▁excessi	-8333
▁complément	-8334
▁conviction	-8335
orph	-8336
▁acheter	-8337
amus	-8338
lf	-8339
▁ner	-8340
▁accro	-8341
▁sensibilité	-8342
▁demandai	-8343
▁salariés	-8344
▁tiennent	-8345
bus	-8346
ients	-8347
▁jeux	-8348
▁demeura	-8349
aniel	-8350
▁perspec	-8351
SA	-8352
▁fins	-8353
sement	-8354
▁arrivés	-8355
▁convaincu	-8356
den	-8357
attre	-8358
▁vot	-8359
▁Cher	-8360
assait	-8361
instru	-8362
▁Jusqu	-8363
▁Leurs	-8364
▁cadavre	-8365
endorm	-8366
▁dépense	-8367
▁phrases	-8368
▁spéciaux	-8369
endie	-8370
▁inexp	-8371
▁marin	-8372
horreur	-8373
▁commerç	-8374
▁souffrances	-8375
▁Allez	-8376
▁exposé	-8377
▁apporté	-8378
▁accompli	-8379
▁voisines	-8380
▁prouve	-8381
▁faculté	-8382
▁sincère	-8383
▁fraction	-8384
▁demoiselle	-8385
pit	-8386
▁enlever	-8387
▁cors	-8388
ignore	-8389
▁cache	-8390
▁puissent	-8391
▁cavaliers	-8392
▁seigneurs	-8393
▁von	-8394
▁bâton	-8395
▁centrale	-8396
▁détruire	-8397
▁extrémités	-8398
artiste	-8399
▁dégoût	-8400
▁différent	-8401
▁malheureusement	-8402
▁Bé	-8403
▁dettes	-8404
▁voulant	-8405
cn	-8406
Com	-8407
▁trim	-8408
▁naître	-8409
▁charbon	-8410
▁ordinairement	-8411
▁demie	-8412
▁Nature	-8413
▁aud	-8414
▁vase	-8415
ulsion	-8416
▁procéder	-8417
▁flamb	-8418
▁goû	-8419
▁lion	-8420
▁mener	-8421
▁située	-8422
▁traverser	-8423
▁logique	-8424
▁ramener	-8425
ala	-8426
▁
^	-8427
▁Dom	-8428
▁quad	-8429
▁testament	-8430
▁éducation	-8431
▁discipline	-8432
▁travailleurs	-8433
▁velours	-8434
LLE	-8435
Que	-8436
atter	-8437
▁cler	-8438
▁bibliothèque	-8439
Jac	-8440
▁Soud	-8441
▁beur	-8442
▁chang	-8443
▁mères	-8444
▁dessins	-8445
mph	-8446
▁bé	-8447
rétion	-8448
▁combattre	-8449
▁scientifique	-8450
ban	-8451
▁Lo	-8452
▁cray	-8453
▁fêtes	-8454
▁chargée	-8455
▁pipe	-8456
sche	-8457
mides	-8458
▁Parmi	-8459
onniers	-8460
▁Italie	-8461
▁constitué	-8462
▁récol	-8463
approche	-8464
▁raconte	-8465
▁chambres	-8466
OUV	-8467
fiques	-8468
lèvement	-8469
▁Marseille	-8470
▁Bri	-8471
▁criait	-8472
▁oblige	-8473
▁trompé	-8474
dication	-8475
▁représentation	-8476
▁bleue	-8477
▁pendu	-8478
▁client	-8479
admiration	-8480
PR	-8481
▁rup	-8482
âle	-8483
aris	-8484
nels	-8485
▁prenez	-8486
équilibre	-8487
VII	-8488
▁lame	-8489
cevoir	-8490
MAN	-8491
dor	-8492
▁Cer	-8493
▁infiniment	-8494
▁poursuivit	-8495
aria	-8496
▁plaf	-8497
bis	-8498
▁copie	-8499
▁filet	-8500
oqué	-8501
▁tige	-8502
entiel	-8503
▁pluies	-8504
oyait	-8505
▁bouteille	-8506
▁publiques	-8507
▁lav	-8508
▁drame	-8509
individ	-8510
▁conquête	-8511
GER	-8512
obus	-8513
▁Mol	-8514
Autriche	-8515
▁examiner	-8516
lises	-8517
étudi	-8518
▁Prin	-8519
▁pag	-8520
▁horreur	-8521
▁réduire	-8522
tification	-8523
lements	-8524
▁allée	-8525
▁invis	-8526
▁troubles	-8527
▁from	-8528
▁épreuves	-8529
▁considérables	-8530
agers	-8531
▁grimp	-8532
▁Devant	-8533
▁chasser	-8534
▁circulation	-8535
anée	-8536
ren	-8537
▁véh	-8538
▁Roger	-8539
▁débris	-8540
épaisseur	-8541
▁disparut	-8542
quiète	-8543
▁féro	-8544
exception	-8545
ulée	-8546
▁Miss	-8547
▁insist	-8548
▁perpendic	-8549
âces	-8550
▁mécanique	-8551
PRO	-8552
oivent	-8553
▁canal	-8554
▁retira	-8555
▁cherché	-8556
oyé	-8557
antine	-8558
▁mœurs	-8559
▁Certes	-8560
▁occupe	-8561
▁gentilhomme	-8562
▁prêter	-8563
▁variété	-8564
▁étudier	-8565
▁rechercher	-8566
épous	-8567
érard	-8568
rateurs	-8569
▁pommes	-8570
▁rapidité	-8571
▁brillant	-8572
▁Pic	-8573
▁dyn	-8574
▁zèle	-8575
éfin	-8576
associ	-8577
▁bouill	-8578
▁enfance	-8579
LIN	-8580
▁Cler	-8581
▁Fanny	-8582
▁signé	-8583
▁écoul	-8584
▁tendit	-8585
▁considère	-8586
▁aig	-8587
▁paup	-8588
▁événement	-8589
▁comprenant	-8590
TIE	-8591
ensé	-8592
▁tamb	-8593
▁grade	-8594
estime	-8595
istres	-8596
▁complais	-8597
insp	-8598
▁Der	-8599
▁Proc	-8600
▁Grâce	-8601
▁influ	-8602
aptiste	-8603
▁déclaré	-8604
▁admettre	-8605
▁remercie	-8606
▁récemment	-8607
▁île	-8608
▁chargement	-8609
▁nar	-8610
héritier	-8611
▁Amb	-8612
▁Vie	-8613
▁tenter	-8614
▁citoyen	-8615
▁terrasse	-8616
▁fre	-8617
▁tabac	-8618
▁volup	-8619
▁déchir	-8620
▁expédi	-8621
▁précise	-8622
▁sentais	-8623
▁provinces	-8624
enquête	-8625
▁Palais	-8626
onnaient	-8627
affection	-8628
▁deuil	-8629
▁bénéfices	-8630
▁précision	-8631
▁brise	-8632
automne	-8633
▁entouré	-8634
▁mises	-8635
▁blessure	-8636
!!	-8637
▁XVII	-8638
▁ling	-8639
▁décida	-8640
▁Indiens	-8641
▁remords	-8642
▁corp	-8643
▁accidents	-8644
éraire	-8645
▁bandes	-8646
▁Fab	-8647
▁écrite	-8648
▁ouvrier	-8649
▁Emp	-8650
érèse	-8651
▁porc	-8652
▁BUREAU	-8653
mblement	-8654
rue	-8655
▁cro	-8656
ériorité	-8657
▁automob	-8658
▁violente	-8659
François	-8660
éné	-8661
▁inut	-8662
estion	-8663
▁rangs	-8664
▁Aujourd	-8665
▁Lam	-8666
autés	-8667
▁Dites	-8668
▁
–	-8669
étendue	-8670
▁silencieux	-8671
▁CO	-8672
ettent	-8673
▁nov	-8674
assad	-8675
fred	-8676
▁fas	-8677
▁vall	-8678
▁gonf	-8679
▁mien	-8680
▁reprise	-8681
rade	-8682
▁tac	-8683
▁chêne	-8684
veil	-8685
itées	-8686
▁dépasse	-8687
▁sombres	-8688
idé	-8689
▁Ac	-8690
▁Loire	-8691
▁sache	-8692
ouvante	-8693
▁avenir	-8694
▁Die	-8695
▁sien	-8696
▁taches	-8697
lets	-8698
▁carn	-8699
▁esti	-8700
▁privé	-8701
▁élevés	-8702
olé	-8703
▁René	-8704
▁Tunis	-8705
▁Vou	-8706
▁Harr	-8707
▁entrant	-8708
▁causé	-8709
▁jouir	-8710
▁vision	-8711
▁luimême	-8712
Ind	-8713
▁apporte	-8714
éclair	-8715
▁Adieu	-8716
Article	-8717
▁sauter	-8718
rateur	-8719
▁cérémonie	-8720
▁développer	-8721
▁aider	-8722
▁subi	-8723
▁couches	-8724
▁paragraphe	-8725
▁extérieur	-8726
▁gib	-8727
▁hât	-8728
HE	-8729
VA	-8730
érap	-8731
▁angles	-8732
▁établissement	-8733
▁levé	-8734
▁entrait	-8735
▁accompagné	-8736
ica	-8737
▁belge	-8738
imagination	-8739
ÉT	-8740
ïn	-8741
▁sensiblement	-8742
▁Pap	-8743
onnements	-8744
tn	-8745
▁Féli	-8746
ruption	-8747
▁tranquill	-8748
▁simplicité	-8749
▁britannique	-8750
▁essentiellement	-8751
▁xv	-8752
illés	-8753
rimée	-8754
▁signifie	-8755
▁puissances	-8756
Aug	-8757
orient	-8758
▁rendement	-8759
▁//	-8760
▁dam	-8761
▁souffre	-8762
▁modernes	-8763
▁passaient	-8764
CT	-8765
▁cocher	-8766
▁concert	-8767
▁Ta	-8768
▁Vienne	-8769
▁plonge	-8770
▁témoignage	-8771
exam	-8772
▁Bro	-8773
▁Syrie	-8774
▁neut	-8775
autoris	-8776
▁explos	-8777
▁serment	-8778
▁disposé	-8779
abelle	-8780
▁fermé	-8781
illette	-8782
estation	-8783
▁multipli	-8784
aigu	-8785
appe	-8786
ella	-8787
uteur	-8788
▁Impr	-8789
▁Norm	-8790
▁panier	-8791
isprudence	-8792
ciens	-8793
▁partant	-8794
ativement	-8795
▁propositions	-8796
oly	-8797
▁del	-8798
▁nuage	-8799
▁publication	-8800
▁Sou	-8801
abond	-8802
▁détaill	-8803
▁Mgr	-8804
▁tremp	-8805
▁îles	-8806
▁tenaient	-8807
Th	-8808
▁SUR	-8809
▁lig	-8810
▁privée	-8811
▁construit	-8812
adier	-8813
▁crimes	-8814
▁modifications	-8815
▁céléb	-8816
▁nue	-8817
▁bassin	-8818
EU	-8819
lla	-8820
▁duchesse	-8821
▁terminée	-8822
▁voulaient	-8823
Mal	-8824
èler	-8825
▁mos	-8826
artin	-8827
▁comparaison	-8828
▁stru	-8829
empire	-8830
▁nid	-8831
▁flots	-8832
▁verrez	-8833
▁réussit	-8834
▁Ier	-8835
▁Lis	-8836
▁Constantin	-8837
çai	-8838
▁aurons	-8839
▁fermée	-8840
▁épouse	-8841
▁matinée	-8842
::	-8843
ORD	-8844
ugn	-8845
▁lâ	-8846
▁salaires	-8847
essin	-8848
▁Roche	-8849
▁oiseau	-8850
▁mets	-8851
▁saisi	-8852
univers	-8853
▁mettent	-8854
▁surg	-8855
▁reçus	-8856
▁partager	-8857
▁Soc	-8858
▁Tête	-8859
▁Malheure	-8860
▁Brun	-8861
▁cigare	-8862
▁vertus	-8863
▁exemples	-8864
▁instruments	-8865
elé	-8866
îme	-8867
elli	-8868
orges	-8869
▁gouvern	-8870
▁essaya	-8871
▁renvoy	-8872
▁judiciaire	-8873
▁étonnement	-8874
————	-8875
▁sourd	-8876
espérance	-8877
▁sections	-8878
▁Do	-8879
▁Gra	-8880
▁verte	-8881
▁lament	-8882
istement	-8883
▁bleus	-8884
▁habile	-8885
▁épaisse	-8886
▁Ess	-8887
▁viole	-8888
▁plaign	-8889
aventure	-8890
▁joué	-8891
▁angle	-8892
rets	-8893
▁Lab	-8894
▁tub	-8895
▁Ve	-8896
obation	-8897
▁murmure	-8898
▁profondes	-8899
we	-8900
▁Tél	-8901
▁Prod	-8902
▁repose	-8903
▁billets	-8904
rép	-8905
▁Reine	-8906
onnerie	-8907
▁occupée	-8908
ologne	-8909
▁tenté	-8910
▁vanité	-8911
▁commenc	-8912
▁voyageur	-8913
cf	-8914
initi	-8915
envoyer	-8916
▁artiste	-8917
▁intentions	-8918
▁lan	-8919
avança	-8920
▁Thérèse	-8921
▁entretien	-8922
▁posa	-8923
▁hauts	-8924
▁Quatre	-8925
▁consult	-8926
▁techniques	-8927
▁gêne	-8928
lation	-8929
▁fautes	-8930
offensive	-8931
▁Ang	-8932
▁lève	-8933
▁condu	-8934
aperçut	-8935
▁devais	-8936
lexe	-8937
▁unité	-8938
égalité	-8939
▁différente	-8940
lage	-8941
▁SEC	-8942
▁celte	-8943
▁humide	-8944
▁ressemblait	-8945
inés	-8946
▁soif	-8947
▁incomp	-8948
▁centaines	-8949
▁parallèle	-8950
▁bil	-8951
▁nièce	-8952
▁secrets	-8953
▁puissante	-8954
aleine	-8955
▁promener	-8956
▁construire	-8957
▁régul	-8958
▁pleure	-8959
▁groupement	-8960
ISE	-8961
oyant	-8962
▁argu	-8963
eule	-8964
olle	-8965
▁luy	-8966
▁releva	-8967
hôpital	-8968
▁revenant	-8969
baye	-8970
▁alt	-8971
▁airs	-8972
▁PRODU	-8973
▁grond	-8974
▁comble	-8975
▁tristes	-8976
▁expériences	-8977
▁Mer	-8978
teurs	-8979
▁David	-8980
▁locaux	-8981
▁écouter	-8982
▁artistes	-8983
,'	-8984
apr	-8985
▁Maison	-8986
▁protéger	-8987
achat	-8988
assez	-8989
▁piano	-8990
▁souliers	-8991
▁sûrement	-8992
▁variable	-8993
oa	-8994
unique	-8995
▁lance	-8996
▁appelée	-8997
aveu	-8998
gner	-8999
ernel	-9000
ufact	-9001
▁gravement	-9002
pé	-9003
▁combus	-9004
▁incons	-9005
▁occuper	-9006
cheur	-9007
accent	-9008
reuses	-9009
▁présentait	-9010
▁irrég	-9011
▁venger	-9012
▁occident	-9013
▁fréquence	-9014
▁Poit	-9015
^-	-9016
▁We	-9017
▁dieu	-9018
▁incom	-9019
▁sauve	-9020
endront	-9021
▁mécont	-9022
▁rapides	-9023
élégramme	-9024
▁PO	-9025
ugène	-9026
▁méch	-9027
▁coûte	-9028
▁débou	-9029
▁traités	-9030
Sa	-9031
Arch	-9032
▁régler	-9033
▁Château	-9034
▁diminution	-9035
URES	-9036
▁Dam	-9037
▁trip	-9038
▁........	-9039
▁pareilles	-9040
▁affectu	-9041
▁rémun	-9042
▁taire	-9043
▁tempête	-9044
RET	-9045
▁ast	-9046
itres	-9047
istère	-9048
▁vôtre	-9049
▁guéris	-9050
▁incert	-9051
▁serpent	-9052
▁manifeste	-9053
▁constituer	-9054
yc	-9055
lat	-9056
limin	-9057
ajouter	-9058
▁exacte	-9059
▁raisonnable	-9060
▁dériv	-9061
▁panne	-9062
urgie	-9063
vingt	-9064
isseurs	-9065
▁description	-9066
▁sén	-9067
▁rich	-9068
▁buste	-9069
▁ruisseau	-9070
▁permettant	-9071
améli	-9072
▁bref	-9073
anches	-9074
▁refusé	-9075
▁légitime	-9076
▁résoudre	-9077
froid	-9078
▁solde	-9079
▁varie	-9080
▁jouait	-9081
▁aveugle	-9082
loi	-9083
oissement	-9084
▁indisc	-9085
▁muraille	-9086
▁fantaisie	-9087
▁CONS	-9088
laient	-9089
▁local	-9090
laud	-9091
▁Oli	-9092
inage	-9093
▁capacité	-9094
▁dira	-9095
▁diplom	-9096
▁vivants	-9097
élever	-9098
▁famil	-9099
osition	-9100
▁constate	-9101
▁souviens	-9102
▁
[	-9103
▁Lar	-9104
▁PREMIER	-9105
officiers	-9106
aliste	-9107
itecture	-9108
▁habitude	-9109
▁tol	-9110
èvres	-9111
illiam	-9112
▁colline	-9113
▁églises	-9114
▁demandant	-9115
ouf	-9116
▁Sam	-9117
▁tuy	-9118
▁chan	-9119
▁tumul	-9120
acements	-9121
ouvrier	-9122
▁graines	-9123
▁prévues	-9124
ISS	-9125
▁cloche	-9126
▁donnera	-9127
▁annuelle	-9128
▁concurrence	-9129
▁rus	-9130
▁raff	-9131
▁it	-9132
▁monté	-9133
éloigner	-9134
▁certific	-9135
▁conserve	-9136
▁montrent	-9137
ford	-9138
▁mang	-9139
▁district	-9140
▁boulevers	-9141
Paul	-9142
▁verra	-9143
▁tourné	-9144
▁contenir	-9145
VIII	-9146
▁chôm	-9147
▁poup	-9148
▁dommage	-9149
▁odeur	-9150
▁distingue	-9151
▁deviennent	-9152
Mon	-9153
enfer	-9154
ricité	-9155
▁cordi	-9156
▁passés	-9157
▁obtient	-9158
▁danse	-9159
▁fléch	-9160
▁essayé	-9161
▁Nouvelle	-9162
▁diminuer	-9163
▁uniforme	-9164
sept	-9165
▁abus	-9166
arrive	-9167
ernité	-9168
▁about	-9169
▁chevel	-9170
▁désirer	-9171
▁couverts	-9172
▁
/	-9173
▁balb	-9174
arbres	-9175
▁aimée	-9176
appréci	-9177
▁Europe	-9178
▁relevé	-9179
ju	-9180
▁dioc	-9181
▁Convention	-9182
▁Bo	-9183
▁poussée	-9184
adressant	-9185
▁rapproche	-9186
▁meilleures	-9187
▁dangers	-9188
avoue	-9189
▁Terre	-9190
ENTA	-9191
Ainsi	-9192
▁coupé	-9193
▁douloureux	-9194
▁Bibliothèque	-9195
▁Nul	-9196
▁amener	-9197
▁réunir	-9198
▁librement	-9199
▁transformation	-9200
St	-9201
ctures	-9202
▁pressent	-9203
▁Moul	-9204
▁tord	-9205
▁enlevé	-9206
▁banque	-9207
TRA	-9208
ceaux	-9209
ingén	-9210
ommod	-9211
▁export	-9212
▁marins	-9213
attitude	-9214
▁berce	-9215
▁formée	-9216
▁bouquet	-9217
▁progression	-9218
sa	-9219
ork	-9220
éles	-9221
▁disposer	-9222
▁fray	-9223
▁oreille	-9224
estations	-9225
▁lointain	-9226
▁ministres	-9227
▁appartement	-9228
zz	-9229
kin	-9230
▁Leu	-9231
▁jui	-9232
▁porta	-9233
étit	-9234
▁uno	-9235
▁Baud	-9236
TABLEAU	-9237
▁systèmes	-9238
▁TE	-9239
▁Ell	-9240
▁Mir	-9241
▁Mort	-9242
abriel	-9243
uxelles	-9244
▁Congrès	-9245
▁ménages	-9246
▁excellente	-9247
omètre	-9248
▁repent	-9249
▁orgueil	-9250
ANCE	-9251
Charles	-9252
▁tombée	-9253
')	-9254
ÉD	-9255
▁rivage	-9256
▁faisais	-9257
▁suivent	-9258
▁poussant	-9259
▁kilogrammes	-9260
At	-9261
▁confier	-9262
▁Bretagne	-9263
▁boutique	-9264
▁Tar	-9265
rate	-9266
▁Vos	-9267
▁crép	-9268
▁lien	-9269
aillon	-9270
▁Porte	-9271
extérieur	-9272
LU	-9273
▁siens	-9274
aillard	-9275
ralement	-9276
▁Hu	-9277
▁Exp	-9278
▁Jane	-9279
▁Metz	-9280
▁régiments	-9281
▁Bab	-9282
eubles	-9283
▁convenu	-9284
▁cruelle	-9285
▁surmont	-9286
ama	-9287
▁lot	-9288
anisme	-9289
▁vivante	-9290
▁Gl	-9291
▁chers	-9292
▁rompre	-9293
▁histoires	-9294
br	-9295
▁mys	-9296
▁abst	-9297
▁jalousie	-9298
▁parlement	-9299
▁permettait	-9300
▁Vinc	-9301
Alsace	-9302
▁vinrent	-9303
jean	-9304
▁Bah	-9305
onyme	-9306
▁repli	-9307
▁apprit	-9308
▁explication	-9309
▁Cés	-9310
ecte	-9311
▁bruits	-9312
▁obscur	-9313
▁transpar	-9314
Ecole	-9315
▁représenter	-9316
▁marm	-9317
otions	-9318
▁assimil	-9319
▁Tri	-9320
icale	-9321
▁Rouen	-9322
▁réparer	-9323
table	-9324
nelles	-9325
ko	-9326
ulte	-9327
▁châti	-9328
▁croch	-9329
▁hiver	-9330
outh	-9331
uette	-9332
LET	-9333
▁espérances	-9334
▁tente	-9335
▁oscill	-9336
utilité	-9337
▁
+	-9338
enci	-9339
▁fourni	-9340
▁explique	-9341
▁possibles	-9342
▁commissaires	-9343
▁Mai	-9344
assins	-9345
▁flatt	-9346
▁pareils	-9347
▁trouvée	-9348
hib	-9349
▁vant	-9350
▁honor	-9351
pecteur	-9352
▁auxili	-9353
▁notion	-9354
▁procédure	-9355
cht	-9356
itz	-9357
AIRES	-9358
▁coins	-9359
▁reprend	-9360
▁donnaient	-9361
▁école	-9362
▁baronne	-9363
▁puits	-9364
▁criant	-9365
▁grâces	-9366
▁galerie	-9367
▁conclusion	-9368
effici	-9369
▁demeurait	-9370
▁âgé	-9371
agère	-9372
intég	-9373
olphe	-9374
itimes	-9375
oiseau	-9376
▁PARIS	-9377
▁établis	-9378
▁remonter	-9379
▁sinistre	-9380
▁expériment	-9381
▁destination	-9382
opri	-9383
▁résidence	-9384
▁garantie	-9385
jus	-9386
anth	-9387
▁verres	-9388
▁formidable	-9389
▁TRA	-9390
crire	-9391
itoy	-9392
▁hém	-9393
▁jugé	-9394
uscule	-9395
▁humaines	-9396
go	-9397
han	-9398
▁cf	-9399
semble	-9400
▁incont	-9401
▁communauté	-9402
Sans	-9403
▁récipr	-9404
▁compose	-9405
sionnaire	-9406
▁mouchoir	-9407
▁griff	-9408
acées	-9409
▁précé	-9410
Jacques	-9411
▁hôte	-9412
▁cellule	-9413
▁confusion	-9414
Hôtel	-9415
▁solid	-9416
▁touff	-9417
▁entreten	-9418
▁nécessairement	-9419
▁mam	-9420
▁osé	-9421
▁boue	-9422
ériques	-9423
▁impôts	-9424
OD	-9425
▁Viv	-9426
▁rappelait	-9427
▁Four	-9428
▁néglige	-9429
asi	-9430
▁tue	-9431
▁Conc	-9432
▁grain	-9433
▁légende	-9434
▁bate	-9435
emport	-9436
▁Indes	-9437
▁senti	-9438
▁provoqu	-9439
▁mariée	-9440
occupation	-9441
anie	-9442
▁difficiles	-9443
ba	-9444
▁Ra	-9445
▁SOCI	-9446
▁modèles	-9447
▁rupture	-9448
▁éloigné	-9449
▁capables	-9450
▁récompense	-9451
gés	-9452
▁vives	-9453
Vi	-9454
hist	-9455
▁députés	-9456
▁prirent	-9457
▁cathédrale	-9458
▁Ir	-9459
▁Civ	-9460
Rouge	-9461
▁marqué	-9462
▁Ensuite	-9463
▁prescrit	-9464
bule	-9465
▁lady	-9466
▁garnison	-9467
Ne	-9468
▁COR	-9469
▁Gau	-9470
▁arrivèrent	-9471
EST	-9472
IQUES	-9473
ureau	-9474
ousses	-9475
auph	-9476
arras	-9477
autel	-9478
▁compens	-9479
▁Ép	-9480
bserv	-9481
▁bancs	-9482
▁littéraire	-9483
ignait	-9484
▁blessures	-9485
▁problèmes	-9486
▁Tch	-9487
atine	-9488
▁tourb	-9489
▁façons	-9490
▁instinct	-9491
▁Plusieurs	-9492
èses	-9493
▁Ret	-9494
zanne	-9495
▁doré	-9496
▁lamp	-9497
uisent	-9498
idation	-9499
▁purement	-9500
aillit	-9501
▁véhic	-9502
quisition	-9503
''	-9504
■■	-9505
sive	-9506
issez	-9507
pa	-9508
Car	-9509
▁Vrai	-9510
▁ryth	-9511
▁gross	-9512
▁véritables	-9513
▁Pres	-9514
▁William	-9515
▁pleines	-9516
▁bombarde	-9517
▁télégraph	-9518
▁millimètres	-9519
▁ts	-9520
▁Hugo	-9521
▁cruel	-9522
▁éclaire	-9523
▁facilité	-9524
▁remplacé	-9525
▁AV	-9526
énie	-9527
▁Har	-9528
▁Jav	-9529
aillir	-9530
▁sabre	-9531
▁dommages	-9532
▁décisions	-9533
osa	-9534
▁Ath	-9535
inions	-9536
▁piste	-9537
Histoire	-9538
▁langues	-9539
▁prépare	-9540
▁justifier	-9541
▁bouge	-9542
sibilité	-9543
▁Bruxelles	-9544
^^	-9545
▁stupé	-9546
▁Pascal	-9547
▁essais	-9548
ium	-9549
▁voyages	-9550
va	-9551
▁Ri	-9552
ssis	-9553
▁décès	-9554
▁délais	-9555
MIN	-9556
ameau	-9557
ermain	-9558
▁rendent	-9559
▁veiller	-9560
▁laissent	-9561
encl	-9562
liques	-9563
▁musul	-9564
▁député	-9565
▁vêtu	-9566
ortable	-9567
clame	-9568
▁Hélène	-9569
▁découp	-9570
▁magasins	-9571
▁rapporte	-9572
ANNE	-9573
▁Japon	-9574
▁courait	-9575
▁précédemment	-9576
▁engagé	-9577
▁restant	-9578
▁peutêtre	-9579
urés	-9580
▁encad	-9581
▁indire	-9582
*,	-9583
▁Maroc	-9584
▁éblou	-9585
▁assurément	-9586
mo	-9587
▁ens	-9588
omes	-9589
▁atr	-9590
oises	-9591
office	-9592
▁pères	-9593
▁méchant	-9594
▁tristement	-9595
▁parts	-9596
▁trône	-9597
Université	-9598
▁Sac	-9599
▁Stat	-9600
appeler	-9601
▁tentative	-9602
orel	-9603
▁COMP	-9604
▁cdt	-9605
▁péril	-9606
▁Armand	-9607
▁intense	-9608
▁malheurs	-9609
ouï	-9610
rut	-9611
vin	-9612
▁TOTAL	-9613
▁nommer	-9614
▁poursuite	-9615
Deux	-9616
idées	-9617
▁plaire	-9618
habit	-9619
▁amies	-9620
▁impati	-9621
▁ravitaillement	-9622
utions	-9623
▁caill	-9624
▁simult	-9625
▁dirigea	-9626
▁drapeau	-9627
▁audit	-9628
▁Suisse	-9629
▁accout	-9630
▁emploie	-9631
iène	-9632
▁Fort	-9633
Joseph	-9634
▁dégage	-9635
▁moulin	-9636
▁Opérations	-9637
joux	-9638
oyers	-9639
▁drag	-9640
▁pince	-9641
▁scènes	-9642
chevêque	-9643
▁persist	-9644
▁restera	-9645
IRES	-9646
blie	-9647
umine	-9648
▁barre	-9649
▁Voulez	-9650
▁cartouches	-9651
▁instrument	-9652
,...	-9653
▁lamb	-9654
▁augmente	-9655
▁modifier	-9656
▁franchement	-9657
▁erre	-9658
▁grise	-9659
▁retrouvé	-9660
▁gour	-9661
▁sons	-9662
▁frappe	-9663
▁commode	-9664
LÉ	-9665
etzsche	-9666
▁lisait	-9667
▁exécuté	-9668
pas	-9669
▁Hans	-9670
▁énerg	-9671
▁bourse	-9672
▁antérieure	-9673
▁provisions	-9674
BE	-9675
▁aid	-9676
invent	-9677
▁rapprocher	-9678
▁refer	-9679
▁baisse	-9680
▁tombeau	-9681
▁jurisprudence	-9682
zy	-9683
eriez	-9684
▁Caisse	-9685
▁valait	-9686
▁inconnue	-9687
▁fée	-9688
agées	-9689
▁masses	-9690
▁évolution	-9691
onnu	-9692
▁Rue	-9693
▁boud	-9694
▁color	-9695
▁dette	-9696
▁proph	-9697
▁solides	-9698
▁apercevoir	-9699
fc	-9700
roul	-9701
▁née	-9702
▁pèler	-9703
▁incess	-9704
▁signalé	-9705
hl	-9706
▁GÉNÉR	-9707
auraient	-9708
▁épreuve	-9709
▁abandonner	-9710
Ge	-9711
ONN	-9712
▁Wal	-9713
▁pétr	-9714
▁voûte	-9715
▁sépare	-9716
▁da	-9717
▁ange	-9718
étation	-9719
▁Eff	-9720
▁fal	-9721
▁CHAPITRE	-9722
▁faciliter	-9723
▁Cad	-9724
miques	-9725
▁avert	-9726
▁privilège	-9727
Déc	-9728
uri	-9729
▁Id	-9730
▁Venez	-9731
▁craint	-9732
▁lutter	-9733
▁attaquer	-9734
▁na	-9735
▁chanson	-9736
▁Commandant	-9737
▁CAR	-9738
Christ	-9739
empress	-9740
▁assurée	-9741
▁circons	-9742
▁déclarer	-9743
▁violemment	-9744
aval	-9745
èves	-9746
▁gras	-9747
▁plumes	-9748
▁glisser	-9749
ench	-9750
▁bâ	-9751
icier	-9752
▁lente	-9753
▁aurais	-9754
▁enseigne	-9755
Quel	-9756
inent	-9757
ustin	-9758
▁retran	-9759
▁locales	-9760
▁préjudi	-9761
GNE	-9762
▁ig	-9763
▁XXX	-9764
aissant	-9765
▁plafond	-9766
card	-9767
oges	-9768
ercer	-9769
lésias	-9770
▁dormait	-9771
▁proposé	-9772
▁tension	-9773
▁parallèles	-9774
AGE	-9775
▁by	-9776
ortions	-9777
▁refuse	-9778
▁cardinal	-9779
lies	-9780
reint	-9781
élité	-9782
▁excès	-9783
▁paras	-9784
abandonner	-9785
uls	-9786
▁Chois	-9787
▁moine	-9788
▁alliés	-9789
▁renfer	-9790
▁résult	-9791
▁troublé	-9792
▁composée	-9793
▁richesses	-9794
ographiques	-9795
▁ennuy	-9796
onnière	-9797
▁reconst	-9798
▁scandale	-9799
▁touchant	-9800
▁observation	-9801
éti	-9802
▁Hé	-9803
▁Boul	-9804
▁herbes	-9805
▁racine	-9806
▁monuments	-9807
▁IND	-9808
▁gig	-9809
▁Tenez	-9810
ceptions	-9811
▁Gi	-9812
▁Venise	-9813
▁miracle	-9814
▁candidats	-9815
erst	-9816
▁access	-9817
▁enquête	-9818
▁faisons	-9819
▁visages	-9820
▁officiel	-9821
▁effectifs	-9822
▁paupières	-9823
ointe	-9824
▁céré	-9825
▁savants	-9826
▁alimentaire	-9827
MI	-9828
oble	-9829
▁refr	-9830
▁jolies	-9831
▁multiples	-9832
▁Sm	-9833
fran	-9834
ameaux	-9835
▁décis	-9836
▁demeurer	-9837
çu	-9838
inté	-9839
▁Fou	-9840
▁success	-9841
▁surplus	-9842
char	-9843
envie	-9844
▁résumé	-9845
intervention	-9846
▁boy	-9847
▁irrit	-9848
▁conclure	-9849
uile	-9850
▁Exc	-9851
▁éval	-9852
▁riait	-9853
▁beurre	-9854
▁Blanche	-9855
TIS	-9856
nie	-9857
▁hausse	-9858
▁Juliette	-9859
▁inutiles	-9860
▁obstacle	-9861
▁solitaire	-9862
▁émer	-9863
▁sympt	-9864
▁réussir	-9865
▁naturelles	-9866
▁fic	-9867
▁PARTIE	-9868
▁extrémité	-9869
▁douloureuse	-9870
vang	-9871
▁chérie	-9872
▁inquiet	-9873
▁périodes	-9874
▁AB	-9875
▁Avez	-9876
▁corrid	-9877
▁desquels	-9878
Administration	-9879
▁BE	-9880
▁engr	-9881
▁ralent	-9882
▁réduite	-9883
▁territori	-9884
ater	-9885
▁Lev	-9886
▁briser	-9887
▁torrent	-9888
▁signaler	-9889
▁explications	-9890
.....	-9891
eusse	-9892
▁absur	-9893
enouill	-9894
onneurs	-9895
▁couvrir	-9896
▁Vir	-9897
▁XIX	-9898
▁Arriv	-9899
▁sacré	-9900
▁susceptible	-9901
▁ric	-9902
▁tric	-9903
otisme	-9904
alimentation	-9905
▁chante	-9906
▁Laissez	-9907
▁Canada	-9908
▁ardeur	-9909
▁poissons	-9910
▁UN	-9911
▁dig	-9912
▁pitt	-9913
▁détruit	-9914
▁tendant	-9915
▁traversé	-9916
▁suffisant	-9917
▁trouvèrent	-9918
▁obligatoire	-9919
▁crayon	-9920
▁feront	-9921
▁repart	-9922
▁gaiement	-9923
▁catholiques	-9924
oq	-9925
ene	-9926
▁bain	-9927
timité	-9928
▁insol	-9929
colonel	-9930
▁rideaux	-9931
TIER	-9932
André	-9933
ustave	-9934
▁Colomb	-9935
▁adroit	-9936
▁miroir	-9937
▁revers	-9938
▁tables	-9939
tendez	-9940
▁quantités	-9941
▁surveiller	-9942
▁tâ	-9943
cons	-9944
ousseau	-9945
▁susceptibles	-9946
gny	-9947
nis	-9948
▁nèg	-9949
▁désigné	-9950
▁désirait	-9951
▁faillite	-9952
acés	-9953
wen	-9954
▁Roch	-9955
▁clergé	-9956
▁déta	-9957
▁interroge	-9958
OO	-9959
èlement	-9960
dom	-9961
▁exter	-9962
▁jaunes	-9963
▁embarras	-9964
loc	-9965
▁embar	-9966
▁emmen	-9967
▁Verdun	-9968
▁confus	-9969
Arc	-9970
▁vus	-9971
ulant	-9972
▁agit	-9973
▁liens	-9974
▁couver	-9975
▁Henriette	-9976
▁vieillesse	-9977
ELLE	-9978
▁Ray	-9979
▁Inter	-9980
▁tiges	-9981
▁gardait	-9982
▁ouverts	-9983
▁compagne	-9984
▁répétait	-9985
▁Nietzsche	-9986
sif	-9987
▁Xe	-9988
AISE	-9989
bleu	-9990
▁posséder	-9991
▁qualifiés	-9992
pel	-9993
amie	-9994
▁ond	-9995
▁sécher	-9996
▁gouttes	-9997
ms	-9998
▁tracé	-9999
▁croyant	-10000
▁Dum	-10001
▁réalisation	-10002
▁conservation	-10003
▁statistiques	-10004
▁Coll	-10005
▁poches	-10006
▁remède	-10007
▁éprouvait	-10008
allait	-10009
▁hauteurs	-10010
▁substance	-10011
▁manche	-10012
▁légumes	-10013
▁relatif	-10014
▁mensonge	-10015
Note	-10016
nées	-10017
uropé	-10018
éraux	-10019
▁céder	-10020
▁voiles	-10021
▁monstre	-10022
▁promptement	-10023
▁Dan	-10024
▁blonde	-10025
▁plancher	-10026
▁communications	-10027
▁pic	-10028
▁brisé	-10029
▁gagne	-10030
▁serra	-10031
rection	-10032
▁opposé	-10033
▁rigueur	-10034
oter	-10035
▁trag	-10036
▁raconta	-10037
▁bouff	-10038
▁immédiate	-10039
▁ie	-10040
ibus	-10041
olles	-10042
accepter	-10043
▁Puisque	-10044
▁foul	-10045
▁joies	-10046
▁nôtre	-10047
oinette	-10048
▁soumettre	-10049
▁changements	-10050
Oise	-10051
▁Lim	-10052
Toute	-10053
excell	-10054
▁introduit	-10055
▁reproches	-10056
▁prescriptions	-10057
dits	-10058
jections	-10059
▁écrivit	-10060
▁accueill	-10061
▁présentant	-10062
escl	-10063
ports	-10064
▁chaux	-10065
▁levée	-10066
▁vides	-10067
▁courses	-10068
▁pourrai	-10069
▁ennemies	-10070
Tous	-10071
▁tailles	-10072
Aig	-10073
▁péd	-10074
▁ouvre	-10075
▁plaie	-10076
▁fierté	-10077
▁répugn	-10078
▁voulons	-10079
▁politesse	-10080
▁solidement	-10081
Union	-10082
résis	-10083
▁Etat	-10084
▁dispers	-10085
▁moindres	-10086
▁brouillard	-10087
Dieu	-10088
▁Fac	-10089
▁Nor	-10090
▁Rav	-10091
▁agent	-10092
▁arrêtés	-10093
▁châssis	-10094
▁franchise	-10095
LL	-10096
▁Aucun	-10097
▁vivent	-10098
▁rapporter	-10099
▁descendant	-10100
▁débarrasser	-10101
Off	-10102
arter	-10103
▁élan	-10104
▁oeuvre	-10105
▁placées	-10106
▁serviteur	-10107
▁tranquillité	-10108
ymn	-10109
▁nus	-10110
ostic	-10111
▁subord	-10112
anv	-10113
Orléans	-10114
▁poètes	-10115
▁manufact	-10116
GN	-10117
~~	-10118
▁exprimer	-10119
▁registre	-10120
▁Tel	-10121
fique	-10122
rudence	-10123
▁humble	-10124
adresser	-10125
▁poignée	-10126
▁soupe	-10127
▁observé	-10128
▁fabrique	-10129
gles	-10130
oline	-10131
▁Toujours	-10132
▁adresser	-10133
▁Heureusement	-10134
▁Dém	-10135
ourdi	-10136
▁Signé	-10137
▁fermier	-10138
▁portion	-10139
▁reconnaissant	-10140
▁rur	-10141
▁secrète	-10142
▁paci	-10143
assaut	-10144
▁vents	-10145
▁balbuti	-10146
▁retourne	-10147
▁déterminée	-10148
▁industriels	-10149
rines	-10150
▁civilis	-10151
▁extrait	-10152
▁pensant	-10153
neuf	-10154
▁mérid	-10155
▁exercer	-10156
▁indéfin	-10157
▁brillante	-10158
▁fondament	-10159
▁PE	-10160
ancés	-10161
isson	-10162
olont	-10163
▁défens	-10164
▁sourcils	-10165
."	-10166
▁io	-10167
▁py	-10168
▁obtenus	-10169
▁constaté	-10170
▁résid	-10171
▁massac	-10172
▁frappant	-10173
▁ing	-10174
▁perc	-10175
quêtes	-10176
▁masque	-10177
dictions	-10178
entendis	-10179
▁expliqu	-10180
▁signature	-10181
registrement	-10182
▁Maria	-10183
▁pleurait	-10184
▁représentent	-10185
ranch	-10186
istocra	-10187
appartement	-10188
▁exclam	-10189
▁comédie	-10190
▁joyeuse	-10191
pirer	-10192
mation	-10193
ulture	-10194
▁absor	-10195
▁danser	-10196
▁mandat	-10197
▁offert	-10198
▁rentre	-10199
▁réservé	-10200
▁remarqua	-10201
▁regardaient	-10202
ANG	-10203
arts	-10204
▁baign	-10205
uyait	-10206
▁recevait	-10207
gin	-10208
ovision	-10209
▁jetait	-10210
▁ouvrière	-10211
▁provoquer	-10212

(	-10213
▁è	-10214
▁Mul	-10215
elins	-10216
▁Anna	-10217
▁tirant	-10218
▁Richard	-10219
▁portaient	-10220
.:	-10221
inthe	-10222
▁monot	-10223
interrog	-10224
▁dégager	-10225
inquiétude	-10226
cri	-10227
cible	-10228
étail	-10229
▁trouvais	-10230
▁Directeur	-10231
▁perspective	-10232
apes	-10233
▁Laurent	-10234
▁catastr	-10235
▁appartenait	-10236
▁fatigué	-10237
COL	-10238
▁Haute	-10239
▁chercha	-10240
ordonnance	-10241
;,	-10242
▁silh	-10243
▁ferez	-10244
▁brûler	-10245
▁carrés	-10246
▁portef	-10247
▁romaine	-10248
▁ouvertes	-10249
▁institutions	-10250
iés	-10251
emme	-10252
▁Dev	-10253
interpr	-10254
▁passées	-10255
▁lumières	-10256
▁Française	-10257
oser	-10258
▁Cro	-10259
estomac	-10260
équipage	-10261
▁finances	-10262
▁code	-10263
▁dura	-10264
▁trép	-10265
▁saints	-10266
▁arrange	-10267
▁chinois	-10268
▁flammes	-10269
▁allusion	-10270
▁arrivent	-10271
▁seize	-10272
onnante	-10273
▁évêque	-10274
▁fraîcheur	-10275
▁navigation	-10276
CL	-10277
▁bû	-10278
aques	-10279
issons	-10280
▁actif	-10281
▁Daniel	-10282
apercevoir	-10283
▁vigoureux	-10284
enthousiasme	-10285
agas	-10286
▁mène	-10287
▁pire	-10288
▁pressé	-10289
▁renferm	-10290
▁téléphoné	-10291
▁intéressés	-10292
non	-10293
opéra	-10294
oblige	-10295
▁sonner	-10296
ik	-10297
prés	-10298
sine	-10299
▁rendue	-10300
individu	-10301
▁terminer	-10302
éclai	-10303
▁George	-10304
▁envoie	-10305
▁démonst	-10306
SP	-10307
▁COL	-10308
▁éclats	-10309
▁analogues	-10310
▁ecclésias	-10311
▁proportions	-10312
-&	-10313
ILI	-10314
▁LU	-10315
▁sulf	-10316
▁paire	-10317
▁baisers	-10318
▁défauts	-10319
▁pittores	-10320
▁tirailleurs	-10321
▁caractéristique	-10322
▁Guy	-10323
uriers	-10324
▁chancel	-10325
▁campagnes	-10326
Me	-10327
▁corbe	-10328
▁tyran	-10329
▁montée	-10330
▁totalité	-10331
▁transporter	-10332
▁Malheureusement	-10333
ga	-10334
▁voc	-10335
▁œufs	-10336
▁faubourg	-10337
endes	-10338
▁dépôts	-10339
▁souter	-10340
▁énormes	-10341
▁supplice	-10342
èdre	-10343
▁plis	-10344
▁subit	-10345
oiselles	-10346
▁impatience	-10347
bie	-10348
cor	-10349
çais	-10350
lesse	-10351
Lorsque	-10352
▁cesser	-10353
entendait	-10354
▁murailles	-10355
ings	-10356
illages	-10357
▁illust	-10358
appliquer	-10359
▁conforme	-10360
ven	-10361
résil	-10362
▁Lieu	-10363
▁fouet	-10364
▁serré	-10365
▁comité	-10366
▁communiquer	-10367
▁OB	-10368
▁flan	-10369
▁tapiss	-10370
▁bienfais	-10371
tera	-10372
▁Supp	-10373
enfance	-10374
▁soupçons	-10375
rt	-10376
euve	-10377
▁?...	-10378
▁apprend	-10379
▁féd	-10380
assassin	-10381
▁monnaies	-10382
▁délicieux	-10383
▁considérée	-10384
uck	-10385
drez	-10386
▁héréd	-10387
▁jaloux	-10388
▁marquée	-10389
▁irréguli	-10390
uisit	-10391
▁Camp	-10392
▁nerfs	-10393
urb	-10394
▁emm	-10395
raine	-10396
sectes	-10397
▁roule	-10398
▁pape	-10399
isseur	-10400
▁serre	-10401
▁plantations	-10402
înt	-10403
▁Vit	-10404
▁accepté	-10405
intensité	-10406
▁consoler	-10407
▁redoutable	-10408
▁intervalles	-10409
▁réch	-10410
▁races	-10411
▁wagon	-10412
explique	-10413
▁précipit	-10414
▁disparition	-10415
▁statistique	-10416
Ah	-10417
ocy	-10418
ujet	-10419
▁tais	-10420
▁façade	-10421
▁Hollande	-10422
apparition	-10423
▁quarts	-10424
attacher	-10425
▁arts	-10426
▁absorb	-10427
▁marques	-10428
▁échappé	-10429
êques	-10430
engager	-10431
▁bureaux	-10432
▁impuiss	-10433
▁mac	-10434
cienne	-10435
▁Gérard	-10436
▁proxim	-10437
▁Regarde	-10438
ombrables	-10439
▁précédentes	-10440
▁avan	-10441
▁sueur	-10442
▁quator	-10443
▁sentine	-10444
▁dispositif	-10445
▁paie	-10446
▁plai	-10447
▁poil	-10448
▁appui	-10449
▁idéal	-10450
▁augmenter	-10451
▁déplacement	-10452
▁apparut	-10453
▁compatri	-10454
avi	-10455
umeur	-10456
▁exprim	-10457
▁antique	-10458
▁arrêtée	-10459
▁causait	-10460
▁constant	-10461
▁recueillir	-10462
▁PH	-10463
▁lésions	-10464
▁procureur	-10465
▁confection	-10466
▁consentement	-10467
▁Préf	-10468
▁enter	-10469
▁barque	-10470
▁rideau	-10471
▁voudrez	-10472
▁étincel	-10473
▁poursuivi	-10474
▁consolation	-10475
▁populations	-10476
▁Bur	-10477
▁donnez	-10478
▁remplit	-10479
▁dépouill	-10480
App	-10481
▁AG	-10482
▁Dame	-10483
▁faces	-10484
▁trott	-10485
▁articul	-10486
▁combats	-10487
▁voient	-10488
▁Lux	-10489
▁saurais	-10490
ho	-10491
ribue	-10492
▁Mass	-10493
▁Phil	-10494
▁Vend	-10495
▁Marcel	-10496
▁relief	-10497
▁juridique	-10498
ÉRA	-10499
honn	-10500
▁cic	-10501
▁Dick	-10502
▁crête	-10503
▁tenus	-10504
▁froidement	-10505
▁impressions	-10506
▁perpendiculaire	-10507
▁déter	-10508
▁GUERRE	-10509
▁adopté	-10510
échapper	-10511
▁dépêche	-10512
obe	-10513
aube	-10514
odique	-10515
âteaux	-10516
▁brune	-10517
auberge	-10518
▁légers	-10519
▁renferme	-10520
▁tragique	-10521
AUL	-10522
joint	-10523
▁cubes	-10524
iale	-10525
▁Var	-10526
▁physiques	-10527
▁différences	-10528
▁maîtr	-10529
▁présents	-10530
▁contraint	-10531
?.	-10532
aler	-10533
▁cire	-10534
▁mess	-10535
▁républic	-10536
▁Hall	-10537
▁bottes	-10538
▁départements	-10539
▁ondes	-10540
ématique	-10541
▁Ant	-10542
élevait	-10543
▁deviné	-10544
▁régulière	-10545
▁expédition	-10546
dine	-10547
chons	-10548
inées	-10549
▁muscles	-10550
▁Valentin	-10551
▁trouvons	-10552
▁offensive	-10553
▁dissimuler	-10554
▁végétation	-10555
▁aér	-10556
▁cens	-10557
analyse	-10558
▁lancer	-10559
▁ombres	-10560
▁paralys	-10561
▁exercice	-10562
▁écoutait	-10563
▁omb	-10564
▁posée	-10565
▁achevé	-10566
▁extérieure	-10567
▁adversaires	-10568
▁obt	-10569
▁soy	-10570
fiant	-10571
▁carb	-10572
▁confid	-10573
▁marchés	-10574
▁passèrent	-10575
ouci	-10576
▁discut	-10577
▁franchir	-10578
RAPH	-10579
▁Dub	-10580
▁ébran	-10581
▁lourdes	-10582
▁ger	-10583
▁Past	-10584
▁convi	-10585
▁XVIIIe	-10586
gs	-10587
▁mystérieuse	-10588
cho	-10589
▁Im	-10590
comm	-10591
ompte	-10592
▁coeffici	-10593
▁employée	-10594
▁Pra	-10595
emprun	-10596
▁broch	-10597
▁traite	-10598
▁indigène	-10599
▁ME	-10600
▁Nav	-10601
▁Midi	-10602
ageuse	-10603
effroi	-10604
▁corri	-10605
atmosphère	-10606
▁artillerie	-10607
▁correction	-10608
▁vétér	-10609
hétique	-10610
▁tissus	-10611
▁devenus	-10612
▁préciser	-10613
▁responsable	-10614
▁mangé	-10615
olement	-10616
▁prévue	-10617
▁satisfais	-10618
cule	-10619
ignée	-10620
▁révolte	-10621
Aub	-10622
▁»;	-10623
arcy	-10624
École	-10625
▁vigne	-10626
▁réforme	-10627
sionnaires	-10628
Ap	-10629
▁fonde	-10630
▁dossier	-10631
▁respectu	-10632
Puis	-10633
▁nourrir	-10634
▁obligée	-10635
▁consulter	-10636
▁matériaux	-10637
▁ib	-10638
▁grandi	-10639
▁lisière	-10640
▁curieuse	-10641
MAND	-10642
ennui	-10643
agnols	-10644
▁robes	-10645
▁compas	-10646
▁excepté	-10647
atteindre	-10648
▁régulier	-10649
▁craignait	-10650
▁descendait	-10651
cli	-10652
olit	-10653
Pendant	-10654
▁Gabriel	-10655
▁jo	-10656
▁ruban	-10657
▁tissu	-10658
▁cinquième	-10659
▁classique	-10660
▁spéc	-10661
▁surs	-10662
▁farouche	-10663
arth	-10664
▁SAL	-10665
assure	-10666
iliser	-10667
▁annex	-10668
▁guerriers	-10669
▁Chinois	-10670
▁veuille	-10671
▁Florence	-10672
-^	-10673
don	-10674
▁Merc	-10675
▁lugu	-10676
▁seras	-10677
▁Brésil	-10678
▁signifi	-10679
▁troubler	-10680
▁orph	-10681
▁verts	-10682
▁écrits	-10683
SEE	-10684
▁Nat	-10685
▁éle	-10686
▁roue	-10687
▁dispon	-10688
▁dresser	-10689
▁facteurs	-10690
▁Isabelle	-10691
▁supérieures	-10692
▁Dix	-10693
▁Jér	-10694
▁Pan	-10695
orage	-10696
▁allég	-10697
▁Faites	-10698
▁bavard	-10699
▁prononça	-10700
▁roc	-10701
tiver	-10702
▁Gren	-10703
▁dort	-10704
▁croir	-10705
Antoine	-10706
▁décide	-10707
▁fug	-10708
▁frot	-10709
▁minuti	-10710
▁cylindre	-10711
▁poursuit	-10712
▁
~	-10713
ailler	-10714
heureux	-10715
Bl	-10716
▁Hal	-10717
Loire	-10718
éleste	-10719
aperçus	-10720
icilement	-10721
▁administrative	-10722
ary	-10723
alisé	-10724
ospit	-10725
▁guérison	-10726
▁supériorité	-10727
▁véritablement	-10728
èges	-10729
▁pon	-10730
tière	-10731
▁crav	-10732
Martin	-10733
effect	-10734
onnage	-10735
▁vendu	-10736
ogramme	-10737
▁perles	-10738
▁vastes	-10739
▁Parfois	-10740
▁énergique	-10741
;~	-10742
iot	-10743
illus	-10744
▁répons	-10745
▁observe	-10746
▁atteinte	-10747
▁conduisit	-10748
Quant	-10749
Cependant	-10750
▁maritime	-10751
aa	-10752
omte	-10753
Ordre	-10754
▁Côte	-10755
▁maux	-10756
▁imper	-10757
▁voleur	-10758
applique	-10759
▁facultés	-10760
▁formules	-10761
AUD	-10762
▁affai	-10763
▁obligés	-10764
▁prudent	-10765
▁opinions	-10766
▁feuillage	-10767
▁apparaître	-10768
TIT	-10769
ols	-10770
oître	-10771
▁crus	-10772
tifier	-10773
▁clois	-10774
épreuve	-10775
▁débord	-10776
▁appelés	-10777
▁éprouvé	-10778
▁traduction	-10779
▁respiration	-10780
PES	-10781
▁Ti	-10782
hône	-10783
▁union	-10784
▁bateaux	-10785
UT	-10786
MER	-10787
▁brûl	-10788
▁cade	-10789
▁Charente	-10790
▁rade	-10791
gar	-10792
▁escalier	-10793
ng	-10794
▁ol	-10795
irant	-10796
jebel	-10797
tront	-10798
enseigne	-10799
▁vacances	-10800
▁admiration	-10801
ague	-10802
▁Fav	-10803
▁Chef	-10804
aimais	-10805
▁appela	-10806
▁flotte	-10807
▁passionn	-10808
▁appliquer	-10809
avions	-10810
▁parap	-10811
▁respirer	-10812
▁finalement	-10813
▁Espagne	-10814
habitation	-10815
▁Champagne	-10816
▁structure	-10817
▁produisent	-10818
ritz	-10819
▁brav	-10820
▁balance	-10821
▁cordes	-10822
▁levait	-10823
▁clients	-10824
▁interne	-10825
ignit	-10826
ouiller	-10827
▁acheté	-10828
itives	-10829
▁Liban	-10830
▁marge	-10831
▁reçue	-10832
éloigna	-10833
▁voudra	-10834
▁détache	-10835
▁primaire	-10836
▁abandonnée	-10837
▁compétence	-10838
douard	-10839
▁sanglots	-10840
▁vulgaire	-10841
ULT	-10842
▁dépasser	-10843
▁difficilement	-10844
▁Syn	-10845
▁mix	-10846
▁cerv	-10847
▁évac	-10848
▁détresse	-10849
▁regrette	-10850
▁compléter	-10851
▁TRAN	-10852
▁stric	-10853
échelle	-10854
▁esclaves	-10855
▁remercier	-10856
PP	-10857
LIS	-10858
▁Lois	-10859
▁refroid	-10860
▁Tribun	-10861
▁espace	-10862
▁retiré	-10863
▁courbes	-10864
▁banquier	-10865
autorisation	-10866
▁neu	-10867
▁merc	-10868
▁chand	-10869
▁hôtes	-10870
▁selle	-10871
▁douces	-10872
▁restés	-10873
▁défendu	-10874
▁erreurs	-10875
▁Ins	-10876
▁Gros	-10877
▁revol	-10878
▁pencha	-10879
tième	-10880
▁Garde	-10881
▁Somme	-10882
▁plats	-10883
▁déroul	-10884
▁séparés	-10885
▁international	-10886
raî	-10887
céan	-10888
infin	-10889
▁futur	-10890
cessions	-10891
▁démocra	-10892
▁réunies	-10893
▁incident	-10894
aiser	-10895
▁ench	-10896
▁basses	-10897
-~	-10898
▁mathém	-10899
▁patrou	-10900
▁inscrit	-10901
▁joindre	-10902
▁involont	-10903
▁savaient	-10904
▁pardonner	-10905
▁habituelle	-10906
▁intéressante	-10907
▁bases	-10908
▁budget	-10909
▁berceau	-10910
Instruction	-10911
▁concession	-10912
▁-.	-10913
elée	-10914
teaux	-10915
illard	-10916
▁conclut	-10917
▁prévenu	-10918
▁raconté	-10919
▁entraîner	-10920
▁mélancolie	-10921
▁Trés	-10922
entin	-10923
▁same	-10924
▁pourv	-10925
▁décrire	-10926
▁Archives	-10927
▁Bonne	-10928
▁roche	-10929
▁annoncer	-10930
▁insensible	-10931
▁fu	-10932
▁DOC	-10933
▁baï	-10934
▁canot	-10935
▁vérifier	-10936
mét	-10937
form	-10938
▁Mex	-10939
propre	-10940
émission	-10941
▁croissance	-10942
Gr	-10943
▁escal	-10944
essions	-10945
irée	-10946
▁collines	-10947
oscop	-10948
▁chœur	-10949
▁endorm	-10950
▁Francis	-10951
évanou	-10952
▁inatt	-10953
▁outils	-10954
▁guerres	-10955
▁portraits	-10956
▁travaillé	-10957
▁Providence	-10958
▁Faut	-10959
▁Grèce	-10960
▁glaci	-10961
▁sentis	-10962
▁Fontaine	-10963
▁réclamer	-10964
fie	-10965
Michel	-10966
aignez	-10967
emment	-10968
▁Darcy	-10969
din	-10970
ype	-10971
beau	-10972
pres	-10973
ébre	-10974
▁Cir	-10975
▁bière	-10976
▁confr	-10977
▁fondée	-10978
▁statuts	-10979
épendance	-10980
▁EXP	-10981
ogène	-10982
▁souple	-10983
▁plainte	-10984
▁tournait	-10985
▁instruction	-10986
▁inconvénients	-10987
dia	-10988
▁CHAR	-10989
▁caresses	-10990
▁sincérité	-10991
aun	-10992
accr	-10993
▁baie	-10994
▁sourde	-10995
▁trajet	-10996
▁souriait	-10997
▁restaient	-10998
▁rh	-10999
▁dus	-11000
quise	-11001
▁prime	-11002
▁figurer	-11003
▁efficace	-11004
▁contenait	-11005
▁César	-11006
▁monstru	-11007
▁manuscrit	-11008
▁paraissaient	-11009
osait	-11010
▁noter	-11011
▁vrais	-11012
▁Autres	-11013
▁installé	-11014
ppes	-11015
▁Cab	-11016
ardeur	-11017
▁brute	-11018
▁Portrait	-11019
▁lanterne	-11020
▁Sar	-11021
▁sexe	-11022
▁fermes	-11023
▁retenu	-11024
▁quinzaine	-11025
▁générosité	-11026
▁prospérité	-11027
▁Ara	-11028
▁Vén	-11029
▁mendi	-11030
▁sentant	-11031
▁proximité	-11032
berte	-11033
▁crie	-11034
▁guérir	-11035
▁vaincre	-11036
résistible	-11037
ald	-11038
enter	-11039
▁clos	-11040
▁inév	-11041
▁expéd	-11042
extrême	-11043
assadeur	-11044
▁Afrique	-11045
Dès	-11046
▁amén	-11047
aisser	-11048
antaine	-11049
ètement	-11050
▁secoua	-11051
▁Juillet	-11052
▁constructions	-11053
ére	-11054
épuis	-11055
▁Ordre	-11056
attente	-11057
▁Camille	-11058
▁sublime	-11059
▁connaissent	-11060
▁Ps	-11061
▁Mou	-11062
▁aqu	-11063
▁coude	-11064
▁prenaient	-11065
▁Mel	-11066
▁rédig	-11067
▁locale	-11068
▁laissée	-11069
▁légères	-11070
▁progress	-11071
ical	-11072
oler	-11073
rète	-11074
astres	-11075
▁tâcher	-11076
▁emplois	-11077
▁précédents	-11078
▁Ha	-11079
▁Mun	-11080
▁Pos	-11081
▁cort	-11082
▁cabane	-11083
▁géomét	-11084
▁trouverait	-11085
fa	-11086
▁AD	-11087
▁élu	-11088
▁auriez	-11089
▁perdus	-11090
▁pointes	-11091
▁bombardement	-11092
gi	-11093
uité	-11094
▁Vive	-11095
▁corn	-11096
▁encomb	-11097
▁ferais	-11098
▁barrière	-11099
▁fidélité	-11100
▁Go	-11101
iral	-11102
▁West	-11103
▁songé	-11104
▁perdit	-11105
▁traversa	-11106
▁dangereuse	-11107
▁rembour	-11108
▁émue	-11109
angoisse	-11110
▁philosophe	-11111
▁universelle	-11112
wood	-11113
enais	-11114
▁Europé	-11115
▁prairies	-11116
▁successives	-11117
▁Bre	-11118
taire	-11119
estable	-11120
▁dépour	-11121
▁couvercle	-11122
aliser	-11123
▁justi	-11124
▁......	-11125
▁déguis	-11126
▁emporté	-11127
▁Constitution	-11128
orne	-11129
odore	-11130
appliqu	-11131
▁Amérique	-11132
ouin	-11133
élan	-11134
▁voler	-11135
▁occupés	-11136
▁Simon	-11137
épendant	-11138
▁choisis	-11139
▁adressée	-11140
▁compliqu	-11141
▁aventures	-11142
nest	-11143
▁ané	-11144
regist	-11145
▁péché	-11146
▁toits	-11147
▁Nationale	-11148
▁exemplaire	-11149
gné	-11150
▁Cra	-11151
▁Cinq	-11152
▁éclata	-11153
▁adressé	-11154
▁diocèse	-11155
▁distrait	-11156
▁comprenez	-11157
▁apparition	-11158
▁appartiennent	-11159
ïk	-11160
fric	-11161
▁gam	-11162
▁ayez	-11163
ifiques	-11164
▁métrop	-11165
▁sortis	-11166
▁teinte	-11167
▁matelots	-11168
▁relatifs	-11169
▁surfaces	-11170
▁Maman	-11171
▁Genève	-11172
▁devine	-11173
▁sanctu	-11174
▁misérables	-11175
▁singulièrement	-11176
Ed	-11177
uet	-11178
▁--	-11179
▁genou	-11180
▁décharge	-11181
▁étranges	-11182
long	-11183
isans	-11184
▁host	-11185
avocat	-11186
▁thèse	-11187
▁avouer	-11188
▁Pauline	-11189
▁reconnus	-11190
▁chevelure	-11191
emplacement	-11192
▁délicatesse	-11193
Bas	-11194
Mont	-11195
▁chen	-11196
▁Ayant	-11197
▁Grecs	-11198
▁pharma	-11199
acheter	-11200
gestion	-11201
▁désigne	-11202
▁réponses	-11203
ologue	-11204
▁soirs	-11205
▁tuberc	-11206
▁Bulletin	-11207
▁fib	-11208
▁attén	-11209
▁ponts	-11210
▁couler	-11211
▁marais	-11212
▁fontaine	-11213
▁penchant	-11214
▁industrielle	-11215
abe	-11216
▁racc	-11217
avenue	-11218
ertume	-11219
▁couvre	-11220
▁frisson	-11221
▁maintien	-11222
isan	-11223
Algérie	-11224
▁MAT	-11225
▁fâché	-11226
▁Traité	-11227
▁délivrance	-11228
▁enthousiasme	-11229
hn	-11230
lc	-11231
▁soc	-11232
anique	-11233
▁inond	-11234
chéance	-11235
▁fixées	-11236
ractions	-11237
▁rattach	-11238
▁tremblante	-11239
AME	-11240
uma	-11241
Opéra	-11242
ariat	-11243
écriv	-11244
▁dévor	-11245
▁nourr	-11246
▁gentle	-11247
▁timide	-11248
employer	-11249
▁modifié	-11250
▁favorables	-11251
▁règlements	-11252
▁télégramme	-11253
▁exemplaires	-11254
▁droites	-11255
▁tendres	-11256
▁troupeau	-11257
▁Dun	-11258
▁déci	-11259
▁sauta	-11260
▁Louvre	-11261
▁pesant	-11262
incendie	-11263
▁assassin	-11264
▁familiales	-11265
hr	-11266
olland	-11267
▁paroi	-11268
▁facteur	-11269
▁convaincre	-11270
▁détermination	-11271
eck	-11272
▁pleurs	-11273
▁élevées	-11274
▁nourrice	-11275
▁utiliser	-11276
▁signification	-11277
▁parvint	-11278
itte	-11279
▁ache	-11280
▁Beaucoup	-11281
▁invisible	-11282
▁industries	-11283
ople	-11284
ileté	-11285
ource	-11286
▁sacs	-11287
▁tués	-11288
▁démon	-11289
▁tenez	-11290
▁grossi	-11291
▁humains	-11292
▁poussait	-11293
▁terrestre	-11294
Gén	-11295
▁Ze	-11296
▁lith	-11297
▁courtes	-11298
▁ajoutait	-11299
▁Syl	-11300
▁coïn	-11301
▁timb	-11302
empêche	-11303
▁verdure	-11304
▁délivrer	-11305
▁transmis	-11306
▁AC	-11307
▁gradu	-11308
embourg	-11309
▁suivis	-11310
▁gestion	-11311
▁résolut	-11312
▁augmentation	-11313
ull	-11314
▁câ	-11315
▁Mur	-11316
ensée	-11317
▁Vill	-11318
▁arbit	-11319
▁rever	-11320
▁Julien	-11321
▁amours	-11322
▁produc	-11323
▁épaule	-11324
▁risquer	-11325
OURS	-11326
▁Coch	-11327
▁litres	-11328
▁conclusions	-11329
Mt	-11330
dh	-11331
▁pup	-11332
▁dits	-11333
▁parait	-11334
▁wagons	-11335
ortation	-11336
▁obéir	-11337
▁veines	-11338
▁rentrée	-11339
▁comptant	-11340
▁définition	-11341
▁représenté	-11342
▁maig	-11343
elaine	-11344
▁tempor	-11345
▁nombres	-11346
▁pasteur	-11347
▁ports	-11348
▁reproduction	-11349
écut	-11350
épée	-11351
etter	-11352
▁calcaires	-11353
▁fragments	-11354
xie	-11355
▁séries	-11356
▁préalable	-11357
▁BRU	-11358
▁haï	-11359
osses	-11360
▁battu	-11361
▁mêlée	-11362
▁saign	-11363
▁persév	-11364
▁pureté	-11365
▁égales	-11366
▁croyons	-11367
▁tambour	-11368
▁entourée	-11369
▁formaient	-11370
▁contribution	-11371
▁attentivement	-11372
mans	-11373
ardes	-11374
▁vaud	-11375
▁Groupe	-11376
▁baissa	-11377
Ol	-11378
inde	-11379
▁Tab	-11380
▁lap	-11381
ifier	-11382
▁volé	-11383
▁clause	-11384
ographies	-11385
▁brillants	-11386
▁renseignement	-11387
ènent	-11388
▁Auguste	-11389
▁décrets	-11390
▁remplie	-11391
▁reproch	-11392
▁récente	-11393
▁vestibule	-11394
▁mélancolique	-11395
ibl	-11396
chauss	-11397
▁chaises	-11398
▁Ep	-11399
▁vid	-11400
▁dram	-11401
▁mult	-11402
▁tirs	-11403
▁inverse	-11404
▁Duc	-11405
érons	-11406
▁Sang	-11407
▁fisc	-11408
▁Leuwen	-11409
▁chances	-11410
▁accorder	-11411
▁comprise	-11412
▁indiquée	-11413
Er	-11414
œux	-11415
èvent	-11416
▁orné	-11417
▁pénétré	-11418
▁réalisé	-11419
SC	-11420
IEL	-11421
ack	-11422
agon	-11423
▁Vis	-11424
▁bot	-11425
▁cend	-11426
▁FRANCE	-11427
▁étages	-11428
▁évanou	-11429
▁paradis	-11430
▁enveloppe	-11431
▁sh	-11432
▁pin	-11433
TICLE	-11434
▁Mans	-11435
▁muni	-11436
ington	-11437
issable	-11438
▁métaux	-11439
▁remonte	-11440
▁espérance	-11441
▁historiques	-11442
dier	-11443
▁asi	-11444
▁ira	-11445
aussi	-11446
relles	-11447
▁positif	-11448
clé	-11449
ôles	-11450
hypoth	-11451
▁lampes	-11452
▁retenue	-11453
▁secondaires	-11454
▁cage	-11455
▁rejoign	-11456
▁surprendre	-11457
mal	-11458
▁bornes	-11459
oureuses	-11460
▁GÉNÉRAL	-11461
▁désastre	-11462
▁passages	-11463
▁révolutionnaire	-11464
▁énum	-11465
▁pleur	-11466
▁couple	-11467
▁traduit	-11468
▁reconnais	-11469
▁comprennent	-11470
essay	-11471
chette	-11472
illées	-11473
▁milles	-11474
▁rempla	-11475
▁cercles	-11476
▁pourrez	-11477
▁Pin	-11478
anton	-11479
▁file	-11480
▁allées	-11481
▁massif	-11482
▁Lettres	-11483
▁capitaux	-11484
▁indifférent	-11485
yde	-11486
▁BER	-11487
chine	-11488
▁bœufs	-11489
▁ripos	-11490
▁Compte	-11491
▁ballon	-11492
▁centimes	-11493
▁éprouver	-11494
▁continent	-11495
▁magnifiques	-11496
Non	-11497
til	-11498
Comm	-11499
empê	-11500
onges	-11501
▁céleste	-11502
▁empêche	-11503
▁désagréable	-11504
ormi	-11505
▁VIE	-11506
▁grès	-11507
▁tonnerre	-11508
ico	-11509
tell	-11510
▁Bes	-11511
▁Mis	-11512
▁lie	-11513
▁fous	-11514
▁Trésor	-11515
▁fermés	-11516
▁rotation	-11517
▁suffisait	-11518
▁constituée	-11519
▁métallique	-11520
quie	-11521
▁émig	-11522
épouser	-11523
▁menton	-11524
▁coq	-11525
▁envoya	-11526
▁Souvent	-11527
ARI	-11528
▁arg	-11529
▁Emma	-11530
▁éloqu	-11531
▁vitres	-11532
▁contrée	-11533
▁moutons	-11534
▁assister	-11535
▁résultant	-11536
▁officielle	-11537
▁Ital	-11538
▁Classe	-11539
▁approche	-11540
▁consacré	-11541
IERS	-11542
▁Fleur	-11543
▁mousse	-11544
ersbourg	-11545
▁théories	-11546
▁conférence	-11547
▁Quels	-11548
▁dressé	-11549
▁méridion	-11550
▁possèdent	-11551
elez	-11552
innoc	-11553
▁quatorze	-11554
oton	-11555
▁Dation	-11556
initiative	-11557
▁législateur	-11558
évé	-11559
dont	-11560
▁ranc	-11561
▁Vraiment	-11562
▁semblant	-11563
œud	-11564
▁rit	-11565
▁tendu	-11566
▁tubes	-11567
▁Rhin	-11568
▁armé	-11569
▁tome	-11570
▁marquer	-11571
Tu	-11572
▁MO	-11573
▁fri	-11574
▁fixes	-11575
▁féroce	-11576
▁verser	-11577
▁arracher	-11578
Ma	-11579
nn	-11580
véïk	-11581
▁Leb	-11582
▁cave	-11583
▁Tourn	-11584
▁chlor	-11585
▁préparatifs	-11586
enh	-11587
lip	-11588
▁Chvéïk	-11589
▁cachet	-11590
▁étudié	-11591
uni	-11592
▁scep	-11593
élança	-11594
olutions	-11595
▁communs	-11596
reusement	-11597
▁plaisait	-11598
▁promesses	-11599
▁assisté	-11600
▁rentrant	-11601
""	-11602
lon	-11603
▁BOU	-11604
▁Gob	-11605
matique	-11606
▁Croyez	-11607
▁accordé	-11608
▁concier	-11609
▁fiancée	-11610
▁italien	-11611
▁particul	-11612
intermédiaire	-11613
bri	-11614
▁Us	-11615
▁Féd	-11616
▁bourd	-11617
▁prendra	-11618
ASS	-11619
▁max	-11620
lions	-11621
▁goûter	-11622
▁élever	-11623
▁hommage	-11624
▁hectares	-11625
▁Gustave	-11626
▁prairie	-11627
▁contenter	-11628
▁critiques	-11629
▁fich	-11630
▁débit	-11631
▁flancs	-11632
▁mécontent	-11633
▁rat	-11634
orale	-11635
▁Justice	-11636
▁plaisanterie	-11637
Haut	-11638
inéa	-11639
▁GRA	-11640
établit	-11641
▁primes	-11642
▁supplé	-11643
▁Bourgogne	-11644
▁certificat	-11645
▁directions	-11646
▁Ham	-11647
ections	-11648
écouter	-11649
▁défaite	-11650
▁lecteurs	-11651
▁coloniale	-11652
▁industrie	-11653
oto	-11654
INCI	-11655
▁dise	-11656
▁épée	-11657
▁tache	-11658
▁mobiles	-11659
▁conduisait	-11660
▁plantation	-11661
▁Pav	-11662
Armée	-11663
▁bijoux	-11664
▁déplor	-11665
▁morales	-11666
▁silencieuse	-11667
▁abou	-11668
ctrice	-11669
▁épouser	-11670
▁feuillet	-11671
▁positive	-11672
ithographie	-11673
ula	-11674
harm	-11675
issi	-11676
quité	-11677
▁Ibid	-11678
Esprit	-11679
▁tarda	-11680
▁venais	-11681
onnettes	-11682
▁parquet	-11683
▁réclame	-11684
▁génération	-11685
▁hid	-11686
ingue	-11687
▁décr	-11688
▁pria	-11689
▁stock	-11690
▁trains	-11691
▁chantait	-11692
▁inférieurs	-11693
dam	-11694
▁corne	-11695
▁serrer	-11696
▁vivacité	-11697
▁Capitaine	-11698
▁km	-11699
verb	-11700
ultes	-11701
▁contrari	-11702
▁enregist	-11703
▁Mod	-11704
▁battait	-11705
embarquement	-11706
BRE	-11707
▁POUR	-11708
▁sols	-11709
▁vases	-11710
exprimer	-11711
▁quittant	-11712
▁recourir	-11713
▁indépendant	-11714
▁raisonnement	-11715
ICH	-11716
▁Corps	-11717
vangile	-11718
▁vienne	-11719
▁matelot	-11720
▁meurtre	-11721
▁fillette	-11722
inscription	-11723
▁vieillards	-11724
uin	-11725
estres	-11726
▁flèche	-11727
▁majest	-11728
médiaires	-11729
▁Ministère	-11730
▁concevoir	-11731
▁primitive	-11732
▁recommencer	-11733
ader	-11734
▁nuis	-11735
▁durer	-11736
▁confié	-11737
▁Tunisie	-11738
▁Provence	-11739
▁ù	-11740
▁noct	-11741
▁vœux	-11742
parable	-11743
▁chants	-11744
▁ventes	-11745
▁connues	-11746
▁ancêtres	-11747
▁inquiète	-11748
▁ouverture	-11749
▁Luxembourg	-11750
Alex	-11751
▁chanti	-11752
▁dignes	-11753
▁chômage	-11754
▁parlons	-11755
▁réparation	-11756
▁serviteurs	-11757
NES	-11758
nil	-11759
▁top	-11760
▁Table	-11761
▁écoute	-11762
▁triangle	-11763
▁gendarmes	-11764
▁adversaire	-11765
▁préférable	-11766
AMP	-11767
oge	-11768
▁idé	-11769
Voici	-11770
▁travaillait	-11771
aile	-11772
isait	-11773
▁Bell	-11774
▁forcer	-11775
▁sanglot	-11776
▁Mémoires	-11777
▁lunettes	-11778
▁précieuse	-11779
div	-11780
▁cités	-11781
▁propag	-11782
▁indispensables	-11783
adop	-11784
▁leu	-11785
domin	-11786
▁flac	-11787
▁sain	-11788
ignons	-11789
▁tranche	-11790
lieutenant	-11791
▁sale	-11792
▁salua	-11793
ctoires	-11794
▁cachait	-11795
▁dédaigne	-11796
▁milliards	-11797
▁Fa	-11798
issé	-11799
odeur	-11800
▁clôt	-11801
avouer	-11802
▁fines	-11803
▁civils	-11804
▁forter	-11805
▁couloir	-11806
▁existait	-11807
▁chirurgien	-11808
Ep	-11809
▁sott	-11810
▁dito	-11811
▁piété	-11812
▁avancé	-11813
▁ignore	-11814
▁restes	-11815
▁tournée	-11816
▁dog	-11817
oncier	-11818
▁Comte	-11819
▁globe	-11820
▁lourds	-11821
▁Chapitre	-11822
▁établies	-11823
opérations	-11824
▁vainement	-11825
▁professeurs	-11826
thur	-11827
avril	-11828
Georges	-11829
▁ladite	-11830
opulation	-11831
▁mécanisme	-11832
▁Gœ	-11833
▁ben	-11834
andie	-11835
▁Secr	-11836
▁armés	-11837
▁coule	-11838
▁filets	-11839
▁accomplir	-11840
▁stupéfait	-11841
ÉRI	-11842
ançon	-11843
▁Ciel	-11844
▁Tart	-11845
▁esqu	-11846
▁doubl	-11847
▁ferons	-11848
▁regardé	-11849
▁soigner	-11850
ilise	-11851
▁doll	-11852
▁déform	-11853
▁regrets	-11854
▁commercial	-11855
▁coordonnées	-11856
RON	-11857
anon	-11858
▁Land	-11859
▁mâch	-11860
▁marié	-11861
▁pouce	-11862
▁pentes	-11863
▁Marianne	-11864
▁passants	-11865
▁Néanmoins	-11866
▁entendant	-11867
▁préjudice	-11868
▁supprimer	-11869
hyd	-11870
oeil	-11871
rins	-11872
ygène	-11873
▁syph	-11874
▁essai	-11875
étendre	-11876
▁récits	-11877
▁vertes	-11878
▁considérations	-11879
▁hydr	-11880
▁Cours	-11881
▁cessa	-11882
▁rappela	-11883
▁comparti	-11884
▁revolver	-11885
expédition	-11886
▁Monseigneur	-11887
Anne	-11888
août	-11889
▁ferma	-11890
▁noyau	-11891
▁convul	-11892
▁exprès	-11893
▁méconn	-11894
▁renfor	-11895
▁promenades	-11896
▁ressemblance	-11897
ING	-11898
ortir	-11899
▁Temp	-11900
humeur	-11901
▁Franc	-11902
chaient	-11903
▁victor	-11904
▁ouvrant	-11905
▁pantalon	-11906
▁irrésistible	-11907
inh	-11908
hent	-11909
▁Lag	-11910
▁van	-11911
mbles	-11912
usine	-11913
▁crâne	-11914
instinct	-11915
▁Vincent	-11916
▁médiocre	-11917
êts	-11918
▁Kar	-11919
▁cale	-11920
▁neutr	-11921
urément	-11922
▁appuyé	-11923
▁machin	-11924
▁parlent	-11925
▁contempler	-11926
ash	-11927
▁EFF	-11928
Signé	-11929
▁lança	-11930
▁saisie	-11931
▁tombant	-11932
▁éclairé	-11933
zi	-11934
▁Pâ	-11935
accompl	-11936
▁Quelles	-11937
▁discuter	-11938
▁ministéri	-11939
▁Cie	-11940
▁nœud	-11941
▁Alfred	-11942
▁usages	-11943
▁vaincu	-11944
▁appropri	-11945
▁manquent	-11946
▁permettez	-11947
trée	-11948
▁calmer	-11949
▁applaud	-11950
▁rédaction	-11951
▁combinaison	-11952
ases	-11953
▁Acc	-11954
▁DIV	-11955
point	-11956
uffrages	-11957
▁levures	-11958
▁ateliers	-11959
uvres	-11960
vices	-11961
▁péch	-11962
▁trot	-11963
▁institut	-11964
▁sanction	-11965
▁intelligent	-11966
▁condamnation	-11967
bons	-11968
▁allure	-11969
▁briques	-11970
▁risques	-11971
▁Pier	-11972
occupe	-11973
▁poème	-11974
▁détour	-11975
▁samedi	-11976
▁passagers	-11977
▁éternelle	-11978
explication	-11979
▁opposition	-11980
installation	-11981
▁liquidation	-11982
▁intervention	-11983
FIG	-11984
▁),	-11985
umée	-11986
▁Six	-11987
étéor	-11988
▁grim	-11989
advers	-11990
▁pâles	-11991
▁avocat	-11992
▁sérieuses	-11993
▁accessoires	-11994
Esp	-11995
▁CE	-11996
▁Soyez	-11997
▁litre	-11998
▁mesurer	-11999
▁porteur	-12000
▁lames	-12001
▁Demain	-12002
▁empois	-12003
institut	-12004
▁pardonne	-12005
▁Alexandre	-12006
▁contraste	-12007
sen	-12008
ract	-12009
▁Mas	-12010
▁res	-12011
▁louis	-12012
▁therm	-12013
▁Bureau	-12014
▁domine	-12015
▁boucher	-12016
▁souffrait	-12017
▁Ob	-12018
▁goûts	-12019
▁project	-12020
▁produite	-12021
▁rappelant	-12022
▁JE	-12023
comme	-12024
éveill	-12025
▁escad	-12026
▁loisir	-12027
▁atelier	-12028
▁exécutés	-12029
▁songeant	-12030
▁assureurs	-12031
▁réveiller	-12032
▁bouteilles	-12033
Avec	-12034
aver	-12035
▁Mouv	-12036
▁bann	-12037
▁palp	-12038
▁Aucune	-12039
▁cadavres	-12040
▁obstacles	-12041
lys	-12042
▁Ét	-12043
▁écri	-12044
▁valoir	-12045
▁évidence	-12046
▁Salonique	-12047
▁commerciale	-12048
▁Fe	-12049
▁ii	-12050
xiété	-12051
▁quotid	-12052
▁salles	-12053
▁Travail	-12054
▁soutenu	-12055
▁statues	-12056
▁Écoutez	-12057
ANTS	-12058
giène	-12059
▁nage	-12060
riquet	-12061
▁guéri	-12062
▁morti	-12063
▁taxes	-12064
arrêtait	-12065
▁trouvez	-12066
▁parlaient	-12067
ila	-12068
▁Toi	-12069
▁berg	-12070
▁fondé	-12071
▁tirait	-12072
▁étoile	-12073
▁primitif	-12074
Cons	-12075
▁Bac	-12076
▁tiè	-12077
traire	-12078
écriai	-12079
▁intit	-12080
▁vache	-12081
approcher	-12082
▁plaintes	-12083
▁tremblait	-12084
▁frontières	-12085
▁suppression	-12086
▁flu	-12087
▁préfère	-12088
▁alimentaires	-12089
▁merveilleuse	-12090
▁agi	-12091
isant	-12092
▁hiér	-12093
▁trafic	-12094
▁désespéré	-12095
chard	-12096
▁mêler	-12097
▁Faculté	-12098
▁cortège	-12099
▁cylindres	-12100
impossibilité	-12101
▁préoccupation	-12102
▁permit	-12103
▁songea	-12104
accident	-12105
▁gigantes	-12106
▁trouverez	-12107
Oui	-12108
étal	-12109
lande	-12110
▁Mich	-12111
itique	-12112
▁remet	-12113
▁limitée	-12114
▁traversée	-12115
▁modification	-12116
IERRE	-12117
opold	-12118
▁brûle	-12119
agnostic	-12120
▁envoyés	-12121
▁serrant	-12122
▁stupeur	-12123
▁progressivement	-12124
TAB	-12125
▁occupait	-12126
▁secteurs	-12127
▁publicité	-12128
▁personnalité	-12129
ugal	-12130
▁hache	-12131
▁tasse	-12132
▁retire	-12133
▁gardien	-12134
▁plaques	-12135
enveloppe	-12136
▁aperçoit	-12137
▁honneurs	-12138
TOR	-12139
olf	-12140
èdes	-12141
▁Lem	-12142
▁Sab	-12143
▁lic	-12144
▁mât	-12145
amener	-12146
▁bride	-12147
immense	-12148
▁bouton	-12149
▁tombent	-12150
▁brancard	-12151
▁courrier	-12152
▁puissants	-12153
▁rgt	-12154
▁Vern	-12155
▁vote	-12156
▁Fritz	-12157
▁Viens	-12158
▁rives	-12159
▁verse	-12160
quaient	-12161
▁insign	-12162
▁rafraî	-12163
aiguille	-12164
▁sacrifices	-12165
ito	-12166
eler	-12167
iège	-12168
▁admet	-12169
▁refusa	-12170
▁Olivier	-12171
▁ardente	-12172
▁cristal	-12173
▁compliments	-12174
▁rayonnement	-12175
USTR	-12176
▁aîn	-12177
uisait	-12178
▁Anton	-12179
▁illum	-12180
▁archit	-12181
▁fameuse	-12182
▁robuste	-12183
▁superst	-12184
▁corridor	-12185
▁demoiselles	-12186
▁éman	-12187
resses	-12188
▁cahier	-12189
▁report	-12190
▁bandits	-12191
▁relevant	-12192
Son	-12193
roix	-12194
▁Vent	-12195
▁cannes	-12196
▁harmon	-12197
▁vêtement	-12198
▁hypothèse	-12199
élé	-12200
▁BA	-12201
▁Han	-12202
▁ador	-12203
▁flex	-12204
▁trac	-12205
▁graph	-12206
issants	-12207
▁affirmer	-12208
▁allocations	-12209
ish	-12210
établi	-12211
atrices	-12212
▁Orient	-12213
▁Princip	-12214
▁honteux	-12215
▁abondante	-12216
▁gymn	-12217
▁défunt	-12218
▁romain	-12219
▁réunit	-12220
▁rendant	-12221
▁quartiers	-12222
▁intervenir	-12223
▁Quelquefois	-12224
▁catastrophe	-12225
pitaux	-12226
▁rudes	-12227
exécuter	-12228
▁Pologne	-12229
▁réciproque	-12230
ago	-12231
▁SA	-12232
▁fît	-12233
▁sérum	-12234
▁persuadé	-12235
so	-12236
..,	-12237
sons	-12238
cient	-12239
▁boule	-12240
▁hésiter	-12241
▁menaces	-12242
▁succomb	-12243
▁laboratoire	-12244
Cet	-12245
▁Bob	-12246
▁dons	-12247
▁portées	-12248
▁trésors	-12249
▁notables	-12250
▁querelle	-12251
▁permettra	-12252
▁fonctionnaire	-12253
ervé	-12254
▁CHE	-12255
ualité	-12256
▁farde	-12257
▁musée	-12258
▁AUX	-12259
▁cure	-12260
▁diver	-12261
▁regagn	-12262
▁évêques	-12263
étonnement	-12264
▁Cheval	-12265
▁casser	-12266
▁virent	-12267
▁Superbe	-12268
▁époques	-12269
▁attachés	-12270
▁déclarations	-12271
èn	-12272
OTTE	-12273
uées	-12274
▁rez	-12275
tueux	-12276
▁janv	-12277
▁gibier	-12278
▁Mayenne	-12279
▁innocent	-12280
ial	-12281
rants	-12282
▁caporal	-12283
▁exigences	-12284
▁honorable	-12285
fiés	-12286
afaud	-12287
assées	-12288
otique	-12289
▁Valjean	-12290
▁termine	-12291
▁trembler	-12292
▁commettre	-12293
▁contrainte	-12294
▁tendrement	-12295
▁Fi	-12296
igre	-12297
▁mouss	-12298
▁usines	-12299
▁annonce	-12300
▁boucles	-12301
urrection	-12302
▁industriel	-12303
▁considérait	-12304
▁Juin	-12305
▁recue	-12306
▁Sociétés	-12307
▁lumineux	-12308
▁organisé	-12309
Ali	-12310
mit	-12311
▁lus	-12312
ectif	-12313
orcet	-12314
▁Livre	-12315
▁cloches	-12316
▁entraîne	-12317
▁discrétion	-12318
▁Tor	-12319
▁purent	-12320
▁invités	-12321
▁entraîné	-12322
▁coupables	-12323
▁logements	-12324
▁solutions	-12325
▁commencent	-12326
▁inscription	-12327
gra	-12328
▁miel	-12329
gueille	-12330
▁honnêtes	-12331
▁occasions	-12332
hom	-12333
▁Maz	-12334
▁stér	-12335
ierges	-12336
▁avenue	-12337
▁coffre	-12338
▁reçoivent	-12339
▁oscillations	-12340
ye	-12341
▁Sant	-12342
▁Sont	-12343
▁injus	-12344
▁talons	-12345
▁reprocher	-12346
▁trimestre	-12347
▁ox	-12348
ward	-12349
▁dîn	-12350
essai	-12351
▁lits	-12352
▁garant	-12353
▁muette	-12354
▁vaches	-12355
▁suspend	-12356
▁talents	-12357
rr	-12358
▁salons	-12359
▁arrivaient	-12360
▁Os	-12361
▁Liv	-12362
▁féod	-12363
▁inouï	-12364
onciation	-12365
▁activités	-12366
▁concierge	-12367
GI	-12368
isi	-12369
igence	-12370
▁objectifs	-12371
Total	-12372
▁Marne	-12373
▁Prusse	-12374
▁sacrée	-12375
étendait	-12376
▁transvers	-12377
▁magistrats	-12378
END	-12379
▁Total	-12380
▁roches	-12381
▁glorieux	-12382
▁rivières	-12383
▁variation	-12384
▁aï	-12385
▁Int	-12386
▁pavé	-12387
▁dirigé	-12388
▁rectang	-12389
▁réponds	-12390
électricité	-12391
orig	-12392
▁Ivan	-12393
quérir	-12394
humidité	-12395
▁clocher	-12396
▁affreuse	-12397
▁craintes	-12398
▁rencontra	-12399
▁apparaissent	-12400
FES	-12401
▁Bru	-12402
ondich	-12403
▁SAINT	-12404
▁reins	-12405
▁nôtres	-12406
▁bagages	-12407
▁proposa	-12408
▁essentiel	-12409
lim	-12410
ouve	-12411
tête	-12412
▁Wil	-12413
aments	-12414
▁offrait	-12415
▁suspect	-12416
▁
!	-12417
▁TH	-12418
sique	-12419
▁dues	-12420
essence	-12421
▁fatale	-12422
▁demandent	-12423
▁donnerait	-12424
bat	-12425
▁fév	-12426
attends	-12427
▁obtenue	-12428
▁soupçon	-12429
▁stupide	-12430
▁diamants	-12431
▁espérait	-12432
▁apportait	-12433
▁viendrait	-12434
cit	-12435
urin	-12436
▁Cit	-12437
queurs	-12438
▁Raoul	-12439
▁Prenez	-12440
▁arrête	-12441
▁échant	-12442
▁attirer	-12443
▁complice	-12444
▁bienveillance	-12445
desc	-12446
trai	-12447
eller	-12448
▁Blanc	-12449
Germain	-12450
Baptiste	-12451
▁Caroline	-12452
▁insignifi	-12453
aguère	-12454
▁romans	-12455
▁autrich	-12456
▁bordure	-12457
embrasser	-12458
▁réchauff	-12459
▁réservée	-12460
IVRE	-12461
ertoire	-12462
inconnu	-12463
▁rentré	-12464
▁parvenu	-12465
▁retrait	-12466
▁laissaient	-12467
▁Châ	-12468
▁cis	-12469
▁radic	-12470
▁endormi	-12471
▁humides	-12472
▁paquets	-12473
▁naturels	-12474
▁élégante	-12475
▁respecter	-12476
mons	-12477
▁Clot	-12478
illiers	-12479
▁russes	-12480
▁traîne	-12481
▁appuyée	-12482
▁Sciences	-12483
▁angoisse	-12484
▁distinct	-12485
▁fermiers	-12486
▁desquelles	-12487
))	-12488
journ	-12489
▁inég	-12490
▁pénit	-12491
▁Pasteur	-12492
▁épouvantable	-12493
rion	-12494
udant	-12495
▁guise	-12496
▁lancé	-12497
▁Prussi	-12498
▁acquit	-12499
▁réveil	-12500
▁défaill	-12501
▁rétablir	-12502
architecture	-12503
OSI	-12504
éni	-12505
RAND	-12506
▁Sat	-12507
▁figur	-12508
▁voire	-12509
▁supplie	-12510
▁intermédiaire	-12511
▁Arn	-12512
▁piv	-12513
thèse	-12514
▁path	-12515
▁couss	-12516
▁variables	-12517
▁fréquentes	-12518
;*	-12519
▁Lat	-12520
▁brevet	-12521
▁provinci	-12522
▁volontaire	-12523
▁connaissais	-12524
▁gâ	-12525
kins	-12526
▁haie	-12527
▁Pardon	-12528
▁régnait	-12529
▁scrupule	-12530
ordinaires	-12531
▁axe	-12532
valle	-12533
▁émotions	-12534
▁anglaises	-12535
▁distraire	-12536
CU	-12537
yte	-12538
éléph	-12539
▁ARMÉE	-12540
▁saura	-12541
exercer	-12542
▁grotte	-12543
▁demandez	-12544
▁poignard	-12545
indépendance	-12546
Aux	-12547
crite	-12548
ommée	-12549
ébran	-12550
▁zones	-12551
▁vainqueur	-12552
▁photographie	-12553
PS	-12554
six	-12555
CONS	-12556
tées	-12557
▁failli	-12558
▁avancer	-12559
▁reculer	-12560
▁voleurs	-12561
▁regretter	-12562
▁Certainement	-12563
▁collaboration	-12564
AH	-12565
aillé	-12566
▁farine	-12567
▁Françoise	-12568
▁héritiers	-12569
▁ressource	-12570
▁intermédiaires	-12571
▁tau	-12572
emmen	-12573
▁fûmes	-12574
▁pomme	-12575
▁égaux	-12576
▁moyennes	-12577
▁contiennent	-12578
CIEN	-12579
▁Riv	-12580
▁més	-12581
Entre	-12582
fiées	-12583
avancer	-12584
▁Commune	-12585
▁perdait	-12586
▁vapeurs	-12587
▁proposer	-12588
▁appliquée	-12589
augmentation	-12590
▁boîtes	-12591
▁rouler	-12592
écriture	-12593
▁haleine	-12594
▁totalement	-12595
ymp	-12596
▁EMP	-12597
▁Gœthe	-12598
▁tirés	-12599
▁recettes	-12600
▁extension	-12601
▁substances	-12602
cut	-12603
gen	-12604
illot	-12605
itoire	-12606
▁fossé	-12607
ératrice	-12608
▁diminue	-12609
▁indigne	-12610
▁inspiré	-12611
utilisation	-12612
▁jouissance	-12613
▁traditions	-12614
iler	-12615
adémi	-12616
▁Fais	-12617
▁halet	-12618
embarras	-12619
▁établit	-12620
▁appliqué	-12621
▁distances	-12622
▁matériels	-12623
.,.	-12624
ommé	-12625
▁Mos	-12626
▁poi	-12627
▁Lamb	-12628
▁excl	-12629
▁nier	-12630
▁déton	-12631
▁Bonjour	-12632
▁vaguement	-12633
ICES	-12634
▁Hav	-12635
▁cite	-12636
▁sugg	-12637
▁Était	-12638
▁domaines	-12639
▁restèrent	-12640
▁juridiction	-12641
mens	-12642
trois	-12643
étoffe	-12644
▁convoi	-12645
▁imposer	-12646
▁convenir	-12647
opl	-12648
ops	-12649
▁Fils	-12650
▁manie	-12651
▁collier	-12652
▁numéros	-12653
▁attendit	-12654
▁effectivement	-12655
gel	-12656
▁OR	-12657
osités	-12658
▁ajouté	-12659
▁enrich	-12660
▁soumise	-12661
▁embarrassé	-12662
'-	-12663
Ren	-12664
mel	-12665
▁Gh	-12666
▁Laf	-12667
▁Denier	-12668
▁Suzanne	-12669
extension	-12670
▁contrats	-12671
OFF	-12672
▁JU	-12673
ayez	-12674
▁BAR	-12675
▁Sté	-12676
▁garda	-12677
▁ovale	-12678
▁insupp	-12679
▁pauvreté	-12680
▁obligation	-12681
▁administratif	-12682
▁aîné	-12683
▁Trott	-12684
▁serbe	-12685
▁glissa	-12686
▁croquis	-12687
▁désigner	-12688
▁gracieux	-12689
▁Ay	-12690
▁Cu	-12691
field	-12692
------	-12693
riment	-12694
▁Eugène	-12695
▁origin	-12696
▁paress	-12697
ds	-12698
▁az	-12699
▁évid	-12700
Depuis	-12701
verbal	-12702
▁fatal	-12703
▁latér	-12704
▁dépassé	-12705
▁éclairée	-12706
▁municipal	-12707
ello	-12708
terie	-12709
▁épis	-12710
aparte	-12711
▁tarif	-12712
chaussée	-12713
ya	-12714
yrén	-12715
anime	-12716
▁disposés	-12717
▁stations	-12718
▁créatures	-12719
Asie	-12720
elot	-12721
emporte	-12722
imagine	-12723
▁carton	-12724
▁déposé	-12725
▁sèches	-12726
▁dizaine	-12727
▁répandre	-12728
▁conventions	-12729
atus	-12730
▁Fre	-12731
▁Août	-12732
▁Rare	-12733
endance	-12734
▁Quoique	-12735
▁éternel	-12736
▁soulever	-12737
intervalle	-12738
▁assemblée	-12739
nu	-12740
Den	-12741
▁kg	-12742
alté	-12743
▁Puy	-12744
▁nappe	-12745
▁égoïs	-12746
attache	-12747
▁abomin	-12748
▁fausses	-12749
▁sensations	-12750
gnon	-12751
iches	-12752
▁doub	-12753
▁fonci	-12754
▁séances	-12755
▁prétendre	-12756
Marc	-12757
usson	-12758
▁gars	-12759
issantes	-12760
▁ordonna	-12761
▁Septembre	-12762
▁nombreuse	-12763
▁parcourir	-12764
▁préparait	-12765
▁reproduit	-12766
▁Feu	-12767
▁Lin	-12768
▁March	-12769
▁conflit	-12770
▁couronné	-12771
▁condamnés	-12772
▁dentelles	-12773
▁écrivains	-12774
▁enthousias	-12775
All	-12776
▁DRO	-12777
▁Pit	-12778
▁nou	-12779
▁Blan	-12780
▁Plan	-12781
effray	-12782
▁morne	-12783
▁misères	-12784
▁interloc	-12785
▁blas	-12786
endrez	-12787
▁théor	-12788
▁Levine	-12789
▁saluer	-12790
▁ménager	-12791
▁médaille	-12792
▁charrette	-12793
▁détermine	-12794
▁sacrifier	-12795
▁Douai	-12796
incourt	-12797
ressionn	-12798
▁quittait	-12799
cès	-12800
▁gamin	-12801
▁Cosette	-12802
▁subsist	-12803
▁indiquant	-12804
anda	-12805
oxim	-12806
▁ine	-12807
actif	-12808
▁lâch	-12809
▁abrit	-12810
▁amène	-12811
▁finie	-12812
▁Soleil	-12813
▁toiles	-12814
▁emporte	-12815
▁effroyable	-12816
▁FE	-12817
▁tox	-12818
▁utilisé	-12819
▁concentration	-12820
ja	-12821
CHAR	-12822
ouri	-12823
▁vêtue	-12824
anciers	-12825
▁formés	-12826
▁légale	-12827
éhension	-12828
Cal	-12829
ado	-12830
▁lié	-12831
▁brume	-12832
▁plain	-12833
emparer	-12834
▁commençaient	-12835
enregistrement	-12836
▁**	-12837
ofond	-12838
▁Mary	-12839
.......	-12840
cepteur	-12841
▁fusion	-12842
examiner	-12843
aro	-12844
onibles	-12845
▁avancée	-12846
▁croient	-12847
▁ordonné	-12848
▁colonial	-12849
▁imaginer	-12850
▁immeubles	-12851
▁manœuvres	-12852
▁décoration	-12853
▁livré	-12854
▁recond	-12855
▁aurions	-12856
▁(?	-12857
èner	-12858
▁sep	-12859
▁Brig	-12860
attach	-12861
étouff	-12862
▁Télégramme	-12863
▁décidément	-12864
loge	-12865
▁Fra	-12866
▁vign	-12867
bercul	-12868
▁Alexand	-12869
▁attaqué	-12870
aissement	-12871
▁démontrer	-12872
▁conducteur	-12873
utte	-12874
ajout	-12875
▁Harry	-12876
▁anges	-12877
▁Légion	-12878
▁Picard	-12879
ociation	-12880
▁ferment	-12881
▁accompagnée	-12882
mor	-12883
Plus	-12884
▁HAU	-12885
infini	-12886
▁intellectuelle	-12887
moine	-12888
▁treize	-12889
▁milieux	-12890
▁réalisée	-12891
▁découvertes	-12892
▁groupements	-12893
▁étroitement	-12894
;-	-12895
▁pir	-12896
erner	-12897
rales	-12898
▁pèse	-12899
abandon	-12900
▁Octave	-12901
▁Presque	-12902
▁forfait	-12903
▁accordée	-12904
▁inconvénient	-12905
uya	-12906
▁ro	-12907
itôt	-12908
▁Bay	-12909
▁xvi	-12910
▁foin	-12911
▁spec	-12912
▁ledit	-12913
▁présid	-12914
▁rangées	-12915
▁illusion	-12916
▁traitements	-12917
▁mobilisation	-12918
yst	-12919
ébé	-12920
▁ôt	-12921
atie	-12922
▁nauf	-12923
oublier	-12924
▁dédaign	-12925
▁finesse	-12926
▁Certains	-12927
▁applicables	-12928
▁Méde	-12929
encour	-12930
oisses	-12931
▁Berth	-12932
▁achats	-12933
▁déserte	-12934
▁Clotilde	-12935
▁douzaine	-12936
▁pistolet	-12937
▁convenablement	-12938
aér	-12939
▁Chamb	-12940
allonge	-12941
▁venues	-12942
▁vierge	-12943
▁touchait	-12944
▁agitation	-12945
▁Tran	-12946
▁Buste	-12947
▁Renard	-12948
▁échang	-12949
▁signale	-12950
▁partisans	-12951
▁débarquement	-12952
▁So	-12953
▁SUP	-12954
▁Gide	-12955
offrir	-12956
▁libér	-12957
▁carbon	-12958
▁délire	-12959
▁rougit	-12960
▁souris	-12961
▁moteurs	-12962
▁employées	-12963
▁exclusive	-12964
▁enseignement	-12965
TIV	-12966
▁ier	-12967
▁engl	-12968
ituation	-12969
▁notions	-12970
▁méchante	-12971
▁disparaît	-12972
▁pratiquer	-12973
▁délicieuse	-12974
▁conversations	-12975
chef	-12976
▁brac	-12977
▁fosse	-12978
▁louer	-12979
▁symét	-12980
▁rythme	-12981
apparence	-12982
▁gravures	-12983
▁soulagement	-12984
illo	-12985
▁annuel	-12986
▁échelle	-12987
▁comparer	-12988
▁consacrer	-12989
▁personnels	-12990
▁commerçants	-12991
▁gage	-12992
impose	-12993
▁buiss	-12994
▁Christi	-12995
▁rafraîch	-12996
▁équation	-12997
▁contraires	-12998
▁ll	-12999
bois	-13000
▁Petite	-13001
▁labour	-13002
▁poupée	-13003
onnaires	-13004
▁intimes	-13005
▁tablier	-13006
▁commander	-13007
▁bouts	-13008
ailleur	-13009
▁séparé	-13010
▁éteint	-13011
▁fermeté	-13012
▁entrevue	-13013
▁suivaient	-13014
▁tremblant	-13015
écrit	-13016
▁assujet	-13017
▁confess	-13018
▁doubles	-13019
▁déposer	-13020
▁précède	-13021
▁moyennant	-13022
▁splendide	-13023
▁prestations	-13024
▁Mf	-13025
ller	-13026
▁flét	-13027
octobre	-13028
▁message	-13029
▁pourriez	-13030
▁apprécier	-13031
▁précipita	-13032
oust	-13033
▁rôles	-13034
ouvrait	-13035
étudier	-13036
▁prévus	-13037
avançait	-13038
▁Janvier	-13039
▁tendait	-13040
▁drapeaux	-13041
▁liquides	-13042
▁reconnue	-13043
bur	-13044
ôse	-13045
isés	-13046
iscop	-13047
▁avou	-13048
▁hoch	-13049
▁huile	-13050
▁laver	-13051
▁Tribunal	-13052
fant	-13053
ulent	-13054
▁scél	-13055
amuser	-13056
étonne	-13057
oxygène	-13058
▁Temple	-13059
▁Clément	-13060
▁convives	-13061
▁voyaient	-13062
▁ferrée	-13063
aissaient	-13064
▁comptoir	-13065
▁pleurant	-13066
▁symptômes	-13067
▁préfecture	-13068
ser	-13069
ilés	-13070
▁sot	-13071
contre	-13072
alistes	-13073
▁Bourse	-13074
▁promit	-13075
▁habitait	-13076
tis	-13077
▁MON	-13078
alles	-13079
isser	-13080
▁muet	-13081
iterran	-13082
▁annonça	-13083
▁retournant	-13084
▁habituellement	-13085
Qui	-13086
fils	-13087
orum	-13088
usée	-13089
▁calomn	-13090
▁jouant	-13091
▁lugubre	-13092
▁soupira	-13093
CA	-13094
DÉ	-13095
UNE	-13096
zième	-13097
▁Prix	-13098
chemin	-13099
▁décol	-13100
▁natur	-13101
▁luttes	-13102
▁entières	-13103
▁collective	-13104
Lithographie	-13105
▁organisations	-13106
▁Kn	-13107
▁ornée	-13108
▁consenti	-13109
▁racontait	-13110
▁informations	-13111
rc	-13112
▁.,	-13113
ILLON	-13114
▁gang	-13115
▁torp	-13116
▁écus	-13117
employ	-13118
▁conte	-13119
▁conquis	-13120
▁réfléchi	-13121
VEN	-13122
▁isolé	-13123
▁portés	-13124
▁naguère	-13125
▁dentelle	-13126
▁Condorcet	-13127
▁assurance	-13128
▁porcelaine	-13129
XI	-13130
▁Rad	-13131
accès	-13132
▁Chem	-13133
▁clou	-13134
▁gise	-13135
émence	-13136
▁plaça	-13137
astiques	-13138
faitement	-13139
▁administrateurs	-13140
TRO	-13141
▁rai	-13142
▁Décr	-13143
▁Pass	-13144
▁recru	-13145
▁mouton	-13146
▁pourpre	-13147
épouvante	-13148
▁mobilier	-13149
▁nationaux	-13150
Sous	-13151
▁Pér	-13152
Amour	-13153
▁Form	-13154
▁scol	-13155
ARTICLE	-13156
▁forcée	-13157
▁Section	-13158
▁indiquées	-13159
▁italienne	-13160
▁affections	-13161
▁cruellement	-13162
York	-13163
▁idi	-13164
allum	-13165
▁Centre	-13166
▁sortent	-13167
▁couchant	-13168
▁définitif	-13169
▁recueilli	-13170
▁domination	-13171
▁prétention	-13172
zel	-13173
▁nas	-13174
▁Telle	-13175
▁album	-13176
▁Améric	-13177
▁fiacre	-13178
▁chaînes	-13179
attendais	-13180
impatience	-13181
▁détourner	-13182
▁professionnelle	-13183
PL	-13184
MIS	-13185
élie	-13186
alisés	-13187
▁frayeur	-13188
▁comptabilité	-13189
wn	-13190
▁Tre	-13191
▁Hist	-13192
▁mini	-13193
▁mêlé	-13194
▁cendres	-13195
▁commerciales	-13196
▁compatriotes	-13197
▁extraordinaires	-13198
aviez	-13199
▁buis	-13200
jectif	-13201
▁Sénat	-13202
▁Jardin	-13203
▁Romains	-13204
▁dimension	-13205
accompagner	-13206
Yves	-13207
TEURS	-13208
▁Mosc	-13209
phonse	-13210
▁ardent	-13211
▁audaci	-13212
▁criminel	-13213
▁RO	-13214
▁Rest	-13215
▁pâleur	-13216
▁immédiat	-13217
▁développe	-13218
▁individuelle	-13219
▁manifestations	-13220
Gu	-13221
Suite	-13222
iseaux	-13223
érante	-13224
▁accabl	-13225
▁promenait	-13226
▁disponibles	-13227
Int	-13228
SERV	-13229
venir	-13230
▁kilos	-13231
irations	-13232
▁esclave	-13233
▁procure	-13234
▁pétrole	-13235
organisme	-13236
▁Choiseul	-13237
▁apparente	-13238
▁Constantinople	-13239
▁Cy	-13240
cour	-13241
▁cah	-13242
auvel	-13243
▁émis	-13244
exposer	-13245
▁Excell	-13246
▁minces	-13247
▁seriez	-13248
▁rentrait	-13249
▁trahison	-13250
▁équilibre	-13251
VER	-13252
zon	-13253
ific	-13254
ilet	-13255
atori	-13256
Indien	-13257
▁barbares	-13258
▁découvre	-13259
▁héroïque	-13260
▁éloignée	-13261
dix	-13262
▁Ent	-13263
▁Russes	-13264
▁dédain	-13265
▁Léopold	-13266
▁douteux	-13267
▁engagée	-13268
▁peindre	-13269
▁représentait	-13270
grand	-13271
enlever	-13272
▁monast	-13273
▁ordonn	-13274
▁Européens	-13275
arrond	-13276
▁libert	-13277
▁simpli	-13278
▁Soudain	-13279
▁formait	-13280
▁fâcheux	-13281
▁Rousseau	-13282
▁chansons	-13283
▁gentleman	-13284
▁expressions	-13285
▁apparaissait	-13286
uira	-13287
▁aug	-13288
ouvoir	-13289
▁signific	-13290
▁collègues	-13291
▁fractions	-13292
▁universel	-13293
▁transformer	-13294
Br	-13295
Ue	-13296
aîné	-13297
ièmes	-13298
▁fiancé	-13299
Maj	-13300
▁Aub	-13301
▁Gri	-13302
▁join	-13303
▁Avril	-13304
▁Clara	-13305
▁juill	-13306
ulgence	-13307
▁serrure	-13308
▁convales	-13309
▁fatigues	-13310
▁silhouette	-13311
▁continuellement	-13312
▁FR	-13313
▁enj	-13314
▁vom	-13315
iture	-13316
▁juré	-13317
▁besti	-13318
▁échec	-13319
élément	-13320
▁opérer	-13321
glom	-13322
▁Ker	-13323
ueurs	-13324
▁clam	-13325
▁rampe	-13326
▁redesc	-13327
▁épuisé	-13328
▁oeuvres	-13329
▁tremble	-13330
yph	-13331
▁Dj	-13332
▁tât	-13333
offes	-13334
ervent	-13335
▁daign	-13336
▁chauds	-13337
▁boutons	-13338
▁associés	-13339
▁volontaires	-13340
No	-13341
BER	-13342
ued	-13343
irez	-13344
▁COU	-13345
allai	-13346
▁future	-13347
▁soumises	-13348
▁suspendu	-13349
lète	-13350
▁aisé	-13351
arités	-13352
tation	-13353
▁marée	-13354
étiques	-13355
▁moines	-13356
▁assises	-13357
▁majeure	-13358
▁métiers	-13359
ospitalité	-13360
▁paternelle	-13361
not	-13362
▁ST	-13363
voix	-13364
arder	-13365
▁Tome	-13366
▁payés	-13367
▁ruiss	-13368
▁sculp	-13369
▁froiss	-13370
▁médicale	-13371
▁sanctuaire	-13372
▁
:	-13373
▁Aj	-13374
▁Cham	-13375
▁Lolo	-13376
▁surviv	-13377
▁réduits	-13378
▁délégués	-13379
Inf	-13380
SEC	-13381
▁Lit	-13382
clusion	-13383
▁concord	-13384
▁autorisé	-13385
▁Bonaparte	-13386
▁gracieuse	-13387
▁reprenait	-13388
▁protecteur	-13389
▁portefeuille	-13390
pris	-13391
▁Vois	-13392
▁buff	-13393
▁ravin	-13394
épargne	-13395
▁Banque	-13396
▁barric	-13397
▁portière	-13398
▁repentir	-13399
▁hésitation	-13400
▁empressement	-13401
eri	-13402
▁SI	-13403
▁prouvé	-13404
▁condens	-13405
▁promets	-13406
▁existent	-13407
▁aristocra	-13408
alem	-13409
Alors	-13410
érais	-13411
▁cueil	-13412
Auguste	-13413
▁nerveuse	-13414
▁original	-13415
▁souhaite	-13416
éma	-13417
RIER	-13418
amis	-13419
sans	-13420
▁dirent	-13421
▁granit	-13422
▁deniers	-13423
▁matérielle	-13424
▁normalement	-13425
HA	-13426
onces	-13427
▁jaun	-13428
▁pâte	-13429
OGRAPH	-13430
▁adhér	-13431
▁halte	-13432
▁jolis	-13433
▁tribu	-13434
▁maxima	-13435
▁serions	-13436
ondichéry	-13437
▁concessi	-13438
▁prononcée	-13439
▁provision	-13440
▁engagement	-13441
▁forteresse	-13442
CHES	-13443
illent	-13444
▁Moyen	-13445
▁Point	-13446
▁indéc	-13447
▁délivré	-13448
▁commissions	-13449
iègne	-13450
▁camb	-13451
▁Place	-13452
▁poison	-13453
illusion	-13454
▁annoncé	-13455
▁fardeau	-13456
▁Théodore	-13457
▁illustre	-13458
▁châtiment	-13459
▁multitude	-13460
▁préoccupations	-13461
Di	-13462
▁Bu	-13463
Avant	-13464
abbaye	-13465
▁Chant	-13466
▁veste	-13467
▁contag	-13468
▁météor	-13469
▁densité	-13470
▁descente	-13471
▁objectif	-13472
▁suivirent	-13473
-
	-13474
▁TB	-13475
gnès	-13476
orch	-13477
obert	-13478
▁pieux	-13479
▁coquet	-13480
▁continué	-13481
▁profonds	-13482
;^	-13483
••	-13484
ipp	-13485
▁inéd	-13486
erturb	-13487
▁dirigée	-13488
▁attachée	-13489
▁rembours	-13490
▁sensibles	-13491
▁connaissons	-13492
yd	-13493
cale	-13494
▁FOR	-13495
▁Mén	-13496
▁durs	-13497
iciers	-13498
épanou	-13499
▁conçu	-13500
▁excéd	-13501
endrons	-13502
▁atteints	-13503
▁prolonger	-13504
▁vingtaine	-13505
▁pittoresque	-13506
▁innombrables	-13507
rui	-13508
▁Kh	-13509
pied	-13510
▁Règ	-13511
▁diges	-13512
▁nettoy	-13513
▁posant	-13514
▁cabaret	-13515
▁manches	-13516
LOU	-13517
sch	-13518
lons	-13519
▁Not	-13520
raper	-13521
▁laté	-13522
Albert	-13523
▁garni	-13524
▁soeur	-13525
▁bétail	-13526
▁balbutia	-13527
▁directeurs	-13528
NO	-13529
ova	-13530
▁Jui	-13531
▁susc	-13532
rayant	-13533
▁phase	-13534
▁parcours	-13535
opposition	-13536
▁généreuse	-13537
▁commencèrent	-13538
▁admirablement	-13539
ij	-13540
préf	-13541
▁Alli	-13542
▁Fair	-13543
▁autel	-13544
rimerie	-13545
▁rentes	-13546
entendit	-13547
▁chapeaux	-13548
instrument	-13549
▁souhaiter	-13550
▁transporté	-13551
ANC	-13552
ignant	-13553
▁justes	-13554
▁réconf	-13555
▁écouté	-13556
apporter	-13557
orations	-13558
▁faciles	-13559
▁marteau	-13560
▁couvrait	-13561
▁américain	-13562
▁brigadier	-13563
▁sincèrement	-13564
Bien	-13565
érit	-13566
Journ	-13567
▁chéri	-13568
aillons	-13569
échange	-13570
▁antérieures	-13571
zig	-13572
éleva	-13573
▁arros	-13574
▁longe	-13575
▁appétit	-13576
▁charmes	-13577
▁brillait	-13578
▁crépuscule	-13579
▁indifférence	-13580
cue	-13581
aphy	-13582
▁anx	-13583
▁fert	-13584
anneau	-13585
▁Faire	-13586
attaquer	-13587
▁pénètre	-13588
Ac	-13589
ablo	-13590
▁Mét	-13591
▁Niv	-13592
▁gueule	-13593
▁martyr	-13594
▁mériter	-13595
▁téléphone	-13596
//	-13597
aïque	-13598
indiff	-13599
▁souli	-13600
iraient	-13601
▁bûcher	-13602
▁consécu	-13603
▁Voltaire	-13604
▁brigands	-13605
▁LÉ	-13606
▁intr	-13607
assuré	-13608
▁arché	-13609
▁couru	-13610
▁adjoint	-13611
▁funeste	-13612
▁grenier	-13613
▁soustraire	-13614
kh	-13615
▁OUV	-13616
▁Sem	-13617
cides	-13618
exige	-13619
▁vifs	-13620
▁lundi	-13621
▁indemn	-13622
▁refuge	-13623
▁absurde	-13624
▁caprice	-13625
adversaire	-13626
entifiques	-13627
▁effectuer	-13628
▁apercevait	-13629
▁transmission	-13630
affût	-13631
▁aval	-13632
▁gaie	-13633
▁brèche	-13634
▁Flandre	-13635
▁dollars	-13636
▁déplais	-13637
ugés	-13638
tures	-13639
uivant	-13640
▁miséric	-13641
▁vallées	-13642
▁vicomte	-13643
Pers	-13644
▁Dol	-13645
▁btn	-13646
hauss	-13647
élite	-13648
▁Germ	-13649
▁apos	-13650
▁coméd	-13651
▁attiré	-13652
▁doutes	-13653
▁explor	-13654
▁élimin	-13655
▁changea	-13656
▁maintenu	-13657
▁encourage	-13658
▁maladroit	-13659
▁spirituelle	-13660
arrêté	-13661
▁Turcs	-13662
▁inves	-13663
yrénées	-13664
▁annonc	-13665
▁repartit	-13666
▁permanente	-13667
▁suspension	-13668
▁remarquables	-13669
▁MÉ	-13670
chers	-13671
▁Fond	-13672
▁foie	-13673
▁paye	-13674
▁rires	-13675
▁publiés	-13676
▁soutien	-13677
▁internationale	-13678
uez	-13679
olée	-13680
▁Cli	-13681
▁blâ	-13682
dière	-13683
ensis	-13684
mbert	-13685
allure	-13686
▁démol	-13687
bilités	-13688
ormément	-13689
▁calculs	-13690
▁habituel	-13691
▁applicable	-13692
▁traversant	-13693
▁personnellement	-13694
Bi	-13695
▁vœu	-13696
▁quasi	-13697
▁Wagner	-13698
▁triple	-13699
entissage	-13700
▁Ouvriers	-13701
▁essayait	-13702
▁précieuses	-13703
▁élémentaire	-13704
pie	-13705
▁Cur	-13706
encre	-13707
▁boug	-13708
▁fiév	-13709
issais	-13710
▁chargées	-13711
▁épaisseur	-13712
▁apparences	-13713
▁baïonnette	-13714
ITÉS	-13715
▁dys	-13716
▁monop	-13717
▁décidée	-13718
▁agissant	-13719
▁renouveler	-13720
▁tentatives	-13721
LAS	-13722
rovis	-13723
▁Rhône	-13724
quettes	-13725
▁plâtre	-13726
▁effectué	-13727
▁considérés	-13728
TRU	-13729
court	-13730
▁japon	-13731
▁saute	-13732
▁fragment	-13733
▁institution	-13734
▁IL	-13735
ilie	-13736
imon	-13737
rates	-13738
▁attel	-13739
▁chèvre	-13740
▁tumulte	-13741
ôn	-13742
ato	-13743
ete	-13744
OLOG	-13745
ling	-13746
▁And	-13747
oïdes	-13748
▁mers	-13749
Observ	-13750
aimerais	-13751
▁anéanti	-13752
▁entrèrent	-13753
▁complaisance	-13754
olat	-13755
▁NON	-13756
Egypte	-13757
ancier	-13758
▁carab	-13759
hygiène	-13760
habiller	-13761
exportation	-13762
ails	-13763
▁Rap	-13764
îtres	-13765
▁Bref	-13766
▁Trop	-13767
▁Félix	-13768
▁dément	-13769
ductions	-13770
▁mourant	-13771
▁sursaut	-13772
.........	-13773
▁démarches	-13774
▁spirituel	-13775
▁BI	-13776
etta	-13777
héli	-13778
▁IMP	-13779
envoi	-13780
▁Julia	-13781
▁gants	-13782
▁pompe	-13783
▁prune	-13784
endraient	-13785
tifications	-13786
▁distraction	-13787
bou	-13788
rois	-13789
ouard	-13790
▁poli	-13791
▁borne	-13792
▁sphère	-13793
▁varier	-13794
▁vignes	-13795
▁culasse	-13796
▁maintes	-13797
▁grossière	-13798
▁solidarité	-13799
sc	-13800
LOIT	-13801
iiii	-13802
▁Hub	-13803
▁Inf	-13804
ATURE	-13805
culer	-13806
outil	-13807
▁Hong	-13808
▁garg	-13809
étroit	-13810
▁Dauph	-13811
▁Serge	-13812
▁fauss	-13813
▁aiment	-13814
ouvriers	-13815
▁académi	-13816
▁ouvrait	-13817
▁Espagnols	-13818
▁tombaient	-13819
▁engagements	-13820
TTE	-13821
acquit	-13822
▁plage	-13823
illeurs	-13824
▁Cochin	-13825
▁Madrid	-13826
▁enflam	-13827
▁instinc	-13828
indemnité	-13829
▁soumission	-13830
▁Cop	-13831
excès	-13832
▁privés	-13833
inations	-13834
▁souleva	-13835
▁convenait	-13836
▁entretenir	-13837
▁pleinement	-13838
TO	-13839
▁mign	-13840
exclam	-13841
▁emporter	-13842
▁troublée	-13843
▁incidents	-13844
▁compromettre	-13845
'&	-13846
▁Sé	-13847
chage	-13848
▁bœuf	-13849
▁dose	-13850
orette	-13851
▁frott	-13852
abilités	-13853
occupait	-13854
▁caverne	-13855
▁fondation	-13856
▁produisit	-13857
CRI	-13858
chal	-13859
▁livrée	-13860
▁injuste	-13861
▁demeurant	-13862
▁découvrit	-13863
▁pourrions	-13864
▁électriques	-13865
azur	-13866
êches	-13867
▁ivre	-13868
oublie	-13869
▁élarg	-13870
▁bougie	-13871
▁augmenté	-13872
▁poétique	-13873
▁artistique	-13874
als	-13875
pents	-13876
▁bilan	-13877
▁tendue	-13878
▁Février	-13879
▁funèbre	-13880
▁étonnée	-13881
▁exprimés	-13882
archevêque	-13883
Agriculture	-13884
▁recommandé	-13885
Bret	-13886
▁cub	-13887
▁gou	-13888
▁oss	-13889
▁paï	-13890
▁urb	-13891
agnole	-13892
▁Hugues	-13893
▁dresse	-13894
▁déshon	-13895
▁limité	-13896
▁remplis	-13897
▁roulement	-13898
▁remboursement	-13899
IA	-13900
▁REN	-13901
azote	-13902
▁bains	-13903
entraîn	-13904
▁allèrent	-13905
êve	-13906
eron	-13907
▁PER	-13908
amant	-13909
emmes	-13910
▁admirer	-13911
▁complex	-13912
▁commandé	-13913
▁ouvrières	-13914
▁commandants	-13915
▁générations	-13916
▁projectiles	-13917
▁fermentation	-13918
obes	-13919
▁Perse	-13920
▁disons	-13921
▁levure	-13922
▁poules	-13923
▁audessus	-13924
▁contemporains	-13925
▁Pa	-13926
▁Dor	-13927
anier	-13928
▁pair	-13929
▁battant	-13930
▁plaines	-13931
▁république	-13932
▁occidentale	-13933
▁scientifiques	-13934
FOR	-13935
ONE	-13936
criv	-13937
lion	-13938
éval	-13939
auves	-13940
▁désiré	-13941
▁perron	-13942
▁achever	-13943
▁graisse	-13944
▁recense	-13945
▁fixation	-13946
ageusement	-13947
▁nationales	-13948
▁go	-13949
ourer	-13950
▁Vieux	-13951
▁cornes	-13952
▁foudre	-13953
▁substitu	-13954
▁éloignés	-13955
▁squ	-13956
actes	-13957
▁typh	-13958
▁reflet	-13959
aviation	-13960
▁rejoint	-13961
▁buissons	-13962
▁désignés	-13963
▁commerciaux	-13964
▁compensation	-13965
▁Sl	-13966
▁tt	-13967
abst	-13968
▁Jack	-13969
érants	-13970
itoyable	-13971
▁résolus	-13972
▁Direction	-13973
▁atmosphère	-13974
▁métalliques	-13975
gh	-13976
OURN	-13977
Ttes	-13978
▁eue	-13979
▁Chal	-13980
ochine	-13981
▁offrit	-13982
▁Compiègne	-13983
▁respectivement	-13984
bin	-13985
mus	-13986
▁cachée	-13987
▁mouches	-13988
▁tressaillit	-13989
und	-13990
▁Sub	-13991
INSEE	-13992
▁attr	-13993
audace	-13994
rettes	-13995
▁strat	-13996
▁rapporté	-13997
▁financier	-13998
euf	-13999
▁Déb	-14000
▁Barrès	-14001
▁immobiles	-14002
▁persuader	-14003
ey	-14004
Ép	-14005
▁XL	-14006
▁vo	-14007
Bois	-14008
érien	-14009
▁relè	-14010
yrouth	-14011
▁gromm	-14012
▁rassur	-14013
▁Gouverneur	-14014
▁reproduire	-14015
▁occupations	-14016
idéal	-14017
▁Paix	-14018
▁bouc	-14019
▁refl	-14020
uaient	-14021
▁occasi	-14022
▁signer	-14023
observer	-14024
▁million	-14025
▁offrent	-14026
▁couvertes	-14027
introduction	-14028
▁travaillant	-14029
▁abri	-14030
indice	-14031
▁Contre	-14032
▁levier	-14033
▁préféré	-14034
▁insectes	-14035
▁populaires	-14036
Ev	-14037
po	-14038
EXP	-14039
▁Ga	-14040
avage	-14041
▁mâle	-14042
▁arabe	-14043
▁géant	-14044
tiendra	-14045
▁Nombre	-14046
▁empire	-14047
▁chaudes	-14048
▁choisit	-14049
▁foncier	-14050
installer	-14051
▁surnature	-14052
▁présentation	-14053
▁reconnaissait	-14054
Ur	-14055
▁God	-14056
▁nef	-14057
ILLES	-14058
vation	-14059
▁semblé	-14060
▁compassion	-14061
▁nomination	-14062
nez	-14063
▁,,	-14064
préh	-14065
▁Tah	-14066
▁More	-14067
▁Sidi	-14068
▁sanc	-14069
▁Chass	-14070
▁punir	-14071
▁assass	-14072
▁imaginé	-14073
▁pourrons	-14074
▁soutenue	-14075
Ins	-14076
liet	-14077
▁bab	-14078
▁bêt	-14079
astie	-14080
outre	-14081
▁VALE	-14082
▁lymph	-14083
▁Naples	-14084
▁courts	-14085
▁exister	-14086
▁indices	-14087
▁lointaine	-14088
▁Ble	-14089
▁Péri	-14090
▁comique	-14091
▁holland	-14092
▁fraîches	-14093
▁embrasser	-14094
▁profondeurs	-14095
IGN	-14096
ney	-14097
oît	-14098
▁axes	-14099
▁Rouge	-14100
▁sérén	-14101
▁isolés	-14102
▁remuer	-14103
▁variés	-14104
▁orgueille	-14105
▁péniblement	-14106
dés	-14107
▁-^	-14108
abîme	-14109
inoise	-14110
▁traîner	-14111
▁imbécile	-14112
▁indépendante	-14113
FA	-14114
trés	-14115
▁eus	-14116
eture	-14117
onais	-14118
ulées	-14119
▁brûlé	-14120
▁dilat	-14121
▁encor	-14122
▁poings	-14123
▁Octobre	-14124
▁Théâtre	-14125
▁répandu	-14126
▁révéler	-14127
▁plateaux	-14128
ef	-14129
anz	-14130
inj	-14131
▁Pé	-14132
▁avoit	-14133
▁fournis	-14134
▁habitué	-14135
▁splendeur	-14136
▁Lieutenant	-14137
▁assemblées	-14138
uth	-14139
▁fuy	-14140
▁Cand	-14141
▁fers	-14142
▁éché	-14143
▁disput	-14144
▁archives	-14145
▁tournure	-14146
▁parisienne	-14147
vt	-14148
prod	-14149
escad	-14150
▁brisée	-14151
▁acquise	-14152
▁renonce	-14153
▁Derrière	-14154
▁inconnus	-14155
▁communion	-14156
▁rendaient	-14157
FRAN	-14158
▁Lecoq	-14159
Nicolas	-14160
▁imposé	-14161
▁reçues	-14162
▁doutait	-14163
▁vicaire	-14164
▁distingué	-14165
▁jugements	-14166
▁véhicules	-14167
▁ordonnance	-14168
▁exploitation	-14169
▁'.	-14170
CHER	-14171
▁sables	-14172
▁infinie	-14173
énagement	-14174
▁prestige	-14175
▁devraient	-14176
▁personnelles	-14177
neum	-14178
▁ire	-14179
▁SERV	-14180
▁limp	-14181
▁bague	-14182
▁foyers	-14183
▁préparée	-14184
▁retentit	-14185
▁tempérament	-14186
▁administration	-14187
▁déte	-14188
▁gêner	-14189
arracher	-14190
▁immenses	-14191
▁simultanément	-14192
"'	-14193
itez	-14194
▁Pot	-14195
▁Jeune	-14196
▁fauve	-14197
▁prieur	-14198
▁Raymond	-14199
▁tubercul	-14200
▁entrepren	-14201
▁administrations	-14202
vo	-14203
ooo	-14204
▁(*	-14205
ébas	-14206
▁Hor	-14207
▁Mach	-14208
▁duel	-14209
▁asseoir	-14210
▁empress	-14211
▁utilité	-14212
▁donnerai	-14213
▁déranger	-14214
▁philosophes	-14215
▁appartements	-14216
gnes	-14217
sous	-14218
▁crev	-14219
▁mani	-14220
▁Jacob	-14221
▁chariot	-14222
▁tax	-14223
▁lier	-14224
▁syll	-14225
écurie	-14226
▁lésion	-14227
▁mouche	-14228
▁enfermé	-14229
▁trouvés	-14230
==	-14231
▁crée	-14232
▁dégr	-14233
ecteur	-14234
▁périr	-14235
▁grecque	-14236
▁ellemême	-14237
▁innocente	-14238
▁orientale	-14239
.»	-14240
^.	-14241
Pré	-14242
rus	-14243
OURG	-14244
étrang	-14245
▁échel	-14246
oulement	-14247
▁volupté	-14248
▁étonnant	-14249
▁Prussiens	-14250
Mme	-14251
aya	-14252
▁Rab	-14253
▁sém	-14254
▁chuch	-14255
▁rende	-14256
▁rosée	-14257
▁obscure	-14258
▁cervelle	-14259
▁peintres	-14260
RICE	-14261
entr	-14262
ampes	-14263
estim	-14264
▁verticale	-14265
aldi	-14266
▁Mig	-14267
infir	-14268
▁prié	-14269
▁descendu	-14270
▁cac	-14271
▁Chat	-14272
▁galant	-14273
▁german	-14274
▁implac	-14275
▁subdiv	-14276
▁célèbres	-14277
▁préjugés	-14278
▁régularité	-14279
▁seigneurie	-14280
Ec	-14281
ismes	-14282
▁lanc	-14283
▁organe	-14284
bach	-14285
tein	-14286
▁MIL	-14287
abatt	-14288
manie	-14289
▁envi	-14290
▁spor	-14291
▁jeudi	-14292
▁Poitiers	-14293
▁saisissant	-14294
▁postérieure	-14295
LS	-14296
▁PA	-14297
édier	-14298
▁soucis	-14299
▁exposés	-14300
engagement	-14301
▁respectable	-14302
oya	-14303
Page	-14304
▁Eli	-14305
irais	-14306
▁bret	-14307
▁desp	-14308
▁insi	-14309
▁ravi	-14310
Source	-14311
▁Tours	-14312
▁exasp	-14313
Général	-14314
▁Ernest	-14315
▁suisse	-14316
▁tombés	-14317
▁express	-14318
▁justifi	-14319
▁Industri	-14320
▁guerrier	-14321
▁résulter	-14322
▁volontés	-14323
▁étroites	-14324
▁ressortir	-14325
▁diagnostic	-14326
▁nécessités	-14327
uries	-14328
▁bous	-14329
litude	-14330
▁dénou	-14331
▁obéit	-14332
▁sonna	-14333
▁empris	-14334
accorder	-14335
▁élégant	-14336
▁garanties	-14337
▁occupation	-14338
▁successifs	-14339
▁actionnaires	-14340
▁mâ	-14341
Chap	-14342
▁tirée	-14343
ctement	-14344
icacité	-14345
▁cadeau	-14346
▁rendra	-14347
▁mineurs	-14348
▁automatique	-14349
ASSE	-14350
▁Sylv	-14351
▁Syndic	-14352
▁absent	-14353
▁radium	-14354
interroge	-14355
▁calculer	-14356
▁instruit	-14357
▁parcouru	-14358
▁arguments	-14359
▁formations	-14360
▁mist	-14361
▁assurés	-14362
▁redouter	-14363
▁réunions	-14364
auts	-14365
▁FRA	-14366
▁bibli	-14367
înement	-14368
▁Turquie	-14369
▁effrayé	-14370
▁écrites	-14371
▁Beyrouth	-14372
▁collabor	-14373
▁annonçait	-14374
ké	-14375
INES	-14376
lité	-14377
onnets	-14378
▁cordon	-14379
▁menuis	-14380
▁plaira	-14381
illaient	-14382
▁infailli	-14383
▁clientèle	-14384
▁reprenant	-14385
▁inscriptions	-14386
▁connaissaient	-14387
agan	-14388
rach	-14389
▁fixant	-14390
Philippe	-14391
▁publiée	-14392
▁faisceau	-14393
IMP	-14394
das	-14395
Comp	-14396
ampe	-14397
▁Bré	-14398
▁tons	-14399
▁nommés	-14400
▁réform	-14401
▁sonore	-14402
▁absorbé	-14403
▁sculpté	-14404
▁territoires	-14405
tia	-14406
isne	-14407
mais	-14408
▁Mss	-14409
▁Mira	-14410
▁délit	-14411
▁grêle	-14412
▁conjon	-14413
▁mortes	-14414
▁situés	-14415
▁délégué	-14416
▁frappait	-14417
▁gentille	-14418
▁harmonie	-14419
▁pénibles	-14420
▁vocation	-14421
PO	-14422
any	-14423
▁Ol	-14424
▁boss	-14425
▁surm	-14426
▁Savez	-14427
▁brouss	-14428
▁contes	-14429
▁menait	-14430
▁allions	-14431
▁barrage	-14432
▁tendent	-14433
inventaire	-14434
▁montaient	-14435
amélioration	-14436
▁sollicitude	-14437
-.-	-14438
Ant	-14439
rah	-14440
irrit	-14441
▁Loup	-14442
▁crain	-14443
▁odieux	-14444
▁présentée	-14445
▁assurances	-14446
▁Rod	-14447
élevage	-14448
▁abondance	-14449
▁indemnité	-14450
▁repousser	-14451
Lu	-14452
▁CA	-14453
▁Pen	-14454
▁exerç	-14455
▁tiède	-14456
▁pendule	-14457
▁serrait	-14458
entreprises	-14459
▁soupçonner	-14460
phy	-14461
▁ga	-14462
▁gél	-14463
▁aidé	-14464
▁vacc	-14465
▁versé	-14466
▁maudit	-14467
intendant	-14468
▁Montagne	-14469
▁chronique	-14470
▁étudiants	-14471
▁professions	-14472
▁rémunération	-14473
▁râ	-14474
MENTA	-14475
▁effar	-14476
▁exalt	-14477
▁pilote	-14478
▁rubans	-14479
▁regardez	-14480
indifférence	-14481
ylan	-14482
Homme	-14483
▁Magn	-14484
▁hâter	-14485
▁mèche	-14486
illaire	-14487
▁financière	-14488
▁CL	-14489
grav	-14490
▁hall	-14491
▁litt	-14492
▁avide	-14493
▁balan	-14494
▁précédé	-14495
▁centaine	-14496
▁courante	-14497
▁conseille	-14498
▁approchait	-14499
▁Ts	-14500
auve	-14501
rane	-14502
▁Fal	-14503
▁Mess	-14504
mières	-14505
rairie	-14506
▁Moscou	-14507
▁fécond	-14508
▁gentils	-14509
▁hôpitaux	-14510
▁impériale	-14511
Cont	-14512
▁Env	-14513
SEMENT	-14514
ignent	-14515
▁haies	-14516
▁Celles	-14517
▁valent	-14518
▁Docteur	-14519
▁causant	-14520
éclairage	-14521
▁détacher	-14522
▁paysanne	-14523
▁prétendu	-14524
▁utilisés	-14525
▁intéressé	-14526
▁artificielle	-14527
omo	-14528
tour	-14529
▁cha	-14530
▁peaux	-14531
▁roulant	-14532
▁impérial	-14533
▁sonnette	-14534
▁entrepris	-14535
▁favoriser	-14536
▁résolument	-14537
▁collections	-14538
▁désintéress	-14539
▁Ro	-14540
INCIP	-14541
ocité	-14542
▁écol	-14543
▁Domin	-14544
▁crisp	-14545
▁param	-14546
▁écriture	-14547
rome	-14548
veté	-14549
PTION	-14550
écras	-14551
autrui	-14552
▁draps	-14553
imaginer	-14554
▁exposer	-14555
hm	-14556
ny	-14557
cia	-14558
hect	-14559
▁Hier	-14560
▁Poul	-14561
▁gain	-14562
▁émin	-14563
▁Berge	-14564
▁malin	-14565
▁fraude	-14566
▁fumier	-14567
▁Excellence	-14568
▁automobiles	-14569
élév	-14570
▁Nom	-14571
▁Rio	-14572
▁bamb	-14573
oyenne	-14574
▁neuve	-14575
▁vigil	-14576
▁accusé	-14577
▁tirage	-14578
▁cercueil	-14579
MON	-14580
ski	-14581
▁Ott	-14582
▁Alice	-14583
▁Alpes	-14584
▁lueurs	-14585
▁engagés	-14586
▁laissés	-14587
▁éprouve	-14588
▁automobile	-14589
./	-14590
▁rug	-14591
▁carr	-14592
▁nègre	-14593
▁stand	-14594
▁Chiens	-14595
▁servit	-14596
▁affecté	-14597
▁pêcheur	-14598
▁approxim	-14599
▁forcément	-14600
JOU	-14601
loy	-14602
dule	-14603
main	-14604
rangé	-14605
▁corv	-14606
▁méfi	-14607
▁phon	-14608
▁pyra	-14609
▁somp	-14610
▁zinc	-14611
▁jetée	-14612
Etienne	-14613
▁convoit	-14614
▁fantôme	-14615
▁consacrée	-14616
▁regardais	-14617
▁prétendait	-14618
▁traversait	-14619
▁essentielle	-14620
Pas	-14621
▁Bav	-14622
▁NOM	-14623
▁ouest	-14624
▁berger	-14625
▁carref	-14626
▁fondre	-14627
▁réconc	-14628
▁Écoute	-14629
▁publier	-14630
enclature	-14631
▁cailloux	-14632
▁compliment	-14633
▁AM	-14634
ophy	-14635
▁bic	-14636
aries	-14637
ingle	-14638
▁ence	-14639
▁talon	-14640
▁évoqu	-14641
▁chassé	-14642
▁moelle	-14643
▁couchée	-14644
▁missions	-14645
▁insupportable	-14646
Oct	-14647
OMMA	-14648
▁FER	-14649
itieux	-14650
▁décoré	-14651
▁triang	-14652
▁empêché	-14653
ïs	-14654
ragé	-14655
inier	-14656
▁noix	-14657
▁poils	-14658
▁sociaux	-14659
▁galeries	-14660
▁renvoyer	-14661
▁lointains	-14662
▁témoignages	-14663
▁ste	-14664
aumont	-14665
▁acier	-14666
▁adapt	-14667
▁récip	-14668
Anglais	-14669
▁procède	-14670
▁rêverie	-14671
accomplir	-14672
▁fatiguée	-14673
▁mémoires	-14674
▁actuelles	-14675
▁entreprendre	-14676
He	-14677
▁Cou	-14678
épouse	-14679
▁rompu	-14680
▁étendus	-14681
▁aliments	-14682
▁répondant	-14683
▁manuscrits	-14684
▁Arts	-14685
▁secs	-14686
TIQUES	-14687
explos	-14688
▁gazon	-14689
▁noces	-14690
animaux	-14691
▁compté	-14692
▁invité	-14693
▁anonyme	-14694
▁dérange	-14695
▁PRODUITS	-14696
▁souvient	-14697
▁attendaient	-14698
▁PAS	-14699
▁lai	-14700
▁dudit	-14701
▁moléc	-14702
▁bandit	-14703
▁prompt	-14704
▁cultiver	-14705
▁confondre	-14706
▁rencontrent	-14707
▁spectateurs	-14708
▁tranquilles	-14709
amm	-14710
▁xx	-14711
venu	-14712
onymes	-14713
ophile	-14714
effectif	-14715
▁NO	-14716
▁Aur	-14717
▁Jul	-14718
uaire	-14719
▁Cart	-14720
▁diables	-14721
▁financières	-14722
▁inquiétudes	-14723
-*	-14724
ENTS	-14725
▁Fol	-14726
Victor	-14727
▁enver	-14728
▁patte	-14729
▁cruauté	-14730
▁ignorait	-14731
▁regardent	-14732
aissé	-14733
éville	-14734
▁Crois	-14735
▁poêle	-14736
▁réglé	-14737
accueil	-14738
▁mérité	-14739
▁enchanté	-14740
▁Normandie	-14741
▁démonstration	-14742
isons	-14743
▁Parlez	-14744
▁Friquet	-14745
▁silencieusement	-14746
rif	-14747
▁pép	-14748
UTION	-14749
▁pige	-14750
▁reflets	-14751
▁pêcheurs	-14752
▁reporter	-14753
▁attribuer	-14754
▁représentée	-14755
▁volontairement	-14756
▁Dal	-14757
▁pit	-14758
▁rén	-14759
Dessin	-14760
agères	-14761
▁sorci	-14762
▁bleues	-14763
▁dévoué	-14764
ographes	-14765
[...]
