{
  "version": "1.0",
  "truncation": null,
  "padding": null,
  "added_tokens": [
    {
      "id": 0,
      "content": "<|pad|>",
      "single_word": false,
      "lstrip": false,
      "rstrip": false,
      "normalized": false,
      "special": true
    },
    {
      "id": 1,
      "content": "<|eos|>",
      "single_word": false,
      "lstrip": false,
      "rstrip": false,
      "normalized": false,
      "special": true
    },
    {
      "id": 2,
      "content": "<|eof|>",
      "single_word": false,
      "lstrip": false,
      "rstrip": false,
      "normalized": false,
      "special": true
    },
    {
      "id": 3,
      "content": "<|user|>",
      "single_word": false,
      "lstrip": false,
      "rstrip": false,
      "normalized": false,
      "special": true
    },
    {
      "id": 4,
      "content": "<|assistant|>",
      "single_word": false,
      "lstrip": false,
      "rstrip": false,
      "normalized": false,
      "special": true
    }
  ],
  "normalizer": {
    "type": "NFC"
  },
  "pre_tokenizer": {
    "type": "Sequence",
    "pretokenizers": [
      {
        "type": "Split",
        "pattern": {
          "String": "[^\\r\\n\\p{L}\\p{N}]?[\\p{L}\\p{M}]+(?:['\\u2019][\\p{L}\\p{M}]+)*|\\p{N}{1,3}| ?[^\\s\\p{L}\\p{N}]+[\\r\\n]*|\\s*[\\r\\n]+|\\s+(?!\\S)|\\s+"
        },
        "behavior": "Isolated",
        "invert": false
      },
      {
        "type": "ByteLevel",
        "add_prefix_space": false,
        "trim_offsets": true,
        "use_regex": false
      }
    ]
  },
  "post_processor": null,
  "decoder": {
    "type": "ByteLevel",
    "add_prefix_space": true,
    "trim_offsets": true,
    "use_regex": true
  },
  "model": {
    "type": "BPE",
    "dropout": null,
    "unk_token": null,
    "continuing_subword_prefix": null,
    "end_of_word_suffix": null,
    "fuse_unk": false,
    "byte_fallback": false,
    "ignore_merges": false,
    "vocab": {
      "<|pad|>": 0,
      "<|eos|>": 1,
      "<|eof|>": 2,
      "<|user|>": 3,
      "<|assistant|>": 4,
      "!": 5,
      "\"": 6,
      "#": 7,
      "$": 8,
      "%": 9,
      "&": 10,
      "'": 11,
      "(": 12,
      ")": 13,
      "*": 14,
      "+": 15,
      ",": 16,
      "-": 17,
      ".": 18,
      "/": 19,
      "0": 20,
      "1": 21,
      "2": 22,
      "3": 23,
      "4": 24,
      "5": 25,
      "6": 26,
      "7": 27,
      "8": 28,
      "9": 29,
      ":": 30,
      ";": 31,
      "=": 32,
      "?": 33,
      "@": 34,
      "A": 35,
      "B": 36,
      "C": 37,
      "D": 38,
      "E": 39,
      "F": 40,
      "G": 41,
      "H": 42,
      "I": 43,
      "J": 44,
      "K": 45,
      "L": 46,
      "M": 47,
      "N": 48,
      "O": 49,
      "P": 50,
      "Q": 51,
      "R": 52,
      "S": 53,
      "T": 54,
      "U": 55,
      "V": 56,
      "W": 57,
      "X": 58,
      "Y": 59,
      "Z": 60,
      "[": 61,
      "]": 62,
      "^": 63,
      "_": 64,
      "`": 65,
      "a": 66,
      "b": 67,
      "c": 68,
      "d": 69,
      "e": 70,
      "f": 71,
      "g": 72,
      "h": 73,
      "i": 74,
      "j": 75,
      "k": 76,
      "l": 77,
      "m": 78,
      "n": 79,
      "o": 80,
      "p": 81,
      "q": 82,
      "r": 83,
      "s": 84,
      "t": 85,
      "u": 86,
      "v": 87,
      "w": 88,
      "x": 89,
      "y": 90,
      "z": 91,
      "{": 92,
      "|": 93,
      "}": 94,
      "~": 95,
      "¡": 96,
      "¢": 97,
      "£": 98,
      "¤": 99,
      "¥": 100,
      "¦": 101,
      "§": 102,
      "¨": 103,
      "©": 104,
      "ª": 105,
      "«": 106,
      "¬": 107,
      "®": 108,
      "¯": 109,
      "°": 110,
      "±": 111,
      "²": 112,
      "´": 113,
      "¶": 114,
      "·": 115,
      "¸": 116,
      "¹": 117,
      "º": 118,
      "»": 119,
      "¼": 120,
      "½": 121,
      "¿": 122,
      "Â": 123,
      "Ã": 124,
      "Å": 125,
      "Ð": 126,
      "â": 127,
      "ï": 128,
      "Ċ": 129,
      "Ġ": 130,
      "Ģ": 131,
      "ģ": 132,
      "Ĥ": 133,
      "Ħ": 134,
      "Ĩ": 135,
      "ĩ": 136,
      "Ī": 137,
      "ī": 138,
      "Ĭ": 139,
      "ĭ": 140,
      "į": 141,
      "İ": 142,
      "ı": 143,
      "Ĵ": 144,
      "ĵ": 145,
      "Ķ": 146,
      "ķ": 147,
      "ĸ": 148,
      "ĺ": 149,
      "Ļ": 150,
      "ļ": 151,
      "Ľ": 152,
      "ľ": 153,
      "Ŀ": 154,
      "ŀ": 155,
      "ł": 156,
      "eĠ": 157,
      "sĠ": 158,
      "Ã©": 159,
      "tĠ": 160,
      ".Ġ": 161,
      ",Ġ": 162,
      "on": 163,
      "en": 164,
      "esĠ": 165,
      "deĠ": 166,
      "an": 167,
      "ou": 168,
      "rĠ": 169,
      "ti": 170,
      "ai": 171,
      "aĠ": 172,
      "qu": 173,
      "es": 174,
      "leĠ": 175,
      "er": 176,
      "tr": 177,
      "eu": 178,
      "in": 179,
      "laĠ": 180,
      "ar": 181,
      "au": 182,
      "onĠ": 183,
      "em": 184,
      "etĠ": 185,
      "Ãł": 186,
      "ÃłĠ": 187,
      "pr": 188,
      "un": 189,
      "entĠ": 190,
      ".ĠĊ": 191,
      "is": 192,
      "lesĠ": 193,
      "âĢ": 194,
      "or": 195,
      "il": 196,
      "e,Ġ": 197,
      "ch": 198,
      "iĠ": 199,
      "el": 200,
      "Ã¨": 201,
      "om": 202,
      "reĠ": 203,
      "ĠĊ": 204,
      "pa": 205,
      "du": 206,
      "al": 207,
      "desĠ": 208,
      "l'": 209,
      "Ã©Ġ": 210,
      "teĠ": 211,
      "erĠ": 212,
      "enĠ": 213,
      "oi": 214,
      "queĠ": 215,
      "ati": 216,
      "su": 217,
      "di": 218,
      "li": 219,
      "duĠ": 220,
      "si": 221,
      "con": 222,
      "d'": 223,
      "Ã©r": 224,
      "av": 225,
      "ent": 226,
      "re": 227,
      "xĠ": 228,
      "ceĠ": 229,
      "aitĠ": 230,
      "âĢĻ": 231,
      "ansĠ": 232,
      "dÃ©": 233,
      "antĠ": 234,
      "rÃ©": 235,
      "pl": 236,
      "neĠ": 237,
      "unĠ": 238,
      "meĠ": 239,
      "it": 240,
      "âĢĶ": 241,
      "et": 242,
      "treĠ": 243,
      "seĠ": 244,
      "our": 245,
      "uneĠ": 246,
      "estĠ": 247,
      "Ãª": 248,
      "at": 249,
      "Ã©t": 250,
      "âĢĶĠ": 251,
      "ementĠ": 252,
      "onsĠ": 253,
      "ac": 254,
      "ilĠ": 255,
      "s,Ġ": 256,
      "com": 257,
      "deĠlaĠ": 258,
      "par": 259,
      "auĠ": 260,
      ";Ġ": 261,
      "ontĠ": 262,
      "e.Ġ": 263,
      "parĠ": 264,
      "ourĠ": 265,
      "ec": 266,
      "po": 267,
      "eur": 268,
      "ousĠ": 269,
      "ci": 270,
      "dansĠ": 271,
      "0Ġ": 272,
      "ag": 273,
      "quiĠ": 274,
      ":Ġ": 275,
      "ab": 276,
      "ri": 277,
      "es,Ġ": 278,
      "ss": 279,
      "am": 280,
      "ationĠ": 281,
      "ff": 282,
      "ap": 283,
      "pourĠ": 284,
      "ol": 285,
      "ain": 286,
      "ex": 287,
      "Ġ1": 288,
      "eurĠ": 289,
      "tionĠ": 290,
      "ouv": 291,
      "pro": 292,
      "sĠdeĠ": 293,
      "gr": 294,
      "dĠ": 295,
      "qu'": 296,
      "onn": 297,
      "surĠ": 298,
      ")Ġ": 299,
      "cu": 300,
      "im": 301,
      "Ã©eĠ": 302,
      "ant": 303,
      "elleĠ": 304,
      "vi": 305,
      "2Ġ": 306,
      "tu": 307,
      "plu": 308,
      "resĠ": 309,
      ".ĠL": 310,
      "tou": 311,
      "lĠ": 312,
      "prÃ©": 313,
      "euxĠ": 314,
      ".ĠâĢĶĠ": 315,
      "lu": 316,
      "ser": 317,
      "end": 318,
      "Ã©n": 319,
      "1Ġ": 320,
      "auxĠ": 321,
      "nĠ": 322,
      "fi": 323,
      "ter": 324,
      "lâĢĻ": 325,
      "Ã©sĠ": 326,
      ".ĠA": 327,
      "aisĠ": 328,
      "cesĠ": 329,
      "gn": 330,
      "sonĠ": 331,
      "19": 332,
      "EĠ": 333,
      "5Ġ": 334,
      "por": 335,
      "e.ĠĊ": 336,
      "..": 337,
      "ĠdeĠ": 338,
      "pu": 339,
      "pasĠ": 340,
      ".,Ġ": 341,
      "mo": 342,
      "Ã¨sĠ": 343,
      ".ĠI": 344,
      "plusĠ": 345,
      "ement": 346,
      "yĠ": 347,
      "fr": 348,
      "ev": 349,
      "Â»": 350,
      "deĠl'": 351,
      "Â«": 352,
      "t,Ġ": 353,
      "etteĠ": 354,
      "eursĠ": 355,
      "gu": 356,
      "ju": 357,
      "sesĠ": 358,
      "3Ġ": 359,
      "s'": 360,
      "ouĠ": 361,
      "dr": 362,
      "Ãī": 363,
      ".ĠC": 364,
      "ecĠ": 365,
      "tesĠ": 366,
      "Â°": 367,
      "isĠ": 368,
      ".Ġ1": 369,
      "ÃłĠlaĠ": 370,
      "alĠ": 371,
      "00": 372,
      "for": 373,
      "ca": 374,
      "ieĠ": 375,
      "Ã´": 376,
      "n'": 377,
      "aireĠ": 378,
      "Ã¨reĠ": 379,
      "ess": 380,
      "avecĠ": 381,
      "dâĢĻ": 382,
      "op": 383,
      "sontĠ": 384,
      "ez": 385,
      "ill": 386,
      "ang": 387,
      "per": 388,
      "Â«Ġ": 389,
      "Ã©esĠ": 390,
      "ob": 391,
      "peu": 392,
      "t-": 393,
      "ten": 394,
      "as": 395,
      "ver": 396,
      "cour": 397,
      "Ã§": 398,
      "Ã©ri": 399,
      "mÃª": 400,
      "oÃ": 401,
      "re,Ġ": 402,
      "ell": 403,
      "ll": 404,
      "and": 405,
      "SĠ": 406,
      "oitĠ": 407,
      "Ã©g": 408,
      "se": 409,
      "dis": 410,
      "st": 411,
      "cr": 412,
      "bi": 413,
      "4Ġ": 414,
      "8Ġ": 415,
      "emb": 416,
      "tionsĠ": 417,
      "itÃ©Ġ": 418,
      "no": 419,
      "ation": 420,
      "parti": 421,
      "mar": 422,
      "min": 423,
      "vousĠ": 424,
      "mÃ©": 425,
      "res": 426,
      "anc": 427,
      "siĠ": 428,
      "tresĠ": 429,
      "cetteĠ": 430,
      "anceĠ": 431,
      "LeĠ": 432,
      "ationsĠ": 433,
      "oisĠ": 434,
      "comm": 435,
      "port": 436,
      "cor": 437,
      "aientĠ": 438,
      "ezĠ": 439,
      "gÃ©n": 440,
      "saĠ": 441,
      "oup": 442,
      "oc": 443,
      "uĠ": 444,
      "inĠ": 445,
      "ÃªtreĠ": 446,
      "6Ġ": 447,
      "cl": 448,
      ".ĠE": 449,
      "Â°Ġ": 450,
      "ÃłĠl'": 451,
      "II": 452,
      "7Ġ": 453,
      "omb": 454,
      "ais": 455,
      "tÃ©Ġ": 456,
      "e-": 457,
      "oirĠ": 458,
      "mesĠ": 459,
      "quel": 460,
      "Ã©l": 461,
      "tri": 462,
      "jour": 463,
      "gÃ©nÃ©r": 464,
      "9Ġ": 465,
      "18": 466,
      "itĠ": 467,
      "quesĠ": 468,
      "iss": 469,
      "ageĠ": 470,
      "nousĠ": 471,
      "),Ġ": 472,
      "mÃªmeĠ": 473,
      "Ã©tÃ©Ġ": 474,
      "deuxĠ": 475,
      "ir": 476,
      "co": 477,
      "vo": 478,
      "ord": 479,
      "Ã¢": 480,
      "ad": 481,
      "commeĠ": 482,
      "!Ġ": 483,
      "int": 484,
      "mon": 485,
      "pos": 486,
      "enn": 487,
      "ass": 488,
      "toutĠ": 489,
      "iv": 490,
      "atĠ": 491,
      "ven": 492,
      "ier": 493,
      "ph": 494,
      "car": 495,
      "iÃ¨": 496,
      "luiĠ": 497,
      ".Ġ2": 498,
      "ach": 499,
      "fon": 500,
      "um": 501,
      "qu'ilĠ": 502,
      "fĠ": 503,
      "emp": 504,
      "LaĠ": 505,
      "sti": 506,
      "leurĠ": 507,
      "ur": 508,
      "enti": 509,
      "sur": 510,
      "lo": 511,
      "Ã©,Ġ": 512,
      "Ch": 513,
      "eff": 514,
      "Ã®": 515,
      "Ã©taitĠ": 516,
      ".ĠD": 517,
      "on,Ġ": 518,
      "jeĠ": 519,
      "cheĠ": 520,
      "cer": 521,
      "s.ĠĊ": 522,
      "br": 523,
      "att": 524,
      "+Ġ": 525,
      "cĠ": 526,
      "AĠ": 527,
      "abl": 528,
      "tsĠ": 529,
      "=Ġ": 530,
      "geĠ": 531,
      "ON": 532,
      "bl": 533,
      "vis": 534,
      "sansĠ": 535,
      "etĠdeĠ": 536,
      "ren": 537,
      "Ã©d": 538,
      "LesĠ": 539,
      "ellesĠ": 540,
      "bu": 541,
      "oÃ¹": 542,
      "veĠ": 543,
      "elĠ": 544,
      "enceĠ": 545,
      "ce": 546,
      "bienĠ": 547,
      "ann": 548,
      "gi": 549,
      "aiĠ": 550,
      "es.ĠĊ": 551,
      "comp": 552,
      "dontĠ": 553,
      "all": 554,
      "lt": 555,
      "entreĠ": 556,
      "dansĠlaĠ": 557,
      "ueĠ": 558,
      "prÃ¨sĠ": 559,
      "avaitĠ": 560,
      "cri": 561,
      ":ĠĊ": 562,
      "mentĠ": 563,
      "Â»Ġ": 564,
      "posi": 565,
      "ierĠ": 566,
      "TI": 567,
      "sionĠ": 568,
      ".ĠS": 569,
      "dev": 570,
      "aut": 571,
      "--": 572,
      "de": 573,
      "Ã©v": 574,
      "entr": 575,
      "d'uneĠ": 576,
      "oÃ¹Ġ": 577,
      "'estĠ": 578,
      ".ĠIlĠ": 579,
      "maisĠ": 580,
      "sou": 581,
      "aleĠ": 582,
      "prÃ©s": 583,
      "ern": 584,
      "fin": 585,
      "euĠ": 586,
      "app": 587,
      ".ĠM": 588,
      "ist": 589,
      "d'unĠ": 590,
      "eau": 591,
      "arti": 592,
      "ESĠ": 593,
      "IlĠ": 594,
      "ait": 595,
      "aill": 596,
      "10": 597,
      ".ĠP": 598,
      "entsĠ": 599,
      "?Ġ": 600,
      "donn": 601,
      "ois": 602,
      "faitĠ": 603,
      "empl": 604,
      "ER": 605,
      ".ĠLeĠ": 606,
      "irĠ": 607,
      "eauĠ": 608,
      "OnĠ": 609,
      "que,Ġ": 610,
      "ilsĠ": 611,
      "andĠ": 612,
      "rec": 613,
      "dem": 614,
      "ay": 615,
      "er,Ġ": 616,
      "AR": 617,
      "aiss": 618,
      "th": 619,
      "prem": 620,
      "eux": 621,
      "'Ġ": 622,
      "airesĠ": 623,
      "ard": 624,
      "intĠ": 625,
      "iseĠ": 626,
      "ens": 627,
      "Ar": 628,
      "gl": 629,
      "oy": 630,
      "val": 631,
      "contr": 632,
      ".00": 633,
      "cul": 634,
      "us": 635,
      "pon": 636,
      "col": 637,
      "aÃ®": 638,
      "TĠ": 639,
      "oĠ": 640,
      "trÃ¨sĠ": 641,
      "qui": 642,
      "Fr": 643,
      "mi": 644,
      "ul": 645,
      "ent,Ġ": 646,
      "aqueĠ": 647,
      "sol": 648,
      "pe": 649,
      "AN": 650,
      "man": 651,
      "serv": 652,
      "nomb": 653,
      "dansĠlesĠ": 654,
      "peutĠ": 655,
      ".)Ġ": 656,
      "et,Ġ": 657,
      "ineĠ": 658,
      "Qu": 659,
      "insĠ": 660,
      "EN": 661,
      "ableĠ": 662,
      "fer": 663,
      "L'": 664,
      ").ĠĊ": 665,
      "12": 666,
      "ementsĠ": 667,
      ".Ġ(": 668,
      "sp": 669,
      "UR": 670,
      "ditĠ": 671,
      "seu": 672,
      "out": 673,
      "inter": 674,
      "esĠdeĠ": 675,
      ".ĠJ": 676,
      "illeĠ": 677,
      "DEĠ": 678,
      "des": 679,
      "sid": 680,
      "lig": 681,
      "oci": 682,
      "reĠdeĠ": 683,
      "dansĠleĠ": 684,
      "pour": 685,
      "oul": 686,
      "Re": 687,
      "tin": 688,
      "parĠleĠ": 689,
      "trouv": 690,
      "faireĠ": 691,
      "tion": 692,
      "pend": 693,
      "omm": 694,
      "20": 695,
      "\"Ġ": 696,
      "Ã©m": 697,
      "temp": 698,
      "rel": 699,
      "march": 700,
      "don": 701,
      "pri": 702,
      "surĠleĠ": 703,
      "suiv": 704,
      "s-": 705,
      "fu": 706,
      "queĠleĠ": 707,
      "ot": 708,
      "sign": 709,
      "str": 710,
      "âĸ": 711,
      "âĸł": 712,
      "An": 713,
      "Ġ19": 714,
      "main": 715,
      "heur": 716,
      "Ã¨r": 717,
      "conn": 718,
      "Ã©qu": 719,
      "diff": 720,
      "lic": 721,
      "ement,Ġ": 722,
      "mal": 723,
      "aprÃ¨sĠ": 724,
      "tran": 725,
      "lleĠ": 726,
      "Ġ(": 727,
      "a,Ġ": 728,
      "16": 729,
      "iÃ¨reĠ": 730,
      "versĠ": 731,
      "tantĠ": 732,
      "Par": 733,
      "opÃ©r": 734,
      "teĠdeĠ": 735,
      "pris": 736,
      "tousĠ": 737,
      "aur": 738,
      "Mar": 739,
      "andeĠ": 740,
      "fai": 741,
      "soitĠ": 742,
      ".ĠR": 743,
      "surĠlaĠ": 744,
      "ctionĠ": 745,
      "ersĠ": 746,
      ".ĠG": 747,
      "14": 748,
      ",Ġp": 749,
      "ign": 750,
      "endreĠ": 751,
      "autĠ": 752,
      "os": 753,
      "30": 754,
      "D.ĠI": 755,
      "rap": 756,
      "anÃ§": 757,
      "vr": 758,
      "sy": 759,
      "gÃ©nÃ©ralĠ": 760,
      "15": 761,
      "pointĠ": 762,
      "192": 763,
      "sec": 764,
      "auss": 765,
      "quâĢĻ": 766,
      "fa": 767,
      "queĠlaĠ": 768,
      "voi": 769,
      "is,Ġ": 770,
      "nÃ©": 771,
      "etĠlesĠ": 772,
      "aj": 773,
      "CH": 774,
      "encor": 775,
      ".ĠLesĠ": 776,
      "oiĠ": 777,
      "autreĠ": 778,
      "Con": 779,
      "bleĠ": 780,
      ".ĠLaĠ": 781,
      "aff": 782,
      "off": 783,
      "leursĠ": 784,
      "dÃ©c": 785,
      "etĠlaĠ": 786,
      "visi": 787,
      "queĠlesĠ": 788,
      "Sain": 789,
      "pres": 790,
      "trav": 791,
      "In": 792,
      "arm": 793,
      "coup": 794,
      "enteĠ": 795,
      "form": 796,
      "sousĠ": 797,
      "puisĠ": 798,
      "crÃ©": 799,
      "IN": 800,
      "50": 801,
      "etĠleĠ": 802,
      "ig": 803,
      "ic": 804,
      "tiv": 805,
      "produ": 806,
      "joursĠ": 807,
      "lor": 808,
      "lon": 809,
      "stitu": 810,
      "avoirĠ": 811,
      "ventĠ": 812,
      "t.Ġ": 813,
      "enc": 814,
      "OR": 815,
      "Ġ1Ġ": 816,
      "cel": 817,
      "ensĠ": 818,
      "chang": 819,
      "pass": 820,
      ",ĠleĠ": 821,
      "surĠlesĠ": 822,
      "aux": 823,
      "sup": 824,
      "mil": 825,
      "peti": 826,
      "pi": 827,
      "Ã©tatĠ": 828,
      "cert": 829,
      "rem": 830,
      "17": 831,
      "arg": 832,
      "jus": 833,
      "anteĠ": 834,
      ".ĠN": 835,
      "indi": 836,
      "ommeĠ": 837,
      "air": 838,
      "s,ĠÃłĠ": 839,
      "met": 840,
      "eĠdeĠ": 841,
      "foisĠ": 842,
      "arr": 843,
      "Cl": 844,
      "fac": 845,
      "atu": 846,
      "ant,Ġ": 847,
      "ui": 848,
      "Åĵ": 849,
      "erĠlesĠ": 850,
      "*Ġ": 851,
      "aisonĠ": 852,
      "nouv": 853,
      "mÃ¨": 854,
      "te,Ġ": 855,
      ".000Ġ": 856,
      "QU": 857,
      "22": 858,
      "parĠlaĠ": 859,
      "cons": 860,
      "prÃ©sent": 861,
      "ainsiĠ": 862,
      "(1": 863,
      "me,Ġ": 864,
      "anti": 865,
      "parĠlesĠ": 866,
      "Ã©ĠdeĠ": 867,
      "13": 868,
      "toutesĠ": 869,
      "pendantĠ": 870,
      ",ĠetĠ": 871,
      "vol": 872,
      "inf": 873,
      "trans": 874,
      "eus": 875,
      "ES": 876,
      "pÃª": 877,
      "AL": 878,
      "fol": 879,
      "ici": 880,
      "autresĠ": 881,
      "aussiĠ": 882,
      "trait": 883,
      "pers": 884,
      "anĠ": 885,
      "ni": 886,
      "antsĠ": 887,
      "droi": 888,
      "encoreĠ": 889,
      "EĠĊ": 890,
      "erĠlaĠ": 891,
      "bat": 892,
      "moinsĠ": 893,
      "tĠdeĠ": 894,
      "Reim": 895,
      "c'estĠ": 896,
      "bli": 897,
      "pay": 898,
      "25": 899,
      "cal": 900,
      "pouv": 901,
      "enf": 902,
      "teĠduĠ": 903,
      "mĠ": 904,
      "mpr": 905,
      "ques": 906,
      "arri": 907,
      "UnĠ": 908,
      "sor": 909,
      "positionĠ": 910,
      "pt": 911,
      "titresĠ": 912,
      "seraĠ": 913,
      "coursĠ": 914,
      "ainĠ": 915,
      "ro": 916,
      ".Ġ3": 917,
      "erĠleĠ": 918,
      "mÃ©di": 919,
      "Ã©tr": 920,
      "Al": 921,
      "EnĠ": 922,
      "juin": 923,
      "Ã©e,Ġ": 924,
      ".ĠH": 925,
      "aineĠ": 926,
      "dern": 927,
      "nosĠ": 928,
      "oÃ»": 929,
      "notreĠ": 930,
      ",ĠÃłĠ": 931,
      "Ã»": 932,
      "dou": 933,
      "peuĠ": 934,
      "mes": 935,
      "ennem": 936,
      "gĠ": 937,
      "ouver": 938,
      "asĠ": 939,
      "10Ġ": 940,
      "aĠÃ©tÃ©Ġ": 941,
      "bour": 942,
      "cher": 943,
      "diffÃ©r": 944,
      "rÃ©gi": 945,
      "deĠReim": 946,
      "essi": 947,
      "Saint-": 948,
      "III": 949,
      "ari": 950,
      "group": 951,
      "entĠdeĠ": 952,
      "org": 953,
      "chaqueĠ": 954,
      "Tr": 955,
      "uiĠ": 956,
      "touteĠ": 957,
      "Ã©ch": 958,
      "cleĠ": 959,
      "gar": 960,
      "yĠaĠ": 961,
      "n'estĠ": 962,
      "ourn": 963,
      "aqu": 964,
      "can": 965,
      "âĸłĠ": 966,
      "mpr.,Ġ": 967,
      "troisĠ": 968,
      ".ĠB": 969,
      "iteĠ": 970,
      ";ĠĊ": 971,
      "ont": 972,
      "24": 973,
      "No": 974,
      "ceĠquiĠ": 975,
      "franÃ§": 976,
      "nonĠ": 977,
      "dÃ©f": 978,
      "embreĠ": 979,
      "oir": 980,
      "embl": 981,
      "cli": 982,
      "divisi": 983,
      "doitĠ": 984,
      "actionĠ": 985,
      "prÃ©c": 986,
      ".ĠOnĠ": 987,
      "eill": 988,
      "queĠl'": 989,
      "pourĠlaĠ": 990,
      "Ã©cu": 991,
      "cap": 992,
      "inci": 993,
      "gÃ©nÃ©ral": 994,
      "hi": 995,
      "TR": 996,
      "----": 997,
      "ber": 998,
      "Ã¨resĠ": 999,
      "AU": 1000,
      "etĠdesĠ": 1001,
      "erĠÃłĠ": 1002,
      "dreĠ": 1003,
      "nom": 1004,
      "re.ĠĊ": 1005,
      "onneĠ": 1006,
      "23": 1007,
      "contreĠ": 1008,
      "uni": 1009,
      "itÃ©": 1010,
      "tempsĠ": 1011,
      "ĠetĠ": 1012,
      "Â»ĠĊ": 1013,
      "Com": 1014,
      "20Ġ": 1015,
      "mati": 1016,
      "Ã©ĠÃłĠ": 1017,
      "iersĠ": 1018,
      "Di": 1019,
      "DI": 1020,
      "istr": 1021,
      "raĠ": 1022,
      "mor": 1023,
      "orsĠ": 1024,
      "avantĠ": 1025,
      "JeĠ": 1026,
      "ationĠdeĠ": 1027,
      "eur,Ġ": 1028,
      "jeu": 1029,
      "tionn": 1030,
      "deĠReims,ĠÃłĠ": 1031,
      "11": 1032,
      "j'": 1033,
      "act": 1034,
      ".ĠV": 1035,
      "Or": 1036,
      "erieĠ": 1037,
      "prim": 1038,
      "ein": 1039,
      "&lt": 1040,
      "ancesĠ": 1041,
      "TION": 1042,
      "cess": 1043,
      "ationĠdesĠ": 1044,
      "oli": 1045,
      "auc": 1046,
      "ectu": 1047,
      "command": 1048,
      "y,Ġ": 1049,
      "f.ĠA": 1050,
      "intÃ©r": 1051,
      "const": 1052,
      "seĠdeĠ": 1053,
      "fond": 1054,
      "ax": 1055,
      "tre,Ġ": 1056,
      "futĠ": 1057,
      "ation,Ġ": 1058,
      "possi": 1059,
      "itÃ©sĠ": 1060,
      "tousĠlesĠ": 1061,
      "e.ĠC": 1062,
      "armÃ©": 1063,
      "voy": 1064,
      "28": 1065,
      "dansĠl'": 1066,
      "ais,Ġ": 1067,
      "dĠ5": 1068,
      "doncĠ": 1069,
      "rÃ©su": 1070,
      "che": 1071,
      "Je": 1072,
      "direc": 1073,
      "mis": 1074,
      "jec": 1075,
      "50Ġ": 1076,
      ".Ġ4": 1077,
      "parĠl'": 1078,
      "sim": 1079,
      "jusqu'": 1080,
      "00Ġ": 1081,
      "tion,Ġ": 1082,
      "nÃ©g": 1083,
      "aire,Ġ": 1084,
      ")ĠĊ": 1085,
      "ori": 1086,
      "oni": 1087,
      "ret": 1088,
      "ligneĠ": 1089,
      "ensi": 1090,
      "gram": 1091,
      "entre": 1092,
      "ment": 1093,
      "usĠ": 1094,
      "chi": 1095,
      ",ĠilĠ": 1096,
      ".ĠEnĠ": 1097,
      "bou": 1098,
      "vou": 1099,
      "urĠ": 1100,
      "e),Ġ": 1101,
      "ins": 1102,
      "est": 1103,
      "vers": 1104,
      "pourĠlesĠ": 1105,
      "AT": 1106,
      "m'": 1107,
      "tiqueĠ": 1108,
      "C.ĠA": 1109,
      "âĢ¢": 1110,
      "particu": 1111,
      "esĠetĠ": 1112,
      "monĠ": 1113,
      "alis": 1114,
      "fl": 1115,
      "deĠlâĢĻ": 1116,
      "seul": 1117,
      "particuli": 1118,
      "direĠ": 1119,
      "erc": 1120,
      "Ã´m": 1121,
      "oireĠ": 1122,
      "ellementĠ": 1123,
      "LEĠ": 1124,
      "lÃ©g": 1125,
      "quelquesĠ": 1126,
      "adi": 1127,
      "zĠ": 1128,
      "D.ĠI.Ġ": 1129,
      "?ĠĊ": 1130,
      "servi": 1131,
      "personn": 1132,
      "15Ġ": 1133,
      "Q.ĠG": 1134,
      "import": 1135,
      "spÃ©": 1136,
      "pren": 1137,
      "ordĠ": 1138,
      "organ": 1139,
      "celleĠ": 1140,
      "teurĠ": 1141,
      "Ã©s,Ġ": 1142,
      "ili": 1143,
      "condi": 1144,
      "hĠ": 1145,
      "Ã©lÃ©": 1146,
      "les": 1147,
      "qu'elleĠ": 1148,
      "Â°Ġ1": 1149,
      "Ã©cri": 1150,
      "qu'onĠ": 1151,
      ")ĠetĠ": 1152,
      "toujoursĠ": 1153,
      "amb": 1154,
      "ET": 1155,
      "gag": 1156,
      "Ã´tĠ": 1157,
      "e;Ġ": 1158,
      "pourĠleĠ": 1159,
      ".ĠT": 1160,
      "constitu": 1161,
      "nu": 1162,
      "cetĠ": 1163,
      "achet": 1164,
      "compl": 1165,
      "eurs,Ġ": 1166,
      "...": 1167,
      "euseĠ": 1168,
      "jourĠ": 1169,
      "XĠ": 1170,
      "princi": 1171,
      "ablesĠ": 1172,
      "amp": 1173,
      ".ĠImpr.,Ġ": 1174,
      "tribu": 1175,
      ",ĠlaĠ": 1176,
      "anci": 1177,
      "ETĠ": 1178,
      "UneĠ": 1179,
      "fic": 1180,
      "publi": 1181,
      "OM": 1182,
      "terĠ": 1183,
      "trop": 1184,
      "rÃ¨": 1185,
      "capit": 1186,
      "lui": 1187,
      "cep": 1188,
      "Ã©s": 1189,
      "vreĠ": 1190,
      "fautĠ": 1191,
      "chezĠ": 1192,
      "ementĠdeĠ": 1193,
      "qua": 1194,
      "25Ġ": 1195,
      "eureĠ": 1196,
      "appar": 1197,
      "antĠleĠ": 1198,
      "tionĠdeĠ": 1199,
      "sâĢĻ": 1200,
      "niĠ": 1201,
      "2eĠ": 1202,
      "pli": 1203,
      "moy": 1204,
      ",ĠenĠ": 1205,
      "Ã©tu": 1206,
      "sÃ©": 1207,
      "stru": 1208,
      "-M": 1209,
      "alesĠ": 1210,
      "dâĢĻunĠ": 1211,
      "atsĠ": 1212,
      "pas": 1213,
      "Au": 1214,
      "29": 1215,
      "VI": 1216,
      "din": 1217,
      "pÃ©ri": 1218,
      "ÃłĠg": 1219,
      "tir": 1220,
      "ationĠduĠ": 1221,
      "ance,Ġ": 1222,
      "33": 1223,
      "plac": 1224,
      "premierĠ": 1225,
      "erĠdeĠ": 1226,
      ".ĠdeĠ": 1227,
      "eraĠ": 1228,
      "ommesĠ": 1229,
      "tementĠ": 1230,
      "tif": 1231,
      "dâĢĻuneĠ": 1232,
      ",Ġfol": 1233,
      "e.ĠâĢĶĠ": 1234,
      "frontĠ": 1235,
      "liqui": 1236,
      "crit": 1237,
      "certain": 1238,
      "votreĠ": 1239,
      "e.ĠIlĠ": 1240,
      "partieĠ": 1241,
      "OU": 1242,
      "ardĠ": 1243,
      "exeĠ": 1244,
      "guer": 1245,
      "nombreĠ": 1246,
      "t-ilĠ": 1247,
      "beau": 1248,
      "ru": 1249,
      "secon": 1250,
      "do": 1251,
      "onĠdeĠ": 1252,
      "pou": 1253,
      "Ã©di": 1254,
      "DansĠ": 1255,
      "nâĢĻ": 1256,
      "portĠ": 1257,
      "1.": 1258,
      "ers": 1259,
      "...Ġ": 1260,
      "27": 1261,
      "faceĠ": 1262,
      "bil": 1263,
      "mom": 1264,
      "nÂ°Ġ": 1265,
      "grandĠ": 1266,
      "aus": 1267,
      "d'h": 1268,
      "queĠdeĠ": 1269,
      "consid": 1270,
      "cÃ´": 1271,
      "âĢĶĠĊ": 1272,
      "tientĠ": 1273,
      "FranceĠ": 1274,
      "26": 1275,
      "a-": 1276,
      "men": 1277,
      "odeĠ": 1278,
      "prÃ¨": 1279,
      "uti": 1280,
      ",ĠlesĠ": 1281,
      "antĠlaĠ": 1282,
      "antĠlesĠ": 1283,
      "ciĠ": 1284,
      "ilĠestĠ": 1285,
      "soi": 1286,
      "lis": 1287,
      "rou": 1288,
      ".Ġ:Ġ": 1289,
      "partĠ": 1290,
      "cin": 1291,
      "depuisĠ": 1292,
      "livr": 1293,
      "orĠ": 1294,
      "alementĠ": 1295,
      "grandeĠ": 1296,
      ".ĠL'": 1297,
      "moi": 1298,
      "termin": 1299,
      "elle,Ġ": 1300,
      "quelĠ": 1301,
      "casĠ": 1302,
      "cou": 1303,
      "celuiĠ": 1304,
      "Ã©taientĠ": 1305,
      ":ĠÂ«Ġ": 1306,
      "12Ġ": 1307,
      "souv": 1308,
      "poli": 1309,
      "nexeĠ": 1310,
      "G.ĠA": 1311,
      "vueĠ": 1312,
      "franc": 1313,
      "occu": 1314,
      "190": 1315,
      "34": 1316,
      "pai": 1317,
      "Ã©e.Ġ": 1318,
      "respon": 1319,
      "IĠ": 1320,
      "Mf.ĠA": 1321,
      "toutesĠlesĠ": 1322,
      ",ĠĊ": 1323,
      "etĠl'": 1324,
      "prÃ©par": 1325,
      "puis": 1326,
      "jet": 1327,
      "eurĠdeĠ": 1328,
      "atureĠ": 1329,
      "lign": 1330,
      "cardin": 1331,
      "let": 1332,
      "suiteĠ": 1333,
      "0,": 1334,
      "premiÃ¨reĠ": 1335,
      "loiĠ": 1336,
      "exÃ©cu": 1337,
      "ne,Ġ": 1338,
      "esseĠ": 1339,
      "EL": 1340,
      "IS": 1341,
      "spÃ©ci": 1342,
      "gneĠ": 1343,
      "aceĠ": 1344,
      "eauxĠ": 1345,
      "pens": 1346,
      "leĠdeĠ": 1347,
      "opÃ©rationsĠ": 1348,
      "Em": 1349,
      "fam": 1350,
      "piÃ¨": 1351,
      ".Ġ5": 1352,
      "ordreĠ": 1353,
      "ait,Ġ": 1354,
      "considÃ©r": 1355,
      "Ã©es,Ġ": 1356,
      "conc": 1357,
      "proc": 1358,
      "fix": 1359,
      "ouvern": 1360,
      "tenirĠ": 1361,
      "ceuxĠ": 1362,
      "in,Ġ": 1363,
      "prendreĠ": 1364,
      "meĠdeĠ": 1365,
      ".ĠMaisĠ": 1366,
      "AuĠ": 1367,
      "pagn": 1368,
      "de,Ġ": 1369,
      ".ĠAĠ": 1370,
      "Ã¨re,Ġ": 1371,
      ".Ġ7": 1372,
      "nÃ©goci": 1373,
      "OUR": 1374,
      "Ãªt": 1375,
      "dansĠunĠ": 1376,
      "ementĠdesĠ": 1377,
      "30Ġ": 1378,
      "mai": 1379,
      "sal": 1380,
      "compteĠ": 1381,
      "Loi": 1382,
      "doi": 1383,
      "mouv": 1384,
      "situ": 1385,
      ".ĠImpr.,ĠÃ©d": 1386,
      "nÃ©cess": 1387,
      "cat": 1388,
      "eux,Ġ": 1389,
      "MaisĠ": 1390,
      "lors": 1391,
      "LAĠ": 1392,
      "seign": 1393,
      "eĠetĠ": 1394,
      "voirĠ": 1395,
      "ail": 1396,
      "point": 1397,
      "longu": 1398,
      "hy": 1399,
      "alorsĠ": 1400,
      "....": 1401,
      "(1)Ġ": 1402,
      "MÃī": 1403,
      "droitĠ": 1404,
      "rÃ©sult": 1405,
      "agesĠ": 1406,
      "sĠdeĠl'": 1407,
      "âĸłĠMf.ĠA": 1408,
      "Ã¯": 1409,
      ".ĠQu": 1410,
      "chev": 1411,
      "nÂ°Ġ1": 1412,
      "chesĠ": 1413,
      "iÃ¨meĠ": 1414,
      "ÃłĠdr": 1415,
      "ativ": 1416,
      "Jean": 1417,
      "isi": 1418,
      "PourĠ": 1419,
      "armÃ©eĠ": 1420,
      "maj": 1421,
      "ceĠqueĠ": 1422,
      ".ĠDansĠ": 1423,
      "attaqueĠ": 1424,
      "cur": 1425,
      "IT": 1426,
      "fais": 1427,
      "lieu": 1428,
      "dÃ©j": 1429,
      "35": 1430,
      "teĠduĠS": 1431,
      "quandĠ": 1432,
      "arĠ": 1433,
      "fÃ©r": 1434,
      "raitĠ": 1435,
      "tureĠ": 1436,
      "char": 1437,
      "exc": 1438,
      "1ĠĊ": 1439,
      "ba": 1440,
      "Ã©tatĠ:Ġ": 1441,
      "prisĠ": 1442,
      "eri": 1443,
      "porteĠ": 1444,
      "Ã©quationĠ": 1445,
      ",ĠdeĠ": 1446,
      "mesu": 1447,
      "organis": 1448,
      "iÃ¨resĠ": 1449,
      "ministr": 1450,
      "valeursĠ": 1451,
      "NoteĠduĠS": 1452,
      "centi": 1453,
      "fonc": 1454,
      "ÃłĠuneĠ": 1455,
      "conse": 1456,
      "rÃ©pon": 1457,
      "prof": 1458,
      "rÃ©s": 1459,
      "seĠtrouv": 1460,
      "ĠD": 1461,
      "&lt;": 1462,
      "jam": 1463,
      "ons,Ġ": 1464,
      "ing": 1465,
      "autr": 1466,
      "entesĠ": 1467,
      "pÃ©r": 1468,
      "mÃ©t": 1469,
      "umĠ": 1470,
      "suff": 1471,
      "tabl": 1472,
      "e,ĠleĠ": 1473,
      "NoteĠduĠS.ĠH": 1474,
      "rÃ©eĠ": 1475,
      "parĠunĠ": 1476,
      "misĠ": 1477,
      "esti": 1478,
      "peuventĠ": 1479,
      "le": 1480,
      "enneĠ": 1481,
      "suc": 1482,
      "vientĠ": 1483,
      "Ã§onĠ": 1484,
      "avonsĠ": 1485,
      "appel": 1486,
      "vari": 1487,
      "ect": 1488,
      "ÃłĠunĠ": 1489,
      "lâĢĻonĠ": 1490,
      "embleĠ": 1491,
      "ÃłĠlâĢĻ": 1492,
      "tÃ©ĠdeĠ": 1493,
      "sĠetĠ": 1494,
      "est-": 1495,
      "reprÃ©sent": 1496,
      "liquid": 1497,
      "et-": 1498,
      "aÃ®treĠ": 1499,
      "prisesĠ": 1500,
      "11Ġ": 1501,
      "carĠ": 1502,
      "fem": 1503,
      "cho": 1504,
      "ATION": 1505,
      "juinĠ19": 1506,
      "dĠ59Ġ": 1507,
      "antĠdeĠ": 1508,
      "chiff": 1509,
      "te": 1510,
      "extr": 1511,
      "G.Ġ": 1512,
      "alitÃ©Ġ": 1513,
      "articleĠ": 1514,
      "tropĠ": 1515,
      "minu": 1516,
      "oÃ»tĠ": 1517,
      "36": 1518,
      "40": 1519,
      "cherĠ": 1520,
      "dÃ©l": 1521,
      "id": 1522,
      "iqueĠ": 1523,
      "vend": 1524,
      "eusesĠ": 1525,
      "dÃ©cl": 1526,
      "solu": 1527,
      "contin": 1528,
      "serontĠ": 1529,
      "marchÃ©Ġ": 1530,
      "LO": 1531,
      "ireĠ": 1532,
      "Ã©.ĠĊ": 1533,
      "chÃ´m": 1534,
      "e.ĠE": 1535,
      "2,Ġ": 1536,
      "x,Ġ": 1537,
      "antesĠ": 1538,
      "reg": 1539,
      "ÃªteĠ": 1540,
      "grav": 1541,
      "rig": 1542,
      "Ã©trang": 1543,
      "itÃ©,Ġ": 1544,
      "positionsĠ": 1545,
      "Ã©con": 1546,
      "Bour": 1547,
      "Â»,Ġ": 1548,
      "aire": 1549,
      "etĠduĠ": 1550,
      "terr": 1551,
      "blesĠ": 1552,
      "D'": 1553,
      "gt": 1554,
      "e,ĠetĠ": 1555,
      "connaiss": 1556,
      "dessu": 1557,
      "jug": 1558,
      "IV": 1559,
      "vel": 1560,
      "onsĠdeĠ": 1561,
      "seraitĠ": 1562,
      "artill": 1563,
      "!ĠĊ": 1564,
      "ayantĠ": 1565,
      "38": 1566,
      "itu": 1567,
      "coupĠ": 1568,
      "1.ĠĊ": 1569,
      "assezĠ": 1570,
      "Gr": 1571,
      "y-": 1572,
      "dansĠuneĠ": 1573,
      "PR": 1574,
      "LE": 1575,
      "parl": 1576,
      "milli": 1577,
      "ontĠÃ©tÃ©Ġ": 1578,
      "ÃīR": 1579,
      "18Ġ": 1580,
      "reÃ§": 1581,
      "hab": 1582,
      "maĠ": 1583,
      "pritĠ": 1584,
      "abli": 1585,
      "Ã¨v": 1586,
      "Ã¨meĠ": 1587,
      "actu": 1588,
      "quatreĠ": 1589,
      "andesĠ": 1590,
      "opp": 1591,
      "indu": 1592,
      "Mat": 1593,
      "Ã©p": 1594,
      "qu'ilsĠ": 1595,
      "Ã¨rentĠ": 1596,
      "concer": 1597,
      "demand": 1598,
      "Ãł-": 1599,
      "dess": 1600,
      "laiss": 1601,
      "arqu": 1602,
      "sidentĠ": 1603,
      "qui,Ġ": 1604,
      "Åĵu": 1605,
      "Uni": 1606,
      "tionĠdesĠ": 1607,
      "lieuĠ": 1608,
      "corp": 1609,
      "37": 1610,
      "dÃ©jÃłĠ": 1611,
      "memb": 1612,
      "deĠcesĠ": 1613,
      "estĠleĠ": 1614,
      "illesĠ": 1615,
      "offici": 1616,
      "ÃªtĠ": 1617,
      "Ġ18": 1618,
      "n'estĠpasĠ": 1619,
      "queĠjeĠ": 1620,
      "avant": 1621,
      "grand": 1622,
      "surĠl'": 1623,
      "n'aĠ": 1624,
      "ez-": 1625,
      "journ": 1626,
      "ond": 1627,
      "erĠl'": 1628,
      "activ": 1629,
      "Ã©conom": 1630,
      "2.ĠĊ": 1631,
      "AB": 1632,
      "Ġ2Ġ": 1633,
      "pÃªcheĠ": 1634,
      "administr": 1635,
      "2.": 1636,
      "cau": 1637,
      "coloni": 1638,
      "Ex": 1639,
      "Pr": 1640,
      "Ã©li": 1641,
      "auraitĠ": 1642,
      "queĠnousĠ": 1643,
      "pen": 1644,
      "ts": 1645,
      "&gt": 1646,
      "lÃłĠ": 1647,
      "AP": 1648,
      "RÃ©": 1649,
      "inst": 1650,
      "dÃ©t": 1651,
      "Ã¨rementĠ": 1652,
      "ennemiĠ": 1653,
      "G.ĠQ.ĠG": 1654,
      "LI": 1655,
      "AnnexeĠ": 1656,
      ").Ġ": 1657,
      "actionsĠ": 1658,
      "laqu": 1659,
      ".ĠImpr.,ĠÃ©d.ĠA": 1660,
      "asseĠ": 1661,
      "etĠÃłĠ": 1662,
      "assur": 1663,
      "cir": 1664,
      "DEĠB": 1665,
      "isteĠ": 1666,
      "valeurĠ": 1667,
      "changeĠ": 1668,
      "ennentĠ": 1669,
      "mettreĠ": 1670,
      "kĠ": 1671,
      "jamaisĠ": 1672,
      "mul": 1673,
      "pourĠl'": 1674,
      "prixĠ": 1675,
      "All": 1676,
      "iti": 1677,
      "ÃĪ": 1678,
      "ailĠ": 1679,
      "formeĠ": 1680,
      "eutĠ": 1681,
      "ques,Ġ": 1682,
      "at,Ġ": 1683,
      "avi": 1684,
      "tenantĠ": 1685,
      "189": 1686,
      "auv": 1687,
      "charg": 1688,
      "qĠ": 1689,
      "E.ĠĊ": 1690,
      "cessi": 1691,
      "courb": 1692,
      "60": 1693,
      "pÃ¨": 1694,
      "illetĠ": 1695,
      "erci": 1696,
      "istreĠ": 1697,
      "avecĠleĠ": 1698,
      "ouvri": 1699,
      "mÃ¨tresĠ": 1700,
      "UĠ": 1701,
      "cont": 1702,
      "moin": 1703,
      "prati": 1704,
      "mu": 1705,
      "ordonn": 1706,
      "crÃ©ditĠ": 1707,
      "velopp": 1708,
      "e,ĠlaĠ": 1709,
      "Ã©ro": 1710,
      "syph": 1711,
      "1,Ġ": 1712,
      "vir": 1713,
      ".ĠJeĠ": 1714,
      ".ĠCeĠ": 1715,
      "oin": 1716,
      "erĠdesĠ": 1717,
      "rienĠ": 1718,
      ".ĠJ.,Ġ": 1719,
      "conditionsĠ": 1720,
      "dÃ©fin": 1721,
      ".ĠF": 1722,
      "al,Ġ": 1723,
      "sieursĠ": 1724,
      "num": 1725,
      "laquelleĠ": 1726,
      "fourn": 1727,
      "iesĠ": 1728,
      "dÃ©termin": 1729,
      "sub": 1730,
      "bÃ©n": 1731,
      "lev": 1732,
      "nesĠ": 1733,
      "soci": 1734,
      "tot": 1735,
      "bes": 1736,
      "Â».ĠĊ": 1737,
      "dÃ¨sĠ": 1738,
      "lsĠ": 1739,
      "pasĠdeĠ": 1740,
      "pleĠ": 1741,
      "vill": 1742,
      "arriv": 1743,
      "not": 1744,
      "SiĠ": 1745,
      "Ġ=Ġ": 1746,
      "erĠuneĠ": 1747,
      "confi": 1748,
      "oblig": 1749,
      "ban": 1750,
      "sĠd'": 1751,
      "NousĠ": 1752,
      "PrÃ©": 1753,
      "hommeĠ": 1754,
      "Paris,Ġ": 1755,
      "tÃ©": 1756,
      "en,Ġ": 1757,
      "encesĠ": 1758,
      "ceĠdeĠ": 1759,
      "Su": 1760,
      "e,ĠilĠ": 1761,
      "accor": 1762,
      "LESĠ": 1763,
      "16Ġ": 1764,
      "31Ġ": 1765,
      "peĠ": 1766,
      "Ã©eĠdeĠ": 1767,
      "seulementĠ": 1768,
      "2Â°Ġ": 1769,
      "48": 1770,
      "DeĠ": 1771,
      ".Ġ10": 1772,
      "5ĠĊ": 1773,
      "queĠvousĠ": 1774,
      "ris": 1775,
      "erĠunĠ": 1776,
      "Sa": 1777,
      "elsĠ": 1778,
      "tan": 1779,
      "effectu": 1780,
      "(2": 1781,
      "14Ġ": 1782,
      "dom": 1783,
      "engag": 1784,
      "crip": 1785,
      "pÃªch": 1786,
      "CeĠ": 1787,
      "coll": 1788,
      "C'estĠ": 1789,
      "injec": 1790,
      "3ĠĊ": 1791,
      "allem": 1792,
      "rÃ©serv": 1793,
      "parĠdesĠ": 1794,
      "onc": 1795,
      "Loire": 1796,
      "MĠ": 1797,
      "outch": 1798,
      "39": 1799,
      "Ã©sĠÃłĠ": 1800,
      "3,Ġ": 1801,
      "montr": 1802,
      "siÃ¨": 1803,
      "Ã©tabli": 1804,
      "donneĠ": 1805,
      "2ĠeĠ": 1806,
      "modi": 1807,
      "faÃ§onĠ": 1808,
      "chac": 1809,
      "observ": 1810,
      "1Â°Ġ": 1811,
      "ammentĠ": 1812,
      "err": 1813,
      "abil": 1814,
      "ĠdeĠl'": 1815,
      "employ": 1816,
      "prÃ©cÃ©d": 1817,
      "momentĠ": 1818,
      "que.Ġ": 1819,
      "cellesĠ": 1820,
      ".Ġ8": 1821,
      "etĠd'": 1822,
      "oÃ¯": 1823,
      ".Ġ9": 1824,
      "sit": 1825,
      ".Ġ6": 1826,
      "celaĠ": 1827,
      "100Ġ": 1828,
      "bonĠ": 1829,
      "doiventĠ": 1830,
      "3.ĠĊ": 1831,
      "Comm": 1832,
      "cardinalĠ": 1833,
      "2ĠĊ": 1834,
      "dÃ©ci": 1835,
      "in-": 1836,
      "entreĠlesĠ": 1837,
      "o,Ġ": 1838,
      "etsĠ": 1839,
      "heuresĠ": 1840,
      "En": 1841,
      "dÃ©clar": 1842,
      "stri": 1843,
      "figu": 1844,
      "Mon": 1845,
      "tÃ©lÃ©": 1846,
      "vu": 1847,
      "leĠplusĠ": 1848,
      ".,ĠleĠ": 1849,
      "0ĠĊ": 1850,
      "plusieursĠ": 1851,
      "OT": 1852,
      "erĠenĠ": 1853,
      "Ã©tantĠ": 1854,
      "3.": 1855,
      "parĠuneĠ": 1856,
      "etĠdeĠlaĠ": 1857,
      "pul": 1858,
      "Min": 1859,
      "hum": 1860,
      "grÃ©Ġ": 1861,
      "finĠ": 1862,
      "er.ĠĊ": 1863,
      "e,ĠlesĠ": 1864,
      "atisti": 1865,
      "neĠpeutĠ": 1866,
      "inc": 1867,
      "QUEĠ": 1868,
      "~Ġ": 1869,
      "quelqueĠ": 1870,
      "surtoutĠ": 1871,
      "5,Ġ": 1872,
      "-dessu": 1873,
      "autor": 1874,
      "EtĠ": 1875,
      ".ĠâĢĶĠLeĠ": 1876,
      ".ĠElleĠ": 1877,
      "prÃ©senteĠ": 1878,
      "ho": 1879,
      "mir": 1880,
      "sÃ©r": 1881,
      "rÃ©g": 1882,
      "chefĠ": 1883,
      "DÃ©": 1884,
      "Ju": 1885,
      "caract": 1886,
      "surĠunĠ": 1887,
      "cosĠ": 1888,
      "artillerieĠ": 1889,
      "c'": 1890,
      "vÃ©r": 1891,
      "pag": 1892,
      "Ġ10": 1893,
      "termeĠ": 1894,
      "hÃ©": 1895,
      "mou": 1896,
      "mÃªmesĠ": 1897,
      "28Ġ": 1898,
      "oid": 1899,
      "ress": 1900,
      "Ã©tabl": 1901,
      "titu": 1902,
      "resteĠ": 1903,
      "effet,Ġ": 1904,
      "jeuneĠ": 1905,
      "Ã©lev": 1906,
      "ich": 1907,
      "tÃ©sĠ": 1908,
      "oign": 1909,
      "prÃ©ci": 1910,
      ".-": 1911,
      "aiseĠ": 1912,
      "priseĠ": 1913,
      "il,Ġ": 1914,
      "entsĠdeĠ": 1915,
      "assi": 1916,
      "feu": 1917,
      "aires,Ġ": 1918,
      "membresĠ": 1919,
      "tex": 1920,
      "contre-": 1921,
      "Ser": 1922,
      "mer": 1923,
      "^Ġ": 1924,
      "part": 1925,
      "vieĠ": 1926,
      "Allem": 1927,
      "commun": 1928,
      "Ã©lÃ©m": 1929,
      "s'ilĠ": 1930,
      ".ĠC'estĠ": 1931,
      "possibleĠ": 1932,
      "Ã©fi": 1933,
      "deĠsonĠ": 1934,
      "avr": 1935,
      "aisseĠ": 1936,
      "rempl": 1937,
      "grap": 1938,
      "adr": 1939,
      "veill": 1940,
      "aug": 1941,
      "onĠaĠ": 1942,
      "rÃ©du": 1943,
      "Lou": 1944,
      "raisonĠ": 1945,
      "etĠenĠ": 1946,
      "13Ġ": 1947,
      "17Ġ": 1948,
      "be": 1949,
      "tang": 1950,
      "avaientĠ": 1951,
      "IL": 1952,
      "placeĠ": 1953,
      "e.ĠLeĠ": 1954,
      "avecĠlaĠ": 1955,
      "volu": 1956,
      "7,Ġ": 1957,
      "ray": 1958,
      "MEN": 1959,
      "jĠ": 1960,
      "--------": 1961,
      "adeĠ": 1962,
      "basĠ": 1963,
      "jou": 1964,
      ".ĠEtĠ": 1965,
      "45": 1966,
      "dÃ©si": 1967,
      "propri": 1968,
      "j'aiĠ": 1969,
      "sembl": 1970,
      "zeĠ": 1971,
      "ouĠdeĠ": 1972,
      "âĢĻĠ": 1973,
      "Conse": 1974,
      "cam": 1975,
      "unĠpeuĠ": 1976,
      "aucuneĠ": 1977,
      "atur": 1978,
      "nombr": 1979,
      "entreprisesĠ": 1980,
      "0/": 1981,
      "estĠdeĠ": 1982,
      "hu": 1983,
      "aitĠÃłĠ": 1984,
      "anch": 1985,
      "es-": 1986,
      "aud": 1987,
      "serveĠ": 1988,
      "fois": 1989,
      "Ã©ĠenĠ": 1990,
      "erĠauĠ": 1991,
      "proch": 1992,
      "compt": 1993,
      "cro": 1994,
      "juinĠ1918": 1995,
      "og": 1996,
      "tuĠ": 1997,
      "pressionĠ": 1998,
      "rÃ´": 1999,
      "expl": 2000,
      "ouvr": 2001,
      "AnnexeĠnÂ°Ġ1": 2002,
      "t.ĠĊ": 2003,
      "correspon": 2004,
      "reli": 2005,
      "hommesĠ": 2006,
      "ong": 2007,
      "liv": 2008,
      "JeanneĠ": 2009,
      "DĠ": 2010,
      "idÃ©": 2011,
      "e,ĠenĠ": 2012,
      "sept": 2013,
      "ers,Ġ": 2014,
      "quiĠseĠ": 2015,
      "puiss": 2016,
      "Ã©galementĠ": 2017,
      "occup": 2018,
      "nation": 2019,
      "quâĢĻilĠ": 2020,
      "Et": 2021,
      "indiqu": 2022,
      "fitĠ": 2023,
      "Ã¢t": 2024,
      "pointĠdeĠ": 2025,
      "jusqu'ÃłĠ": 2026,
      "souventĠ": 2027,
      "49": 2028,
      ".Ġ15": 2029,
      "loc": 2030,
      "dÃ©velopp": 2031,
      "qu'unĠ": 2032,
      "endu": 2033,
      "leĠs": 2034,
      "droiteĠ": 2035,
      "aucunĠ": 2036,
      "ett": 2037,
      "puĠ": 2038,
      "ÃīT": 2039,
      "ations": 2040,
      "78": 2041,
      "zon": 2042,
      "ons": 2043,
      "tru": 2044,
      "etc": 2045,
      "Ãīt": 2046,
      "outchou": 2047,
      "juinĠ": 2048,
      "lesĠplusĠ": 2049,
      "tionĠduĠ": 2050,
      "endr": 2051,
      "s'estĠ": 2052,
      "aÃ®tĠ": 2053,
      "40Ġ": 2054,
      "ali": 2055,
      "dic": 2056,
      "rÃ©gionĠ": 2057,
      "vuĠ": 2058,
      "Ã©eĠÃłĠ": 2059,
      "ement.ĠĊ": 2060,
      "fav": 2061,
      "tifĠ": 2062,
      "gro": 2063,
      "ParisĠ": 2064,
      "lesquel": 2065,
      "St": 2066,
      "seulĠ": 2067,
      "traitementĠ": 2068,
      "grammeĠ": 2069,
      "eilĠ": 2070,
      "troup": 2071,
      "lim": 2072,
      "ailleursĠ": 2073,
      "Pu": 2074,
      "eĠD.ĠI.Ġ": 2075,
      "rÃ¨gl": 2076,
      "fau": 2077,
      "eĠarmÃ©": 2078,
      "1,": 2079,
      "J'": 2080,
      "Rom": 2081,
      "hautĠ": 2082,
      "prom": 2083,
      "opÃ©rationĠ": 2084,
      "OURS": 2085,
      "Mont": 2086,
      "mat": 2087,
      "alli": 2088,
      "neĠs": 2089,
      "pie": 2090,
      "bal": 2091,
      "report": 2092,
      "avecĠuneĠ": 2093,
      "Gu": 2094,
      "quanti": 2095,
      "si,Ġ": 2096,
      "sionsĠ": 2097,
      "partirĠ": 2098,
      "devantĠ": 2099,
      "46": 2100,
      "cy": 2101,
      "hau": 2102,
      "voul": 2103,
      "part,Ġ": 2104,
      ";ĠilĠ": 2105,
      "ailleĠ": 2106,
      "etĠquiĠ": 2107,
      "câĢĻ": 2108,
      "dÃ©b": 2109,
      "s,ĠlesĠ": 2110,
      "caoutchou": 2111,
      "Ã©rieur": 2112,
      "applic": 2113,
      "ateĠ": 2114,
      "Ã«": 2115,
      "tro": 2116,
      "ors": 2117,
      "d'Ar": 2118,
      "tres,Ġ": 2119,
      "elleĠestĠ": 2120,
      "ieĠdeĠ": 2121,
      "voitĠ": 2122,
      "AC": 2123,
      "âĢ¢Ġ": 2124,
      "beaucoupĠ": 2125,
      "89": 2126,
      "VousĠ": 2127,
      "Ã©cl": 2128,
      "GR": 2129,
      "resĠdeĠ": 2130,
      "continu": 2131,
      "cent": 2132,
      "itsĠ": 2133,
      "age,Ġ": 2134,
      "1ĠerĠ": 2135,
      "petiteĠ": 2136,
      "AD": 2137,
      "000Ġ": 2138,
      "e-et-": 2139,
      "fondĠ": 2140,
      "GÃī": 2141,
      "aires": 2142,
      "el,Ġ": 2143,
      "avecĠlesĠ": 2144,
      "500Ġ": 2145,
      "principa": 2146,
      "G.ĠA.ĠR": 2147,
      "2,": 2148,
      "aoÃ»tĠ": 2149,
      "es.Ġ": 2150,
      "instru": 2151,
      "âĢľ": 2152,
      "bun": 2153,
      "se,Ġ": 2154,
      "ans,Ġ": 2155,
      "suisĠ": 2156,
      "condu": 2157,
      "elle-": 2158,
      "Ã¨re": 2159,
      "juilletĠ": 2160,
      "dam": 2161,
      "mag": 2162,
      "immÃ©di": 2163,
      "demandeĠ": 2164,
      "partiesĠ": 2165,
      "prisonn": 2166,
      "eilleĠ": 2167,
      ".ĠleĠ": 2168,
      "deĠcetteĠ": 2169,
      "consÃ©qu": 2170,
      ".ĠCetteĠ": 2171,
      "multi": 2172,
      "moisĠ": 2173,
      "produitĠ": 2174,
      "situationĠ": 2175,
      "complÃ¨": 2176,
      "_Ġ": 2177,
      "entĠÃłĠ": 2178,
      "alĠdeĠ": 2179,
      "obten": 2180,
      "bÃ©nÃ©fi": 2181,
      "47": 2182,
      "CI": 2183,
      "aitĠdeĠ": 2184,
      "antĠÃłĠ": 2185,
      "le,Ġ": 2186,
      "entĠlesĠ": 2187,
      "compagn": 2188,
      "fortĠ": 2189,
      "missionĠ": 2190,
      "amen": 2191,
      "RI": 2192,
      "on.ĠĊ": 2193,
      "margeĠ": 2194,
      "prendĠ": 2195,
      "N.)Ġ": 2196,
      "eĠB": 2197,
      "Es": 2198,
      "blic": 2199,
      "sĠdesĠ": 2200,
      "orig": 2201,
      "coursĠdeĠ": 2202,
      "ordin": 2203,
      "Mathi": 2204,
      "PÃī": 2205,
      "SI": 2206,
      "hist": 2207,
      "nor": 2208,
      "tor": 2209,
      "conven": 2210,
      "fermeĠ": 2211,
      ",Ġl'": 2212,
      "dÃ©s": 2213,
      "mes,Ġ": 2214,
      "Ã©ĠparĠ": 2215,
      "ence,Ġ": 2216,
      "eusementĠ": 2217,
      "eti": 2218,
      "utĠ": 2219,
      "ÃªtesĠ": 2220,
      "deĠsesĠ": 2221,
      "NÂ°Ġ": 2222,
      "ah": 2223,
      "fait": 2224,
      "p.Ġ1": 2225,
      "plusĠdeĠ": 2226,
      "aux,Ġ": 2227,
      "ct": 2228,
      "ementĠduĠ": 2229,
      "Ã©rieurĠ": 2230,
      "primeĠ": 2231,
      "lettreĠ": 2232,
      "eĠD": 2233,
      "ale,Ġ": 2234,
      "80": 2235,
      "quoiĠ": 2236,
      "erĠetĠ": 2237,
      "itesĠ": 2238,
      "quiĠneĠ": 2239,
      "qu'uneĠ": 2240,
      "193": 2241,
      "justi": 2242,
      "suffis": 2243,
      "poss": 2244,
      "Ã¨reĠdeĠ": 2245,
      "/Ġ": 2246,
      "AJ": 2247,
      "Ã¨neĠ": 2248,
      "lib": 2249,
      "conserv": 2250,
      "d'ab": 2251,
      "e.ĠLaĠ": 2252,
      "eurs": 2253,
      "Cler": 2254,
      "gouvern": 2255,
      "to": 2256,
      "EdĠ59Ġ": 2257,
      "lÃ©": 2258,
      "rac": 2259,
      "Ã©ĠauĠ": 2260,
      "Char": 2261,
      "ajout": 2262,
      "petitĠ": 2263,
      "75": 2264,
      "e)Ġ": 2265,
      "natur": 2266,
      "inesĠ": 2267,
      "Ã©tat": 2268,
      "comb": 2269,
      "mÃªme,Ġ": 2270,
      "sous-": 2271,
      "couver": 2272,
      "deux": 2273,
      "e.ĠLesĠ": 2274,
      "appli": 2275,
      "presqueĠ": 2276,
      "cherch": 2277,
      "divisionsĠ": 2278,
      "activitÃ©Ġ": 2279,
      "lar": 2280,
      "es,ĠlesĠ": 2281,
      "surĠuneĠ": 2282,
      "19Ġ": 2283,
      "CĠ": 2284,
      "pas,Ġ": 2285,
      "mÃ©d": 2286,
      "rest": 2287,
      "rapportĠ": 2288,
      "long": 2289,
      "groupeĠ": 2290,
      "4,Ġ": 2291,
      "79": 2292,
      "gau": 2293,
      "plic": 2294,
      "gÃ©nÃ©raleĠ": 2295,
      "tions,Ġ": 2296,
      "e),ĠdeĠReims,ĠÃłĠ": 2297,
      "ans": 2298,
      "anvi": 2299,
      "(E": 2300,
      "Tou": 2301,
      "ainesĠ": 2302,
      "travailĠ": 2303,
      "Ber": 2304,
      "jetĠ": 2305,
      "intÃ©ress": 2306,
      "rÃ©sist": 2307,
      "ationĠdeĠlaĠ": 2308,
      "fig": 2309,
      "nombreĠdeĠ": 2310,
      "Am": 2311,
      "chem": 2312,
      "ont,Ġ": 2313,
      "paysĠ": 2314,
      "3,": 2315,
      "es;Ġ": 2316,
      "emploiĠ": 2317,
      "6,Ġ": 2318,
      "viv": 2319,
      "8,Ġ": 2320,
      "pÃ©n": 2321,
      "ateurĠ": 2322,
      "ation.ĠĊ": 2323,
      "',": 2324,
      "avezĠ": 2325,
      "aitĠpasĠ": 2326,
      "sac": 2327,
      "Ã©mentĠ": 2328,
      ".ĠO": 2329,
      "public": 2330,
      "facil": 2331,
      "9,Ġfol": 2332,
      "telĠ": 2333,
      "|Ġ": 2334,
      "amor": 2335,
      "cinqĠ": 2336,
      "espritĠ": 2337,
      "dernierĠ": 2338,
      "atis": 2339,
      "planĠ": 2340,
      "kil": 2341,
      "rentĠ": 2342,
      "titreĠ": 2343,
      "aisi": 2344,
      "ÃłĠsonĠ": 2345,
      "rÃ©gu": 2346,
      "7ĠĊ": 2347,
      "senti": 2348,
      "eĠD.ĠI": 2349,
      "deven": 2350,
      "politiqueĠ": 2351,
      "dxĠ": 2352,
      "lan": 2353,
      "...ĠĊ": 2354,
      "ving": 2355,
      "prouv": 2356,
      "eursĠdeĠ": 2357,
      "mieuxĠ": 2358,
      "Mari": 2359,
      "est-Ãł-": 2360,
      "D.)Ġ": 2361,
      "vit": 2362,
      "peut-": 2363,
      "tribun": 2364,
      "clesĠ": 2365,
      "prÃª": 2366,
      "gueĠ": 2367,
      "sep": 2368,
      "chef": 2369,
      "55": 2370,
      "i,Ġ": 2371,
      "issionĠ": 2372,
      "ativeĠ": 2373,
      ".ĠAuĠ": 2374,
      "IIĠ": 2375,
      "Ã»tĠ": 2376,
      "ementĠdeĠlaĠ": 2377,
      "24Ġ": 2378,
      "sommeĠ": 2379,
      "venirĠ": 2380,
      "21Ġ": 2381,
      "der": 2382,
      "derĠ": 2383,
      "d'ÃªtreĠ": 2384,
      "cub": 2385,
      "viol": 2386,
      "-MAJ": 2387,
      "chÃ´mageĠ": 2388,
      "4ĠĊ": 2389,
      "rÃ©alis": 2390,
      "aisonsĠ": 2391,
      "augment": 2392,
      "deĠM": 2393,
      "ine,Ġ": 2394,
      "ÃłĠdesĠ": 2395,
      "pointsĠ": 2396,
      "fontĠ": 2397,
      "rÃ©t": 2398,
      "effor": 2399,
      "thÃ©": 2400,
      "avecĠunĠ": 2401,
      "ablementĠ": 2402,
      "auraĠ": 2403,
      "faiteĠ": 2404,
      "aujour": 2405,
      "eur.ĠĊ": 2406,
      "Ã©eĠenĠ": 2407,
      "attach": 2408,
      "armÃ©esĠ": 2409,
      "AT-MAJ": 2410,
      "cus": 2411,
      "n'enĠ": 2412,
      "ARMÃī": 2413,
      "ce,Ġ": 2414,
      "Ã¨n": 2415,
      "syn": 2416,
      "NoteĠduĠS.ĠH.ĠâĢĶĠ": 2417,
      "70": 2418,
      "oit": 2419,
      "queĠdesĠ": 2420,
      "distin": 2421,
      "euv": 2422,
      "propr": 2423,
      "clam": 2424,
      "telleĠ": 2425,
      "rÃ©gl": 2426,
      "poseĠ": 2427,
      "batter": 2428,
      "nomin": 2429,
      ".)ĠĊ": 2430,
      "grĠ": 2431,
      "Ã©ĠleĠ": 2432,
      "FranÃ§": 2433,
      "DE": 2434,
      "t.Ġ1": 2435,
      "tis": 2436,
      "8ĠĊ": 2437,
      "ÃłĠceĠ": 2438,
      "Ã©ris": 2439,
      "dispositionsĠ": 2440,
      "bataill": 2441,
      "chargeĠ": 2442,
      "3Â°Ġ": 2443,
      "och": 2444,
      ".ĠduĠ": 2445,
      "sudĠ": 2446,
      "asti": 2447,
      "seuleĠ": 2448,
      "dÃ©fen": 2449,
      "5.ĠĊ": 2450,
      "Ã©sĠdeĠ": 2451,
      "Ã©vÃª": 2452,
      "ARTI": 2453,
      "Col": 2454,
      "sur-": 2455,
      "C.ĠA.Ġ": 2456,
      "industri": 2457,
      "envir": 2458,
      "OR.ĠĊ": 2459,
      "az": 2460,
      "tt": 2461,
      "ant.ĠĊ": 2462,
      "Ã©vri": 2463,
      "mili": 2464,
      "homm": 2465,
      "s'ag": 2466,
      "dontĠleĠ": 2467,
      "manu": 2468,
      "ordresĠ": 2469,
      "recev": 2470,
      "pourr": 2471,
      "bourseĠ": 2472,
      "religi": 2473,
      "e.ĠS": 2474,
      "contribu": 2475,
      "quiĠestĠ": 2476,
      "marsĠ": 2477,
      "ussi": 2478,
      "serviceĠ": 2479,
      "bonneĠ": 2480,
      "miĠ": 2481,
      "miseĠ": 2482,
      "neu": 2483,
      "sem": 2484,
      "erontĠ": 2485,
      "sui": 2486,
      "prend": 2487,
      "rev": 2488,
      "mont": 2489,
      "&lt;Ġ": 2490,
      "pÃ©riodeĠ": 2491,
      "avrilĠ": 2492,
      "ud": 2493,
      "envoy": 2494,
      "antĠdesĠ": 2495,
      "mett": 2496,
      "lui-": 2497,
      "aul": 2498,
      "maniÃ¨reĠ": 2499,
      "(Ġ": 2500,
      "thÃ¨": 2501,
      "nouveauĠ": 2502,
      "-maj": 2503,
      "atten": 2504,
      "ations,Ġ": 2505,
      "vosĠ": 2506,
      "sin": 2507,
      "Ã©ĠetĠ": 2508,
      "exemp": 2509,
      "statisti": 2510,
      "phon": 2511,
      "attaqu": 2512,
      "6ĠĊ": 2513,
      "rom": 2514,
      "ÃīTAT-MAJ": 2515,
      "gard": 2516,
      "cas,Ġ": 2517,
      "188": 2518,
      "renseign": 2519,
      "ensembleĠ": 2520,
      "gÃ©": 2521,
      "iquesĠ": 2522,
      ".ĠPourĠ": 2523,
      "est-Ãł-direĠ": 2524,
      "22Ġ": 2525,
      "AI": 2526,
      "gen": 2527,
      "teursĠ": 2528,
      "est,Ġ": 2529,
      "prot": 2530,
      "montantĠ": 2531,
      "annÃ©esĠ": 2532,
      "dĠ59,Ġfol": 2533,
      "pouss": 2534,
      "Ã©es": 2535,
      "deĠceĠ": 2536,
      "tiveĠ": 2537,
      "29Ġ": 2538,
      "de-": 2539,
      "pouvoirĠ": 2540,
      "Ã©tabliss": 2541,
      "cÅĵ": 2542,
      "haut": 2543,
      "ÃłĠM": 2544,
      "quiĠaĠ": 2545,
      "bure": 2546,
      "Ã©gr": 2547,
      "till": 2548,
      "diver": 2549,
      "âĢĶĠâĢĶĠ": 2550,
      "cid": 2551,
      "exempl": 2552,
      "mÃ¨treĠ": 2553,
      ",ĠonĠ": 2554,
      "ceuxĠquiĠ": 2555,
      "correspond": 2556,
      "Gouvern": 2557,
      "pol": 2558,
      "agentĠdeĠ": 2559,
      "PrÃ©sidentĠ": 2560,
      "27Ġ": 2561,
      "mainĠ": 2562,
      "DUĠ": 2563,
      "Vi": 2564,
      "atif": 2565,
      "elles,Ġ": 2566,
      "TH": 2567,
      "fur": 2568,
      "pĠ": 2569,
      "poid": 2570,
      "sour": 2571,
      "excep": 2572,
      "Ã©lÃ©mentsĠ": 2573,
      "ElleĠ": 2574,
      "sain": 2575,
      "moiĠ": 2576,
      "tĠetĠ": 2577,
      ".ĠÂ«Ġ": 2578,
      "+Ġ+Ġ": 2579,
      "gÃ©nÃ©ralĠcommand": 2580,
      "divisionĠ": 2581,
      "CetteĠ": 2582,
      "cit": 2583,
      "rÃ©serveĠ": 2584,
      "ober": 2585,
      "rend": 2586,
      "Ã©crit": 2587,
      "lâĢĻÃ©quationĠ": 2588,
      "intermÃ©di": 2589,
      "ra": 2590,
      "Ã¨leĠ": 2591,
      "grandesĠ": 2592,
      ".ĠSiĠ": 2593,
      "Art.Ġ": 2594,
      ".ĠNousĠ": 2595,
      "loiĠduĠ": 2596,
      "SE": 2597,
      "Soci": 2598,
      "trai": 2599,
      "exam": 2600,
      "fam.,Ġ": 2601,
      "Bi": 2602,
      "Ã©e.ĠĊ": 2603,
      "tienn": 2604,
      "prob": 2605,
      "annÃ©eĠ": 2606,
      "7.ĠĊ": 2607,
      "Se": 2608,
      "sÃ©ri": 2609,
      "Ġ15": 2610,
      "versĠlaĠ": 2611,
      "90": 2612,
      "e)ĠetĠ": 2613,
      "oct": 2614,
      "cot": 2615,
      "tion.ĠĊ": 2616,
      "diĠ": 2617,
      "que.ĠĊ": 2618,
      "teĠetĠ": 2619,
      "itÃ©ĠdeĠ": 2620,
      "intÃ©gr": 2621,
      "sousĠlaĠ": 2622,
      "bourg": 2623,
      "conclu": 2624,
      "que": 2625,
      "disĠ": 2626,
      "doitĠÃªtreĠ": 2627,
      "vaĠ": 2628,
      "arb": 2629,
      "dÃ©bu": 2630,
      "donnÃ©Ġ": 2631,
      "frÃ©": 2632,
      "sĠdeĠlaĠ": 2633,
      "chap": 2634,
      "parall": 2635,
      "ainsĠ": 2636,
      "Ã´n": 2637,
      "nouvelleĠ": 2638,
      "44": 2639,
      "nordĠ": 2640,
      "pit": 2641,
      "mondeĠ": 2642,
      "ambreĠ": 2643,
      "certainsĠ": 2644,
      "guerreĠ": 2645,
      "esĠd'": 2646,
      "quementĠ": 2647,
      "iciĠ": 2648,
      "secondĠ": 2649,
      "XX": 2650,
      "sau": 2651,
      "airĠ": 2652,
      "dÃ©sign": 2653,
      "forc": 2654,
      "sontĠlesĠ": 2655,
      "moyenĠ": 2656,
      "hÃ©r": 2657,
      "unitÃ©sĠ": 2658,
      "Ã¨veĠ": 2659,
      "conten": 2660,
      "neĠseĠ": 2661,
      "fonctionĠ": 2662,
      "immÃ©diat": 2663,
      "ÃīTAT-MAJOR.ĠĊ": 2664,
      ".ĠetĠ": 2665,
      "parceĠ": 2666,
      ";ĠlaĠ": 2667,
      "progr": 2668,
      "arrÃª": 2669,
      "princip": 2670,
      "ConseilĠ": 2671,
      "'ĠĊ": 2672,
      "nou": 2673,
      "l'in": 2674,
      "d'autresĠ": 2675,
      "possibl": 2676,
      "JeanneĠd'Ar": 2677,
      "60Ġ": 2678,
      "me.Ġ": 2679,
      "anim": 2680,
      "resp": 2681,
      "courbeĠ": 2682,
      "heureĠ": 2683,
      "ÃªmeĠ": 2684,
      "00ĠĊ": 2685,
      "lÃł": 2686,
      "desĠtitresĠ": 2687,
      "fici": 2688,
      ".)": 2689,
      "9ĠĊ": 2690,
      "if": 2691,
      "meill": 2692,
      "appu": 2693,
      "assu": 2694,
      "effec": 2695,
      "neĠpasĠ": 2696,
      "quiĠluiĠ": 2697,
      "dontĠlaĠ": 2698,
      "Ã©eĠparĠ": 2699,
      "Ã©rieureĠ": 2700,
      "RE": 2701,
      "oleĠ": 2702,
      "tirĠ": 2703,
      "trois": 2704,
      "succ": 2705,
      "rÃ©p": 2706,
      "ettesĠ": 2707,
      "26Ġ": 2708,
      "lin": 2709,
      "rar": 2710,
      "quit": 2711,
      ",Ġp.Ġ1": 2712,
      "cÃ´tÃ©Ġ": 2713,
      "olu": 2714,
      "auxĠdeĠ": 2715,
      "Ã´t": 2716,
      "rÃ©gim": 2717,
      "OB": 2718,
      "diminu": 2719,
      "unĠdesĠ": 2720,
      "it,Ġ": 2721,
      "dispositionĠ": 2722,
      "tĠ(": 2723,
      "divis": 2724,
      "olo": 2725,
      "mobil": 2726,
      "Ã¨res,Ġ": 2727,
      "remplac": 2728,
      "aprÃ¨": 2729,
      "boisĠ": 2730,
      "yn": 2731,
      "tiquesĠ": 2732,
      "aitĠleĠ": 2733,
      "aitĠlaĠ": 2734,
      "voieĠ": 2735,
      "choseĠ": 2736,
      "aujourd'h": 2737,
      "dout": 2738,
      "Ã©po": 2739,
      "rapport": 2740,
      "texteĠ": 2741,
      "Li": 2742,
      "mur": 2743,
      "sensĠ": 2744,
      "deĠB": 2745,
      "pron": 2746,
      "reven": 2747,
      "ilĠyĠaĠ": 2748,
      "deĠl'A": 2749,
      "financi": 2750,
      "trouveĠ": 2751,
      "OL": 2752,
      ".Ġ19": 2753,
      ".ĠUnĠ": 2754,
      "illu": 2755,
      "ants,Ġ": 2756,
      "eau,Ġ": 2757,
      "dÃ©cisi": 2758,
      "modifi": 2759,
      "rendreĠ": 2760,
      "so": 2761,
      "yeuxĠ": 2762,
      "esĠduĠ": 2763,
      "essionĠ": 2764,
      "TREĠ": 2765,
      "1ĠerĠÃ©tatĠ:Ġ": 2766,
      "Pier": 2767,
      "deĠdeĠ": 2768,
      "rezĠ": 2769,
      "angl": 2770,
      "vrai": 2771,
      "voulu": 2772,
      "75Ġ": 2773,
      "centr": 2774,
      "janvi": 2775,
      "roy": 2776,
      "anal": 2777,
      "onĠpeutĠ": 2778,
      "oisĠdeĠ": 2779,
      "plan": 2780,
      ".ĠCh": 2781,
      "ille,Ġ": 2782,
      "questionĠ": 2783,
      "importanceĠ": 2784,
      "....Ġ": 2785,
      "Emmanu": 2786,
      "adress": 2787,
      "EUR": 2788,
      "Lu": 2789,
      "dÃ©pend": 2790,
      "Ġ16": 2791,
      "imp": 2792,
      "nov": 2793,
      "sĠduĠ": 2794,
      "Franc": 2795,
      "influ": 2796,
      "piÃ¨cesĠ": 2797,
      "inĠdeĠ": 2798,
      "elonĠ": 2799,
      "coteĠ": 2800,
      "cependantĠ": 2801,
      "francsĠ": 2802,
      "beso": 2803,
      "Ois": 2804,
      "SansĠ": 2805,
      "ie,Ġ": 2806,
      "tes,Ġ": 2807,
      "ult": 2808,
      "antĠenĠ": 2809,
      "dansĠsonĠ": 2810,
      "tuber": 2811,
      "ementsĠdeĠ": 2812,
      "remarqu": 2813,
      "76": 2814,
      "bĠ": 2815,
      "bon": 2816,
      "llesĠ": 2817,
      "d'A": 2818,
      "achatĠ": 2819,
      "mainten": 2820,
      "clientsĠ": 2821,
      "mesureĠ": 2822,
      "femmeĠ": 2823,
      "sinĠ": 2824,
      "Ã©ĠdesĠ": 2825,
      "rivi": 2826,
      "surfaceĠ": 2827,
      "cept": 2828,
      "certainĠ": 2829,
      "utilis": 2830,
      "DESĠ": 2831,
      "MAR": 2832,
      "Pro": 2833,
      "empr": 2834,
      "dur": 2835,
      "neĠsontĠ": 2836,
      "forcesĠ": 2837,
      "deuxiÃ¨meĠ": 2838,
      "1erĠ": 2839,
      "8.ĠĊ": 2840,
      "ÃłĠsaĠ": 2841,
      "certainesĠ": 2842,
      "CesĠ": 2843,
      "ini": 2844,
      ".ĠAu": 2845,
      "able,Ġ": 2846,
      "peineĠ": 2847,
      "constat": 2848,
      "somm": 2849,
      ".ĠâĢĶĠLesĠ": 2850,
      "s'enĠ": 2851,
      "LÃ©": 2852,
      "QueĠ": 2853,
      "coÃ»": 2854,
      "mentsĠ": 2855,
      "o-": 2856,
      "Ã©nÃ©r": 2857,
      "France,Ġ": 2858,
      "DieuĠ": 2859,
      "passeĠ": 2860,
      "Ã¨res": 2861,
      "qu'enĠ": 2862,
      "Ã©eĠduĠ": 2863,
      "lâĢĻÃ©tatĠ": 2864,
      "renduĠ": 2865,
      "ENC": 2866,
      "appliqu": 2867,
      "..Ġ": 2868,
      "eil": 2869,
      "is.ĠĊ": 2870,
      "compens": 2871,
      "pouvaitĠ": 2872,
      "axeĠ": 2873,
      "octob": 2874,
      ".Ġ0": 2875,
      "ilĠfautĠ": 2876,
      "compos": 2877,
      "capa": 2878,
      "commenc": 2879,
      "souff": 2880,
      "tres": 2881,
      "dixĠ": 2882,
      "ite,Ġ": 2883,
      ".ĠEn": 2884,
      "intÃ©rÃªtĠ": 2885,
      "publiqueĠ": 2886,
      "respons": 2887,
      "syphili": 2888,
      "JĠ": 2889,
      "sommesĠ": 2890,
      "aign": 2891,
      "tre": 2892,
      "estĠunĠ": 2893,
      "ectionĠ": 2894,
      "spir": 2895,
      "satis": 2896,
      "Ã©ĠparĠleĠ": 2897,
      "atte": 2898,
      "MinistreĠ": 2899,
      "Dr": 2900,
      "SĠĊ": 2901,
      "uesĠ": 2902,
      "simpl": 2903,
      "liquidationĠ": 2904,
      "Allemag": 2905,
      "propriÃ©t": 2906,
      "21": 2907,
      "TER": 2908,
      "larg": 2909,
      "soli": 2910,
      "Pon": 2911,
      "ctionsĠ": 2912,
      "merĠ": 2913,
      "dispar": 2914,
      "oÃ¹ĠilĠ": 2915,
      "procur": 2916,
      ".ĠâĢĶĠLaĠ": 2917,
      "dontĠlesĠ": 2918,
      "destin": 2919,
      "procÃ©d": 2920,
      "fus": 2921,
      "signal": 2922,
      "secteurĠ": 2923,
      "adu": 2924,
      "tonn": 2925,
      "prÃ©t": 2926,
      "issonĠ": 2927,
      "enceĠdeĠ": 2928,
      "simpleĠ": 2929,
      "mouvementĠ": 2930,
      "peut-ÃªtreĠ": 2931,
      "tomb": 2932,
      "4.": 2933,
      "4.ĠĊ": 2934,
      "Egl": 2935,
      "conv": 2936,
      ";ĠleĠ": 2937,
      "e.ĠOnĠ": 2938,
      "Ã§aĠ": 2939,
      "commer": 2940,
      "DEĠLAĠ": 2941,
      "connaÃ®treĠ": 2942,
      "centreĠ": 2943,
      "ung": 2944,
      "antĠl'": 2945,
      "propor": 2946,
      "Ã©eĠauĠ": 2947,
      "EĠDEĠB": 2948,
      "franÃ§ais": 2949,
      "âĸłĠMf.ĠA.Ġ1": 2950,
      "tableauĠ": 2951,
      "graphi": 2952,
      "bor": 2953,
      "fri": 2954,
      "entĠenĠ": 2955,
      "ageĠdeĠ": 2956,
      ".Ġ20": 2957,
      "ez-vousĠ": 2958,
      "enseign": 2959,
      "qu'ellesĠ": 2960,
      ".ĠCesĠ": 2961,
      "obtientĠ": 2962,
      "bien": 2963,
      "corpsĠ": 2964,
      "grandsĠ": 2965,
      "99": 2966,
      "la": 2967,
      "rÃ©sĠ": 2968,
      "ier,Ġ": 2969,
      "syst": 2970,
      "&gt;Ġ": 2971,
      "4,": 2972,
      "natureĠ": 2973,
      "dÃ©p": 2974,
      "),ĠdeĠReims,ĠÃłĠ": 2975,
      "toutĠleĠ": 2976,
      "autantĠ": 2977,
      "tÃ©lÃ©phon": 2978,
      "43": 2979,
      "MgrĠ": 2980,
      "ensuiteĠ": 2981,
      "dÃ©cr": 2982,
      "parmiĠ": 2983,
      "poiss": 2984,
      "ante,Ġ": 2985,
      ".ĠâĢĶĠS": 2986,
      "dontĠilĠ": 2987,
      "Rou": 2988,
      "hor": 2989,
      "AG": 2990,
      "ty": 2991,
      "quo": 2992,
      "omp": 2993,
      "estĠlaĠ": 2994,
      "dÃ©cembreĠ": 2995,
      "lequelĠ": 2996,
      "favor": 2997,
      "sci": 2998,
      "tÃªteĠ": 2999,
      "Ãı": 3000,
      "tur": 3001,
      "isationĠ": 3002,
      "allu": 3003,
      "agentsĠdeĠ": 3004,
      "vid": 3005,
      "venteĠ": 3006,
      "surĠleĠfrontĠ": 3007,
      "nÃ©cessi": 3008,
      "Ã©vrierĠ": 3009,
      "Cour": 3010,
      "malĠ": 3011,
      "confr": 3012,
      "Ġ1.": 3013,
      "atta": 3014,
      "API": 3015,
      "lâĢĻÃ©tatĠdÃ©": 3016,
      "ysi": 3017,
      "oixĠ": 3018,
      "sixĠ": 3019,
      "tifsĠ": 3020,
      "GÃīN": 3021,
      "EAU": 3022,
      "MEĠ": 3023,
      "casĠdeĠ": 3024,
      "nombreĠdesĠ": 3025,
      "nÃ©cessaireĠ": 3026,
      "23Ġ": 3027,
      "dÃ©r": 3028,
      "aisĠdeĠ": 3029,
      "its": 3030,
      "numÃ©ro": 3031,
      "67": 3032,
      "Rober": 3033,
      "breĠ": 3034,
      ",ĠmaisĠ": 3035,
      "Emper": 3036,
      "LâĢĻ": 3037,
      "tÃ©,Ġ": 3038,
      "issi": 3039,
      "Ã©rap": 3040,
      "xĠâĢĶĠ": 3041,
      ".ĠIlsĠ": 3042,
      "avecĠdesĠ": 3043,
      "productionĠ": 3044,
      "SociÃ©tÃ©Ġ": 3045,
      "100": 3046,
      "entĠlaĠ": 3047,
      "uneĠdesĠ": 3048,
      "admir": 3049,
      "ailleurs,Ġ": 3050,
      "200Ġ": 3051,
      "concerneĠ": 3052,
      "PÃīDI": 3053,
      "YC": 3054,
      "finĠdeĠ": 3055,
      "ITÃī": 3056,
      "Pap": 3057,
      "attribu": 3058,
      "maladi": 3059,
      "fonctionsĠ": 3060,
      "conseilĠ": 3061,
      "DesĠ": 3062,
      "LĠ": 3063,
      "OĠ": 3064,
      "Off": 3065,
      "dÃ»": 3066,
      "le-": 3067,
      "âĢĺ": 3068,
      "abri": 3069,
      "touch": 3070,
      "ETĠĊ": 3071,
      "Du": 3072,
      "eraitĠ": 3073,
      "empÃª": 3074,
      "offensi": 3075,
      "derniÃ¨reĠ": 3076,
      "clientĠ": 3077,
      "ParĠ": 3078,
      "ÃłĠcetteĠ": 3079,
      "Ã©tudi": 3080,
      "dÃ©fini": 3081,
      "aĠlaĠ": 3082,
      "quar": 3083,
      "trou": 3084,
      "queĠceĠ": 3085,
      "dansĠceĠ": 3086,
      "tesĠdeĠ": 3087,
      "n'Ã©taitĠ": 3088,
      "eux-": 3089,
      "lignesĠ": 3090,
      "Nation": 3091,
      "dat": 3092,
      "ideĠ": 3093,
      "plusĠt": 3094,
      "assembl": 3095,
      "thÃ©rap": 3096,
      "ui-": 3097,
      "franÃ§aisĠ": 3098,
      "GÃīNÃīR": 3099,
      "dang": 3100,
      "io": 3101,
      ";ĠmaisĠ": 3102,
      "quiĠontĠ": 3103,
      "alĠdesĠ": 3104,
      "Ã©vit": 3105,
      "ESĠĊ": 3106,
      "MathieuĠ": 3107,
      "..ĠĊ": 3108,
      "45Ġ": 3109,
      "66": 3110,
      "9,Ġ": 3111,
      "SA": 3112,
      "ef": 3113,
      "omÃ¨": 3114,
      "combienĠ": 3115,
      "perm": 3116,
      ".ĠDeĠ": 3117,
      "Av": 3118,
      "honn": 3119,
      "anceĠdeĠ": 3120,
      "chau": 3121,
      "oll": 3122,
      "jeĠvousĠ": 3123,
      "aÃ®n": 3124,
      "crÃ©di": 3125,
      "OrdreĠ": 3126,
      "rÃ´leĠ": 3127,
      "prÃ©sidentĠ": 3128,
      "bru": 3129,
      "rÃ©gionĠdeĠ": 3130,
      "aim": 3131,
      "es,ĠetĠ": 3132,
      "infant": 3133,
      "syphil": 3134,
      "abilitÃ©Ġ": 3135,
      "~M": 3136,
      "deĠsaĠ": 3137,
      "essageĠ": 3138,
      "effetĠ": 3139,
      "jeĠneĠ": 3140,
      "gaucheĠ": 3141,
      "REĠ": 3142,
      "SÃ©": 3143,
      "del": 3144,
      "ens,Ġ": 3145,
      "duĠC": 3146,
      "fÃ©renceĠ": 3147,
      "(M": 3148,
      "quiĠs'": 3149,
      ".00!Ġ": 3150,
      "ĠDESĠ": 3151,
      "onor": 3152,
      "emmentĠ": 3153,
      "l'onĠ": 3154,
      "d'aprÃ¨sĠ": 3155,
      "rencontr": 3156,
      "nomĠ": 3157,
      "Ã©tudeĠ": 3158,
      "DEĠBOURS": 3159,
      "BĠ": 3160,
      "J.,Ġ": 3161,
      "YĠ": 3162,
      "quin": 3163,
      "ple": 3164,
      "ilĠneĠ": 3165,
      "profond": 3166,
      ".ĠLâĢĻ": 3167,
      "n'avaitĠ": 3168,
      "minim": 3169,
      "ard,Ġ": 3170,
      "circonst": 3171,
      "AV": 3172,
      "rueĠ": 3173,
      "sav": 3174,
      "sembleĠ": 3175,
      "indis": 3176,
      "ÃłĠpartirĠ": 3177,
      "priv": 3178,
      "n'ontĠ": 3179,
      "peutĠÃªtreĠ": 3180,
      "petitsĠ": 3181,
      "rÃ¨g": 3182,
      "ClercĠ": 3183,
      "fil": 3184,
      "i-": 3185,
      "lang": 3186,
      "chois": 3187,
      "ame": 3188,
      "ANQUEĠ": 3189,
      "M.ĠdeĠ": 3190,
      "tend": 3191,
      "unitÃ©Ġ": 3192,
      "pap": 3193,
      "plus,Ġ": 3194,
      "Ã©chÃ©": 3195,
      "fonctionn": 3196,
      "vendeurĠ": 3197,
      "caoutchoucĠ": 3198,
      "ENCYC": 3199,
      "ENCYCLO": 3200,
      "heĠ": 3201,
      "villeĠ": 3202,
      "n'aĠpasĠ": 3203,
      "88": 3204,
      "OP": 3205,
      "a)Ġ": 3206,
      "vent": 3207,
      "aine,Ġ": 3208,
      "dÃ©couver": 3209,
      "nuitĠ": 3210,
      "(2)Ġ": 3211,
      "tifi": 3212,
      "rÃ©clam": 3213,
      "expli": 3214,
      "grÃ¢": 3215,
      "2Ġ+Ġ": 3216,
      ".Ġ(E": 3217,
      "prÃ¨sĠdeĠ": 3218,
      "criptionĠ": 3219,
      "eĠBleĠ": 3220,
      "JeanneĠd'ArcĠ": 3221,
      "GÃīNÃīRAL": 3222,
      "erĠauxĠ": 3223,
      "Angl": 3224,
      "voixĠ": 3225,
      "capitauxĠ": 3226,
      "tsch": 3227,
      "ANQUEĠETĠ": 3228,
      "VĠ": 3229,
      "s.Ġ": 3230,
      "ts,Ġ": 3231,
      "inten": 3232,
      "Ã©ĠlaĠ": 3233,
      "dix": 3234,
      "entu": 3235,
      "dansĠlâĢĻ": 3236,
      "cru": 3237,
      "sym": 3238,
      "indic": 3239,
      "77": 3240,
      "dÃ©ri": 3241,
      "eĠC": 3242,
      "onĠsign": 3243,
      "DEĠL'": 3244,
      "autreĠpart,Ġ": 3245,
      "ceĠquiĠconcerneĠ": 3246,
      "exploit": 3247,
      "Cal": 3248,
      ",ĠB": 3249,
      "quelleĠ": 3250,
      "entĠpasĠ": 3251,
      "oiresĠ": 3252,
      "re-": 3253,
      "piedĠ": 3254,
      "rÃ©guli": 3255,
      "EĠDEĠBANQUEĠETĠ": 3256,
      "ges": 3257,
      "âĢŀ": 3258,
      "orr": 3259,
      "reff": 3260,
      "absol": 3261,
      "angleĠ": 3262,
      "voqu": 3263,
      "manif": 3264,
      "sÃ©par": 3265,
      "croiss": 3266,
      "septembreĠ": 3267,
      "DEĠBOURSEĠĊ": 3268,
      "af": 3269,
      "bass": 3270,
      "ym": 3271,
      "livraisonĠ": 3272,
      "Impr.,Ġ": 3273,
      "Ã©c": 3274,
      ".Ġ2ĠeĠ": 3275,
      "apport": 3276,
      "viennentĠ": 3277,
      "class": 3278,
      "ge,Ġ": 3279,
      "dÃ©m": 3280,
      ";ĠlesĠ": 3281,
      "quiĠsontĠ": 3282,
      ".Ġ(N.)Ġ": 3283,
      "EX": 3284,
      "Po": 3285,
      "r,Ġ": 3286,
      "sÃ»": 3287,
      "reconnaiss": 3288,
      "accid": 3289,
      "e.ĠEnĠ": 3290,
      "obtenirĠ": 3291,
      "pourraĠ": 3292,
      "concern": 3293,
      "58": 3294,
      "d'ailleursĠ": 3295,
      "abb": 3296,
      "qu'ÃłĠ": 3297,
      "ements,Ġ": 3298,
      "pourraitĠ": 3299,
      "frÃ©qu": 3300,
      "sc": 3301,
      "dirig": 3302,
      "exis": 3303,
      "Ã©eĠetĠ": 3304,
      "croy": 3305,
      "clair": 3306,
      "matin": 3307,
      "zoneĠ": 3308,
      "EU": 3309,
      "RON": 3310,
      ".ĠEdĠ59Ġ": 3311,
      "axim": 3312,
      "fourniss": 3313,
      "Ã©tat-maj": 3314,
      "EĠDEĠBANQUEĠETĠDEĠBOURSEĠĊ": 3315,
      "Vill": 3316,
      "bonn": 3317,
      "centĠ": 3318,
      "repro": 3319,
      "ettreĠ": 3320,
      "tionĠdeĠlaĠ": 3321,
      "Ã©sĠenĠ": 3322,
      "ationsĠdeĠ": 3323,
      "ocel": 3324,
      "diffi": 3325,
      "formu": 3326,
      "TRI": 3327,
      "Ad": 3328,
      "har": 3329,
      "au-": 3330,
      "isesĠ": 3331,
      "dansĠcetteĠ": 3332,
      "n'yĠ": 3333,
      "touteĠlaĠ": 3334,
      "Ge": 3335,
      "Sein": 3336,
      "traitĠ": 3337,
      "portantĠ": 3338,
      "allaitĠ": 3339,
      "suivantĠ": 3340,
      "euse,Ġ": 3341,
      "onĠsignÃ©e.Ġ": 3342,
      "69": 3343,
      "PÃ©t": 3344,
      "sch": 3345,
      "termesĠ": 3346,
      "appelleĠ": 3347,
      "centimÃ¨tresĠ": 3348,
      "rav": 3349,
      "Ã©car": 3350,
      "e.ĠM": 3351,
      "prÃ©sid": 3352,
      "arrÃªt": 3353,
      "huitĠ": 3354,
      "-f": 3355,
      "0,Ġ": 3356,
      "eĠC.ĠA": 3357,
      "queĠcetteĠ": 3358,
      "itann": 3359,
      "avecĠl'": 3360,
      "relativ": 3361,
      "maintenantĠ": 3362,
      "malgrÃ©Ġ": 3363,
      "&gt;": 3364,
      "E,Ġ": 3365,
      "diversĠ": 3366,
      "d'administr": 3367,
      "parfoisĠ": 3368,
      "rapid": 3369,
      "coupĠdeĠ": 3370,
      "Ã©critĠ": 3371,
      "laĠplusĠ": 3372,
      "expos": 3373,
      "oÃ®": 3374,
      "oir,Ġ": 3375,
      "ficationĠ": 3376,
      "seĠtrouveĠ": 3377,
      "CR": 3378,
      "bÃ¢": 3379,
      "d,Ġ": 3380,
      "etĠuneĠ": 3381,
      "entĠdesĠ": 3382,
      "ales,Ġ": 3383,
      "seĠre": 3384,
      "poissonĠ": 3385,
      "caleĠ": 3386,
      "peuĠdeĠ": 3387,
      "t-elleĠ": 3388,
      "acheteurĠ": 3389,
      "dÃ©fenseĠ": 3390,
      "6.ĠĊ": 3391,
      "80Ġ": 3392,
      "auĠmoinsĠ": 3393,
      "rendu": 3394,
      "enfinĠ": 3395,
      "pointĠdeĠvueĠ": 3396,
      "troupesĠ": 3397,
      "matÃ©ri": 3398,
      "%Ġ": 3399,
      "pp": 3400,
      "x)Ġ": 3401,
      "euveĠ": 3402,
      "undĠ": 3403,
      "aven": 3404,
      "ecl": 3405,
      "propos": 3406,
      "desc": 3407,
      "relev": 3408,
      "Åĵuv": 3409,
      "vÃ©rit": 3410,
      "65": 3411,
      "87": 3412,
      "Vo": 3413,
      "Â§": 3414,
      "oi,Ġ": 3415,
      "d'in": 3416,
      "ementĠetĠ": 3417,
      "acqu": 3418,
      "impos": 3419,
      "Ã©volu": 3420,
      "affairesĠ": 3421,
      "docu": 3422,
      "maiĠ19": 3423,
      "regard": 3424,
      "Pl": 3425,
      "exig": 3426,
      "dist": 3427,
      "artifici": 3428,
      "baseĠ": 3429,
      "J'aiĠ": 3430,
      "mÃ©dec": 3431,
      "2.ĠâĢĶĠ": 3432,
      "MON": 3433,
      "citÃ©Ġ": 3434,
      "roup": 3435,
      "espÃ¨": 3436,
      "enten": 3437,
      "ents,Ġ": 3438,
      "estĠuneĠ": 3439,
      "exist": 3440,
      "commeĠunĠ": 3441,
      "empli": 3442,
      "peuventĠÃªtreĠ": 3443,
      "chosesĠ": 3444,
      "juinĠ1918.ĠĊ": 3445,
      "COM": 3446,
      "Ver": 3447,
      "Ã¨deĠ": 3448,
      "popul": 3449,
      "prÃ©f": 3450,
      "essenti": 3451,
      ".ĠIlĠestĠ": 3452,
      "diversesĠ": 3453,
      ".Ġ(E.)Ġ": 3454,
      "31": 3455,
      "35Ġ": 3456,
      "b,Ġfol": 3457,
      "nomm": 3458,
      "res,Ġ": 3459,
      "laĠmargeĠ": 3460,
      "andsĠ": 3461,
      ".ĠEdĠ59,Ġfol": 3462,
      "f.ĠAn": 3463,
      "Ã©conomiqueĠ": 3464,
      "ologi": 3465,
      "&amp": 3466,
      "ge": 3467,
      "aire.ĠĊ": 3468,
      "eu,Ġ": 3469,
      "riÃ¨reĠ": 3470,
      "exi": 3471,
      "terreĠ": 3472,
      "sousĠleĠ": 3473,
      "m'aĠ": 3474,
      "FĠ": 3475,
      "XV": 3476,
      "vin": 3477,
      "pal": 3478,
      "livreĠ": 3479,
      "aver": 3480,
      "ÃªtsĠ": 3481,
      "aband": 3482,
      "drap": 3483,
      "milit": 3484,
      "a-t-ilĠ": 3485,
      "actuellementĠ": 3486,
      ").Ġ2": 3487,
      "59": 3488,
      "Pi": 3489,
      "me.ĠĊ": 3490,
      "t.Ġ2": 3491,
      "Ã©ĠduĠ": 3492,
      "exp": 3493,
      "commerci": 3494,
      "occa": 3495,
      "e.ĠElleĠ": 3496,
      "volumeĠ": 3497,
      "CU": 3498,
      "PL": 3499,
      "sais": 3500,
      "dansĠsaĠ": 3501,
      "exerc": 3502,
      "britann": 3503,
      "avaitĠÃ©tÃ©Ġ": 3504,
      "premiersĠ": 3505,
      "affir": 3506,
      "hĠ!Ġ": 3507,
      "........": 3508,
      "lieuĠdeĠ": 3509,
      "chacunĠ": 3510,
      "Har": 3511,
      "IlsĠ": 3512,
      "tent": 3513,
      "Ã¼": 3514,
      "e,ĠdeĠ": 3515,
      "Ġ17": 3516,
      "yĠ=Ġ": 3517,
      "articlesĠ": 3518,
      "donnerĠ": 3519,
      "ERĠ": 3520,
      "quâĢĻonĠ": 3521,
      "solutionĠ": 3522,
      "habitu": 3523,
      "causeĠ": 3524,
      "agentĠdeĠchangeĠ": 3525,
      "SurĠ": 3526,
      "maiĠ": 3527,
      "maisonĠ": 3528,
      "etĠdeĠl'": 3529,
      "pl.Ġ": 3530,
      "exprim": 3531,
      "fort": 3532,
      "MENTĠ": 3533,
      "bas": 3534,
      "selonĠ": 3535,
      "eĠarmÃ©eĠ": 3536,
      "atifĠ": 3537,
      "ain,Ġ": 3538,
      "probl": 3539,
      "quelcon": 3540,
      "fin,Ġ": 3541,
      "queĠl'onĠ": 3542,
      "ÃłĠg.,Ġ": 3543,
      "injectionsĠ": 3544,
      "fois,Ġ": 3545,
      "da": 3546,
      "rang": 3547,
      "rempli": 3548,
      "tourn": 3549,
      "entĠleĠ": 3550,
      "recher": 3551,
      "minist": 3552,
      "tions": 3553,
      "faitesĠ": 3554,
      "personneĠ": 3555,
      "RÃ©s": 3556,
      "Th": 3557,
      "c,Ġ": 3558,
      "tour": 3559,
      "vas": 3560,
      "guerre,Ġ": 3561,
      "cÃ©r": 3562,
      "savoirĠ": 3563,
      "vementĠ": 3564,
      "deĠS": 3565,
      "rich": 3566,
      "yĠ(": 3567,
      "Ã©esĠÃłĠ": 3568,
      "attend": 3569,
      "autourĠ": 3570,
      "rÃ©sultatsĠ": 3571,
      "SaÃ´n": 3572,
      "tonĠ": 3573,
      ".ĠÂ»ĠĊ": 3574,
      "aĠdeĠ": 3575,
      "ent.ĠĊ": 3576,
      "ci-": 3577,
      "es,ĠleĠ": 3578,
      "furentĠ": 3579,
      "CATION": 3580,
      "atri": 3581,
      "mauv": 3582,
      "e,ĠmaisĠ": 3583,
      "Arbe": 3584,
      "nombresĠ": 3585,
      "ÃłĠdr.Ġ:Ġ": 3586,
      "respec": 3587,
      "troisiÃ¨meĠ": 3588,
      "PĠ": 3589,
      "dÃ©Ġ": 3590,
      "plesĠ": 3591,
      ".ĠUneĠ": 3592,
      "en-": 3593,
      "pourĠuneĠ": 3594,
      "tesĠetĠ": 3595,
      "ez,Ġ": 3596,
      "perb": 3597,
      "auxquel": 3598,
      "garanti": 3599,
      "faisaitĠ": 3600,
      "BER": 3601,
      "y.ĠĊ": 3602,
      "Ã©s.ĠĊ": 3603,
      "aĠleĠ": 3604,
      "etĠunĠ": 3605,
      "teĠdesĠ": 3606,
      "dÃ©eĠ": 3607,
      "ateursĠ": 3608,
      "ants": 3609,
      "Ã©esĠenĠ": 3610,
      "enf.,Ġ": 3611,
      "franÃ§aiseĠ": 3612,
      "Comp": 3613,
      "personnesĠ": 3614,
      "85": 3615,
      "DU": 3616,
      "Hen": 3617,
      "Jocel": 3618,
      "tÃ´tĠ": 3619,
      "veutĠ": 3620,
      "antĠauĠ": 3621,
      "dansĠdesĠ": 3622,
      "jours,Ġ": 3623,
      "QuandĠ": 3624,
      "calcul": 3625,
      "droitĠdeĠ": 3626,
      "SaÃ´ne-et-": 3627,
      "on-": 3628,
      "arch": 3629,
      "elli": 3630,
      "constru": 3631,
      "amÃ¨": 3632,
      "ennemi": 3633,
      "jeunesĠ": 3634,
      "ÃłĠdr.,Ġ": 3635,
      "exclu": 3636,
      "exempleĠ": 3637,
      "1ĠerĠÃ©tatĠ:ĠlâĢĻÃ©tatĠdÃ©": 3638,
      "janvierĠ": 3639,
      ",5": 3640,
      "lour": 3641,
      "ment,Ġ": 3642,
      "lesĠdeuxĠ": 3643,
      "Ã¨mesĠ": 3644,
      "ci-dessu": 3645,
      "coordonn": 3646,
      "secrÃ©t": 3647,
      "travaill": 3648,
      "aussit": 3649,
      "nÃ©gociationsĠ": 3650,
      "longueurĠ": 3651,
      "0/0Ġ": 3652,
      "lesquellesĠ": 3653,
      "e?Ġ": 3654,
      "horsĠ": 3655,
      "lanc": 3656,
      "tiersĠ": 3657,
      "armesĠ": 3658,
      "suitĠ": 3659,
      "duĠN": 3660,
      "log": 3661,
      "devaitĠ": 3662,
      "colon": 3663,
      "interven": 3664,
      "temps,Ġ": 3665,
      "certaineĠ": 3666,
      "secondeĠ": 3667,
      "paixĠ": 3668,
      "mÃ©tho": 3669,
      "renseignementsĠ": 3670,
      "greff": 3671,
      "maxim": 3672,
      "or,Ġ": 3673,
      "syndi": 3674,
      ").ĠâĢĶĠ": 3675,
      "AprÃ¨sĠ": 3676,
      "vul": 3677,
      ",ĠduĠ": 3678,
      "esĠÃłĠ": 3679,
      "prud": 3680,
      "compar": 3681,
      "Ã©lec": 3682,
      "ANTI": 3683,
      "particuliÃ¨rementĠ": 3684,
      ".ĠTou": 3685,
      "terrainĠ": 3686,
      "travail": 3687,
      "armÃ©e.ĠĊ": 3688,
      "autoris": 3689,
      "milieuĠ": 3690,
      "octobreĠ": 3691,
      "dÃ©riv": 3692,
      "PÃ©ters": 3693,
      "1.ĠâĢĶĠ": 3694,
      "ureĠ": 3695,
      "erreĠ": 3696,
      "e.ĠMaisĠ": 3697,
      "nâĢĻestĠ": 3698,
      "lui-mÃªmeĠ": 3699,
      ".Ġ.Ġ": 3700,
      "rÃ©v": 3701,
      "rÃ©un": 3702,
      "tout,Ġ": 3703,
      "doiventĠÃªtreĠ": 3704,
      "c'est-Ãł-direĠ": 3705,
      ".).ĠĊ": 3706,
      "MM": 3707,
      "ST": 3708,
      "Ã©sĠetĠ": 3709,
      "judi": 3710,
      "opini": 3711,
      ".ĠD'": 3712,
      "IlĠestĠ": 3713,
      "second": 3714,
      "lesquelsĠ": 3715,
      ",5Ġ": 3716,
      "90Ġ": 3717,
      "Fig": 3718,
      "cop": 3719,
      "sus": 3720,
      "Ã©gardĠ": 3721,
      "douteĠ": 3722,
      "TÃ©lÃ©": 3723,
      ".ĠÂ»Ġ": 3724,
      "ÃłĠB": 3725,
      "profon": 3726,
      "EĠ(": 3727,
      "gardeĠ": 3728,
      "ENCYCLOPÃīDI": 3729,
      "GÃ©nÃ©r": 3730,
      "od": 3731,
      "riĠ": 3732,
      "rÃ©Ġ": 3733,
      "rais": 3734,
      "auĠcoursĠ": 3735,
      "s'agitĠ": 3736,
      "immÃ©diatementĠ": 3737,
      "68": 3738,
      "95": 3739,
      "courĠ": 3740,
      "idi": 3741,
      "tique,Ġ": 3742,
      "erĠÃłĠlaĠ": 3743,
      "queĠetĠ": 3744,
      "xĠ+Ġ": 3745,
      "acc": 3746,
      "paraiss": 3747,
      "auĠvers": 3748,
      "poin": 3749,
      "demeur": 3750,
      "ajou": 3751,
      "airementĠ": 3752,
      "volon": 3753,
      "Ã©criv": 3754,
      "existen": 3755,
      "Aff": 3756,
      "LA": 3757,
      "adesĠ": 3758,
      "cann": 3759,
      "hui": 3760,
      "esĠenĠ": 3761,
      "pageĠ": 3762,
      "curi": 3763,
      "n'yĠaĠ": 3764,
      "Ã©ric": 3765,
      "strieĠ": 3766,
      "particulierĠ": 3767,
      "Ã«n": 3768,
      "70Ġ": 3769,
      "CON": 3770,
      "Lors": 3771,
      "vil": 3772,
      "champ": 3773,
      "Ġ14": 3774,
      "onnier": 3775,
      "voil": 3776,
      "prÃ©senceĠ": 3777,
      "manqu": 3778,
      "Paris": 3779,
      "droit": 3780,
      "hypo": 3781,
      "excell": 3782,
      "origineĠ": 3783,
      "SaÃ´ne-et-Loire": 3784,
      "UM": 3785,
      "sensi": 3786,
      "tĠduĠ": 3787,
      "ins,Ġ": 3788,
      "avanc": 3789,
      "dÃ©pen": 3790,
      "aireĠdeĠ": 3791,
      "ChambreĠ": 3792,
      "bran": 3793,
      "travauxĠ": 3794,
      "tivementĠ": 3795,
      "Alli": 3796,
      "successi": 3797,
      "caractÃ¨reĠ": 3798,
      "4Â°": 3799,
      "hect": 3800,
      "oire,Ġ": 3801,
      "cult": 3802,
      "Ã©ner": 3803,
      "1ĠNoteĠduĠS.ĠH.ĠâĢĶĠ": 3804,
      "premiÃ¨resĠ": 3805,
      "versĠleĠ": 3806,
      "CHAPI": 3807,
      "jeun": 3808,
      "Ã´me.Ġ": 3809,
      "faisantĠ": 3810,
      "ÅĵuvreĠ": 3811,
      "Louis": 3812,
      "hÃ´": 3813,
      "tal": 3814,
      "tÃ©m": 3815,
      "var": 3816,
      "Ã©pr": 3817,
      "tienĠ": 3818,
      "dÃ©sĠ": 3819,
      "paraÃ®tĠ": 3820,
      "critĠ": 3821,
      "poni": 3822,
      "ENT": 3823,
      "ferm": 3824,
      "notammentĠ": 3825,
      "MessageĠ": 3826,
      "maÃ®": 3827,
      "eĠduĠ": 3828,
      "apparti": 3829,
      "Ã©galeĠ": 3830,
      "crain": 3831,
      "nombreuxĠ": 3832,
      "Ãītat": 3833,
      "]Ġ": 3834,
      "ienĠ": 3835,
      "desĠdeuxĠ": 3836,
      "dÃ©li": 3837,
      ";ĠonĠ": 3838,
      "dansĠsesĠ": 3839,
      "existeĠ": 3840,
      "arriÃ¨reĠ": 3841,
      "6.": 3842,
      "ctu": 3843,
      "ait-ilĠ": 3844,
      "etĠseĠ": 3845,
      "e,ĠÃłĠ": 3846,
      "aitĠenĠ": 3847,
      ":ĠleĠ": 3848,
      "mÃªmeĠtempsĠ": 3849,
      "catÃ©g": 3850,
      "sociÃ©t": 3851,
      "SaÃ«n": 3852,
      "reprod": 3853,
      "fou": 3854,
      ",ĠquiĠ": 3855,
      "e,Ġl'": 3856,
      "entend": 3857,
      ";ĠEdĠ59Ġ": 3858,
      "ext": 3859,
      "culo": 3860,
      "imag": 3861,
      "cos": 3862,
      "fait,Ġ": 3863,
      "enfantsĠ": 3864,
      "prÃ©cis": 3865,
      "nomĠdeĠ": 3866,
      ")ĠetĠfam.,Ġ": 3867,
      "complÃ¨tementĠ": 3868,
      "cÅĵurĠ": 3869,
      "aujourd'huiĠ": 3870,
      "'Ã©taitĠ": 3871,
      "Bu": 3872,
      "honor": 3873,
      "ileĠ": 3874,
      "eĠÃłĠ": 3875,
      "ons-": 3876,
      "arbi": 3877,
      "sult": 3878,
      "rÃ©.ĠĊ": 3879,
      "rÃ©sultatĠ": 3880,
      "âĸłĠMf.ĠA.Ġ2": 3881,
      "trodu": 3882,
      "attaquesĠ": 3883,
      "bri": 3884,
      "holi": 3885,
      "my": 3886,
      "ette,Ġ": 3887,
      "auĠcontr": 3888,
      "vois": 3889,
      "AND": 3890,
      "matiÃ¨reĠ": 3891,
      "ENCYCLOPÃīDIEĠDEĠBANQUEĠETĠDEĠBOURSEĠĊ": 3892,
      "3.ĠâĢĶĠ": 3893,
      "lementĠ": 3894,
      "tourĠ": 3895,
      ",ĠD": 3896,
      "es.ĠIlĠ": 3897,
      "espÃ©r": 3898,
      "lesĠdeĠ": 3899,
      "enĠeffet,Ġ": 3900,
      "reprÃ©senteĠ": 3901,
      "abs": 3902,
      ".ĠCom": 3903,
      "Ã©vÃ©n": 3904,
      "transport": 3905,
      "ectureĠ": 3906,
      "titudeĠ": 3907,
      "influenceĠ": 3908,
      "audi": 3909,
      "vitĠ": 3910,
      "teraĠ": 3911,
      "Ã©esĠdeĠ": 3912,
      "physi": 3913,
      "celui-": 3914,
      "argentĠ": 3915,
      "transform": 3916,
      "crit,Ġ": 3917,
      "moiti": 3918,
      "mesuresĠ": 3919,
      "communic": 3920,
      "rÃ©sistanceĠ": 3921,
      "CHAPITREĠ": 3922,
      "NOR": 3923,
      "OI": 3924,
      "sang": 3925,
      "Ã©es.ĠĊ": 3926,
      "enz": 3927,
      "auĠmomentĠ": 3928,
      "a,Ġfol": 3929,
      "occupa": 3930,
      "GA": 3931,
      "bomb": 3932,
      "bord": 3933,
      "o.ĠĊ": 3934,
      "tiss": 3935,
      "aisesĠ": 3936,
      "infin": 3937,
      "alitÃ©sĠ": 3938,
      "reconn": 3939,
      "rÃ©parti": 3940,
      "post": 3941,
      "heures,Ġ": 3942,
      "gÃ©nÃ©ral,Ġ": 3943,
      "jetĠdeĠ": 3944,
      "mun": 3945,
      "oubli": 3946,
      "tenuĠ": 3947,
      ".ĠNonĠsignÃ©e.Ġ": 3948,
      "routeĠ": 3949,
      "grosĠ": 3950,
      "libÃ©r": 3951,
      "d'abordĠ": 3952,
      "environĠ": 3953,
      "sÅĵ": 3954,
      "institu": 3955,
      "ceĠqu'ilĠ": 3956,
      "apprÃ©ci": 3957,
      "exact": 3958,
      "iment": 3959,
      "2ĠâĢĶĠ": 3960,
      "associ": 3961,
      "nouvellesĠ": 3962,
      "sorteĠ": 3963,
      "lui,Ġ": 3964,
      "iceĠ": 3965,
      "ne.Ġ": 3966,
      "pÃ¢": 3967,
      "rontĠ": 3968,
      "Ã¹": 3969,
      "tre.Ġ": 3970,
      "etĠauĠ": 3971,
      "accompagn": 3972,
      "accept": 3973,
      "cercleĠ": 3974,
      "grÃ¢ceĠ": 3975,
      "lav": 3976,
      "montreĠ": 3977,
      "attein": 3978,
      "ComitÃ©Ġ": 3979,
      "accordĠ": 3980,
      "f.ĠAnnexeĠ": 3981,
      "5.": 3982,
      "SER": 3983,
      "limi": 3984,
      "phÃ©n": 3985,
      "marchÃ©sĠÃłĠ": 3986,
      "faitsĠ": 3987,
      "pays": 3988,
      ".ĠVousĠ": 3989,
      "gagn": 3990,
      "catholi": 3991,
      "chiffresĠ": 3992,
      "ToutĠ": 3993,
      "MI": 3994,
      "boisĠdeĠ": 3995,
      "flo": 3996,
      "lend": 3997,
      "Â£": 3998,
      "es.ĠâĢĶĠ": 3999,
      "erĠduĠ": 4000,
      "Ã©sĠparĠ": 4001,
      "disponi": 4002,
      "vendu": 4003,
      "ART": 4004,
      "tantĠdeĠ": 4005,
      "avantageĠ": 4006,
      "caus": 4007,
      "roiĠ": 4008,
      "vÃ©ri": 4009,
      "Ã©qui": 4010,
      ".Ġ3Ġ": 4011,
      "ensĠdeĠ": 4012,
      "tre-": 4013,
      "chir": 4014,
      "sul": 4015,
      "ationĠdeĠl'": 4016,
      "produitsĠ": 4017,
      "emprun": 4018,
      "?Ġ1": 4019,
      "ÃĬ": 4020,
      "tĠdeĠlaĠ": 4021,
      "dÃ©pos": 4022,
      "Ã©sĠauĠ": 4023,
      "anceĠduĠ": 4024,
      ".ĠJ'": 4025,
      "petitesĠ": 4026,
      "(P": 4027,
      "Russi": 4028,
      "durÃ©eĠ": 4029,
      "age": 4030,
      "sousĠlesĠ": 4031,
      "longĠ": 4032,
      "primesĠ": 4033,
      "grammesĠ": 4034,
      "ÃłĠg.Ġ:Ġ": 4035,
      "soientĠ": 4036,
      "sÃ©rieĠ": 4037,
      "magistr": 4038,
      "Bou": 4039,
      "Lecl": 4040,
      "St-": 4041,
      "dsĠ": 4042,
      "de.Ġ": 4043,
      "e,ĠquiĠ": 4044,
      "surĠdesĠ": 4045,
      "tern": 4046,
      "cadr": 4047,
      "annu": 4048,
      "JeanĠ": 4049,
      "puisseĠ": 4050,
      "Berl": 4051,
      "Toul": 4052,
      "jo": 4053,
      "mÃ©n": 4054,
      "eng": 4055,
      "conf": 4056,
      "estĠenĠ": 4057,
      "Ã¢tĠ": 4058,
      "loinĠ": 4059,
      "profess": 4060,
      "tandisĠ": 4061,
      "EgliseĠ": 4062,
      "quoti": 4063,
      "lendem": 4064,
      "UN": 4065,
      "bis": 4066,
      ".Ġ30": 4067,
      "l'ob": 4068,
      "formÃ©": 4069,
      "catĠ": 4070,
      "court": 4071,
      "eux.ĠĊ": 4072,
      "glob": 4073,
      "suppl": 4074,
      "IIIĠ": 4075,
      "souven": 4076,
      "reÃ§uĠ": 4077,
      "MARCH": 4078,
      "EAU.ĠĊ": 4079,
      ");Ġ": 4080,
      "an,Ġ": 4081,
      "tradu": 4082,
      "au-dessu": 4083,
      "Ã©Ġ:Ġ": 4084,
      "oieĠ": 4085,
      "yĠâĢĶĠ": 4086,
      "Ã©esĠparĠ": 4087,
      "nousĠavonsĠ": 4088,
      "DUĠNOR": 4089,
      "dÃ»Ġ": 4090,
      "bÃ¢ti": 4091,
      "Cor": 4092,
      "PH": 4093,
      "Ro": 4094,
      "p.Ġ2": 4095,
      "onĠduĠ": 4096,
      "erĠparĠ": 4097,
      "liaisonĠ": 4098,
      "s'Ã©taitĠ": 4099,
      "and,Ġ": 4100,
      "classeĠ": 4101,
      "urg": 4102,
      "Ang": 4103,
      "doubleĠ": 4104,
      "TrÃ¨sĠ": 4105,
      "UnionsĠ": 4106,
      "3Ġ1": 4107,
      "3*Ġ": 4108,
      "Ban": 4109,
      "fÃ©vrierĠ": 4110,
      "etĠilĠ": 4111,
      "unitÃ©": 4112,
      "possibil": 4113,
      "e),ĠdeĠ": 4114,
      "LouisĠ": 4115,
      "----------------": 4116,
      "multipli": 4117,
      "38Ġ": 4118,
      "96": 4119,
      "hame": 4120,
      "autre,Ġ": 4121,
      "che,Ġ": 4122,
      "enĠvueĠ": 4123,
      ";ĠelleĠ": 4124,
      "amÃ©ric": 4125,
      "propo": 4126,
      "mod": 4127,
      "ÃłĠlaĠdispositionĠ": 4128,
      "dontĠl'": 4129,
      "illeĠdeĠ": 4130,
      "relationsĠ": 4131,
      "suivreĠ": 4132,
      "diffÃ©rentesĠ": 4133,
      "juinĠ1918,Ġ": 4134,
      "EmmanuelleĠ": 4135,
      "Seine-et-": 4136,
      "Aca": 4137,
      "abor": 4138,
      "s'yĠ": 4139,
      "000": 4140,
      "elle.ĠĊ": 4141,
      "dispos": 4142,
      "dansĠlaĠrÃ©gionĠdeĠ": 4143,
      "heures": 4144,
      "paiementĠ": 4145,
      "industrieĠ": 4146,
      "86": 4147,
      "dateĠ": 4148,
      "e.": 4149,
      "pÃ¨reĠ": 4150,
      "sil": 4151,
      "esĠdesĠ": 4152,
      "intr": 4153,
      "pagneĠ": 4154,
      "Ã©ĠÃłĠlaĠ": 4155,
      "avisĠ": 4156,
      "rÃ©c": 4157,
      "cesĠdeuxĠ": 4158,
      "jugeĠ": 4159,
      "forceĠ": 4160,
      "embre,Ġ": 4161,
      "ministreĠ": 4162,
      "ombĠ": 4163,
      "),ĠdeĠ": 4164,
      "umentĠ": 4165,
      "LAĠB": 4166,
      "numÃ©r": 4167,
      "norm": 4168,
      "ons.ĠĊ": 4169,
      "ungĠ": 4170,
      "permet": 4171,
      "marqu": 4172,
      "prÃ©sentĠ": 4173,
      "fondsĠ": 4174,
      "jetsĠ": 4175,
      "in-4Â°": 4176,
      "aussitÃ´tĠ": 4177,
      "(J": 4178,
      "mÃ©lang": 4179,
      "ezĠpasĠ": 4180,
      "compli": 4181,
      "devientĠ": 4182,
      "pein": 4183,
      "droitsĠ": 4184,
      "nÃ©cessairesĠ": 4185,
      "identi": 4186,
      "marchÃ©ĠduĠ": 4187,
      "prisonniersĠ": 4188,
      "indispens": 4189,
      "MessageĠtÃ©lÃ©phon": 4190,
      "4.ĠâĢĶĠ": 4191,
      "7.": 4192,
      "Ain": 4193,
      "T.ĠĊ": 4194,
      "sent": 4195,
      "ÃĶ": 4196,
      "espr": 4197,
      "dureĠ": 4198,
      "susp": 4199,
      "sion,Ġ": 4200,
      "aval": 4201,
      ":Ġ1Â°Ġ": 4202,
      "bless": 4203,
      "mortĠ": 4204,
      "fÃ©": 4205,
      "Ãĩ": 4206,
      ".ĠâĢĶ": 4207,
      "ents": 4208,
      "effetsĠ": 4209,
      ".ĠParĠ": 4210,
      "oute": 4211,
      "ui,Ġ": 4212,
      "aillesĠ": 4213,
      "commerceĠ": 4214,
      "EmpereurĠ": 4215,
      "PÃ©tersbourg": 4216,
      "4Â°Ġ": 4217,
      "PAR": 4218,
      "Ren": 4219,
      "vac": 4220,
      "angu": 4221,
      "titres,Ġ": 4222,
      "insĠdeĠ": 4223,
      "e.ĠL'": 4224,
      "pourĠunĠ": 4225,
      "ÃīĠ": 4226,
      "courtĠ": 4227,
      "statu": 4228,
      "blanc": 4229,
      "aprÃ¨sĠlaĠ": 4230,
      "groupementĠ": 4231,
      "MÃīDI": 4232,
      "rÃ©ponseĠ": 4233,
      "pratiqu": 4234,
      "Seine-et-Ois": 4235,
      "Beau": 4236,
      "ner": 4237,
      "ert": 4238,
      "ismeĠ": 4239,
      "chni": 4240,
      "d'E": 4241,
      "deĠlaĠRÃ©": 4242,
      ".ĠAin": 4243,
      "pendant,Ġ": 4244,
      "transfer": 4245,
      "pÃ©nÃ©tr": 4246,
      "difficult": 4247,
      "(3": 4248,
      ",8": 4249,
      "2Ġ1": 4250,
      "cell": 4251,
      "dtĠ": 4252,
      "osĠ": 4253,
      "rĠdeĠ": 4254,
      "isl": 4255,
      "erĠsonĠ": 4256,
      "queĠlâĢĻ": 4257,
      "parĠexempl": 4258,
      "Ã©ni": 4259,
      "motĠ": 4260,
      "dansĠlaĠrÃ©gionĠ": 4261,
      "oÃ¹ĠleĠ": 4262,
      ".Ġ2ĠeĠÃ©tatĠ:Ġ": 4263,
      "Lorr": 4264,
      "VoirĠ": 4265,
      "bar": 4266,
      "elaĠ": 4267,
      "ox": 4268,
      "s,ĠleĠ": 4269,
      "Ã©eĠparĠleĠ": 4270,
      "Ã©galĠ": 4271,
      "besoin": 4272,
      "TE": 4273,
      "dil": 4274,
      "eĠsiÃ¨": 4275,
      "deĠre": 4276,
      "Ã¨teĠ": 4277,
      "Ã©ĠlesĠ": 4278,
      "dit,Ġ": 4279,
      "sitÃ©Ġ": 4280,
      "accu": 4281,
      ":ĠlaĠ": 4282,
      "iÃ¨re,Ġ": 4283,
      "culaireĠ": 4284,
      "jusquâĢĻ": 4285,
      "partĠdesĠ": 4286,
      "crÃ©ditĠinter": 4287,
      "quantitÃ©Ġ": 4288,
      "bÃ©nÃ©ficeĠ": 4289,
      "98": 4290,
      "Le": 4291,
      "bel": 4292,
      "gensĠ": 4293,
      "eĠenĠ": 4294,
      ".Ġg": 4295,
      "ÃłĠleurĠ": 4296,
      "Ã©tendu": 4297,
      "ssiĠ": 4298,
      "antes,Ġ": 4299,
      "disposi": 4300,
      "pendantĠlaĠ": 4301,
      "canonnier": 4302,
      "Etat": 4303,
      "procureurĠ": 4304,
      "48Ġ": 4305,
      "CAD": 4306,
      "hou": 4307,
      "mand": 4308,
      "taĠ": 4309,
      "ÃłĠSaint-": 4310,
      "motsĠ": 4311,
      "siĠleĠ": 4312,
      "suivanteĠ": 4313,
      "diffÃ©renceĠ": 4314,
      "canneĠ": 4315,
      "habit": 4316,
      "moucheĠ": 4317,
      "combin": 4318,
      "septĠ": 4319,
      "recevoirĠ": 4320,
      "(S": 4321,
      ",0": 4322,
      "200": 4323,
      "dx": 4324,
      "jard": 4325,
      "eure": 4326,
      "surveill": 4327,
      "bles": 4328,
      "lettresĠ": 4329,
      "conseill": 4330,
      "vouluĠ": 4331,
      "manifest": 4332,
      "Toulou": 4333,
      "Br": 4334,
      "mais": 4335,
      "press": 4336,
      "path": 4337,
      "al.ĠĊ": 4338,
      "d'avoirĠ": 4339,
      "acteĠ": 4340,
      "endraĠ": 4341,
      "itÃ©ĠdesĠ": 4342,
      "noteĠ": 4343,
      ".000": 4344,
      "Saint": 4345,
      "batailleĠ": 4346,
      "diffÃ©rentsĠ": 4347,
      "matinĠ": 4348,
      "avantĠlaĠ": 4349,
      "jusqu'auĠ": 4350,
      "spÃ©cul": 4351,
      "ancienĠ": 4352,
      "Ã©limin": 4353,
      "grammeĠchiff": 4354,
      "longtempsĠ": 4355,
      "appuy": 4356,
      "arbitr": 4357,
      "ATI": 4358,
      "fati": 4359,
      "auri": 4360,
      "l'ennemiĠ": 4361,
      "regar": 4362,
      ".ĠâĢĶĠM": 4363,
      "1918": 4364,
      "plusĠouĠ": 4365,
      "forteĠ": 4366,
      "commen": 4367,
      "adop": 4368,
      "itÃ©.ĠĊ": 4369,
      "organisationĠ": 4370,
      "limit": 4371,
      "instructionĠ": 4372,
      "neĠsontĠpasĠ": 4373,
      "judici": 4374,
      "Roy": 4375,
      "ram": 4376,
      "erÃ§": 4377,
      "INT": 4378,
      "gÃ©nÃ©ralementĠ": 4379,
      "AUXĠ": 4380,
      "aÃ§": 4381,
      "dos": 4382,
      "membreĠ": 4383,
      "aĠÃłĠ": 4384,
      "appro": 4385,
      "jour,Ġ": 4386,
      "donnÃ©esĠ": 4387,
      "derniersĠ": 4388,
      "e.ĠC'estĠ": 4389,
      "EtatĠ": 4390,
      "prononc": 4391,
      "novembreĠ": 4392,
      "coordonnÃ©esĠ": 4393,
      "milleĠ": 4394,
      "tÃª": 4395,
      "ĠâĢĶĠ": 4396,
      "aient,Ġ": 4397,
      "introdu": 4398,
      "Ã¢meĠ": 4399,
      "Ã©ventu": 4400,
      "longueĠ": 4401,
      "SergeĠ": 4402,
      "gross": 4403,
      "eĠarmÃ©e.ĠĊ": 4404,
      "derriÃ¨reĠ": 4405,
      "tienne,Ġ": 4406,
      "offensiveĠ": 4407,
      "2;Ġ": 4408,
      "P.ĠC": 4409,
      "radi": 4410,
      "deĠleurĠ": 4411,
      "istesĠ": 4412,
      "erĠÃłĠl'": 4413,
      "queĠcesĠ": 4414,
      "expÃ©ri": 4415,
      ".ĠEx": 4416,
      "entreĠleĠ": 4417,
      "oÃ¹ĠlaĠ": 4418,
      "eaux,Ġ": 4419,
      ".Ġ(D.)Ġ": 4420,
      "Ã©quationsĠ": 4421,
      "enfantĠ": 4422,
      "e.ĠCeĠ": 4423,
      "ficationsĠ": 4424,
      "BUR": 4425,
      "Por": 4426,
      "lac": 4427,
      "chrÃ©": 4428,
      "deĠlaĠloiĠduĠ": 4429,
      ")Ġ=Ġ": 4430,
      "couronn": 4431,
      "anceĠdesĠ": 4432,
      "demi-": 4433,
      "franÃ§ais,Ġ": 4434,
      "entrepris": 4435,
      "banqu": 4436,
      "origin": 4437,
      "ARMÃīE.ĠĊ": 4438,
      "AllemagneĠ": 4439,
      "abbÃ©Ġ": 4440,
      "CompteĠ": 4441,
      ",0Ġ": 4442,
      "36Ġ": 4443,
      "NE": 4444,
      "RESĠ": 4445,
      "oss": 4446,
      "indÃ©pend": 4447,
      "queĠlâĢĻonĠ": 4448,
      "dÃ©part": 4449,
      "mitr": 4450,
      ",Ġp.Ġ2": 4451,
      "prÃ©parationĠ": 4452,
      "dÃ©cretĠduĠ": 4453,
      "infanterieĠ": 4454,
      "MÃīDICATION": 4455,
      "1\"Ġ": 4456,
      "doul": 4457,
      "hodeĠ": 4458,
      "me": 4459,
      "trui": 4460,
      "auquelĠ": 4461,
      "etĠ(": 4462,
      "exerci": 4463,
      ".ĠâĢĶĠUnĠ": 4464,
      "pasĠÃłĠ": 4465,
      "toutĠÃłĠ": 4466,
      "tempÃ©r": 4467,
      ".ĠDansĠlaĠmargeĠ": 4468,
      "muth": 4469,
      ").Ġ2eĠC": 4470,
      "1ĠerĠÃ©tatĠ:ĠlâĢĻÃ©tatĠdÃ©crit,Ġ": 4471,
      "9.ĠĊ": 4472,
      "belleĠ": 4473,
      "ew": 4474,
      "queĠduĠ": 4475,
      "rÃ©esĠ": 4476,
      "e.ĠD": 4477,
      "euxĠdeĠ": 4478,
      "lusĠ": 4479,
      "sontĠdesĠ": 4480,
      "permett": 4481,
      "Indic": 4482,
      "Alber": 4483,
      "candi": 4484,
      "gÃ©nÃ©ralĠdeĠ": 4485,
      "concentr": 4486,
      "normal": 4487,
      "DEĠL'ES": 4488,
      "pau": 4489,
      "tauxĠ": 4490,
      "onom": 4491,
      "tre.ĠĊ": 4492,
      "sionn": 4493,
      "âĢĻĠĊ": 4494,
      "Ã©tat,Ġ": 4495,
      "s,ĠetĠ": 4496,
      "es,ĠdesĠ": 4497,
      "prÃ©l": 4498,
      "bien,Ġ": 4499,
      ".ĠSurĠ": 4500,
      "sup.,Ġ": 4501,
      "expliqu": 4502,
      "roupi": 4503,
      "56": 4504,
      "Ass": 4505,
      "SaĠ": 4506,
      "mais,Ġ": 4507,
      "eĠleĠ": 4508,
      "Ã©ti": 4509,
      "outre,Ġ": 4510,
      "aĠfaitĠ": 4511,
      "isseĠ": 4512,
      "ilĠseĠ": 4513,
      "ter,Ġ": 4514,
      "eauĠdeĠ": 4515,
      "ANC": 4516,
      "diffici": 4517,
      "ALĠ": 4518,
      "exÃ©cutionĠ": 4519,
      "largeĠ": 4520,
      "kilomÃ¨": 4521,
      "saufĠ": 4522,
      "-,Ġ": 4523,
      "Hu": 4524,
      "HUR": 4525,
      "VII": 4526,
      "fabri": 4527,
      "d'enĠ": 4528,
      "et.Ġ": 4529,
      "agrÃ©": 4530,
      "seraientĠ": 4531,
      "yĠetĠ": 4532,
      "Ã´leĠ": 4533,
      "Ã¢ch": 4534,
      "ignor": 4535,
      "ennemieĠ": 4536,
      "Ã©crireĠ": 4537,
      ".ĠImpr.,ĠÃ©d.ĠA,Ġ": 4538,
      "tuberculo": 4539,
      "chauff": 4540,
      "ClercĠf": 4541,
      "tÃ©moign": 4542,
      "!..": 4543,
      "LUR": 4544,
      "M.ĠR": 4545,
      "a.ĠĊ": 4546,
      "d-": 4547,
      "aulĠ": 4548,
      "ÃłĠsesĠ": 4549,
      "alu": 4550,
      "antĠduĠ": 4551,
      "parĠrapportĠ": 4552,
      "agentsĠ": 4553,
      "quiĠl'": 4554,
      "Ã©esĠetĠ": 4555,
      "asp": 4556,
      "communi": 4557,
      "entreĠlaĠ": 4558,
      "oÃ¹ĠlesĠ": 4559,
      "Art.Ġ1": 4560,
      "Qu'": 4561,
      "diffÃ©renti": 4562,
      "oirsĠ": 4563,
      "Q.ĠG.,ĠleĠ": 4564,
      "cinqu": 4565,
      "moi,Ġ": 4566,
      "graph": 4567,
      "haut,Ġ": 4568,
      "miseĠenĠ": 4569,
      "syphilisĠ": 4570,
      "abandonn": 4571,
      "AffairesĠ": 4572,
      "CADRON": 4573,
      "1/": 4574,
      "sen": 4575,
      "orn": 4576,
      "eurs.ĠĊ": 4577,
      "lut": 4578,
      "fractionĠ": 4579,
      "commeĠleĠ": 4580,
      "renforc": 4581,
      "d'uneĠfaÃ§onĠ": 4582,
      "aprÃ¨sĠavoirĠ": 4583,
      "dÃ©tach": 4584,
      "LESĠGA": 4585,
      "câĢĻestĠ": 4586,
      "kilo": 4587,
      "texteĠauĠvers": 4588,
      "besoinĠ": 4589,
      "simplementĠ": 4590,
      "systÃ¨meĠ": 4591,
      "empÃªch": 4592,
      "Arbeits": 4593,
      "plusĠouĠmoinsĠ": 4594,
      "',Ġ": 4595,
      "(D.)Ġ": 4596,
      ",,Ġ": 4597,
      "Mad": 4598,
      "eÃ»tĠ": 4599,
      "e,ĠonĠ": 4600,
      "entraÃ®n": 4601,
      "matiÃ¨reĠdeĠ": 4602,
      "Group": 4603,
      "c'Ã©taitĠ": 4604,
      "vingt-": 4605,
      "statistiquesĠ": 4606,
      "bureauĠ": 4607,
      "M.ĠD": 4608,
      "NatureĠ": 4609,
      "brig": 4610,
      "h.Ġ3": 4611,
      "rm": 4612,
      "uresĠ": 4613,
      ".ĠW": 4614,
      "eronsĠ": 4615,
      "avaisĠ": 4616,
      "antĠÃłĠlaĠ": 4617,
      "neĠleĠ": 4618,
      "terme,Ġ": 4619,
      "commeĠuneĠ": 4620,
      "auraientĠ": 4621,
      "install": 4622,
      "HURLUR": 4623,
      ",2Ġ": 4624,
      "3eĠ": 4625,
      "bois": 4626,
      "olesĠ": 4627,
      "envis": 4628,
      "Ã©ĠdeĠlaĠ": 4629,
      "deĠlaĠS": 4630,
      "LeĠgÃ©nÃ©ralĠ": 4631,
      ".ĠMais,Ġ": 4632,
      "usageĠ": 4633,
      "questionsĠ": 4634,
      "contreĠlesĠ": 4635,
      "moyensĠ": 4636,
      "vÃ©ritableĠ": 4637,
      "65Ġ": 4638,
      "97": 4639,
      "Gir": 4640,
      "HĠ": 4641,
      "aÃ¯": 4642,
      "erĠ(": 4643,
      "suite,Ġ": 4644,
      "comprisĠ": 4645,
      "...,Ġ": 4646,
      "devoirĠ": 4647,
      "dÃ©sir": 4648,
      "faudr": 4649,
      "Anglet": 4650,
      "occasionĠ": 4651,
      "57": 4652,
      "ameĠ": 4653,
      "filleĠ": 4654,
      "ys": 4655,
      "initi": 4656,
      "ationn": 4657,
      "rÃ©ci": 4658,
      "es,ĠlaĠ": 4659,
      "expressionĠ": 4660,
      ")Ġ;Ġ": 4661,
      "autom": 4662,
      "ilsĠsontĠ": 4663,
      "ClÃ©ri": 4664,
      "cepti": 4665,
      "professi": 4666,
      "chiffreĠ": 4667,
      "Georg": 4668,
      "bombard": 4669,
      "RÃī": 4670,
      "beauĠ": 4671,
      "doc": 4672,
      "flu": 4673,
      "deĠnosĠ": 4674,
      "aitĠunĠ": 4675,
      "antĠunĠ": 4676,
      "auĠsudĠ": 4677,
      "ance.ĠĊ": 4678,
      "rentr": 4679,
      "signi": 4680,
      "chevÃª": 4681,
      "allemand": 4682,
      "caractÃ©ris": 4683,
      "tox": 4684,
      "atteintĠ": 4685,
      "imagin": 4686,
      "1Ġ1": 4687,
      "Ni": 4688,
      "Un": 4689,
      "e).ĠĊ": 4690,
      "mus": 4691,
      "Ã©si": 4692,
      "Ã©prouv": 4693,
      ",ĠC": 4694,
      "aĠuneĠ": 4695,
      "ersĠdeĠ": 4696,
      "âĢĿ": 4697,
      "queĠj'": 4698,
      "ent-": 4699,
      "viteĠ": 4700,
      "ast": 4701,
      "Ã©gal": 4702,
      "assist": 4703,
      "ChÃ¢t": 4704,
      "300Ġ": 4705,
      "bas,Ġ": 4706,
      "84": 4707,
      "aigu": 4708,
      "aĠ2Ġ": 4709,
      "etĠsonĠ": 4710,
      "elĠdeĠ": 4711,
      "d'ac": 4712,
      "agn": 4713,
      "abou": 4714,
      "explic": 4715,
      "surĠsonĠ": 4716,
      "objec": 4717,
      "disci": 4718,
      "marcheĠ": 4719,
      "tÃ©ĠduĠ": 4720,
      "iers,Ġ": 4721,
      "rog": 4722,
      ".ĠOnĠaĠ": 4723,
      "servicesĠ": 4724,
      "SION": 4725,
      "TÃ©lÃ©grammeĠchiff": 4726,
      "DEĠL'ESCADRON": 4727,
      "vĠ": 4728,
      "eĠlaĠ": 4729,
      "Ã©chang": 4730,
      "trac": 4731,
      "litĠ": 4732,
      "contientĠ": 4733,
      "plaisi": 4734,
      "antsĠdeĠ": 4735,
      "vic": 4736,
      "cad": 4737,
      "tenueĠ": 4738,
      "ombreĠ": 4739,
      "Ã©tablirĠ": 4740,
      "Command": 4741,
      "figureĠ": 4742,
      "histoireĠ": 4743,
      "ITÃīSĠ": 4744,
      "regardĠ": 4745,
      "mitraill": 4746,
      "For": 4747,
      "Per": 4748,
      "fsĠ": 4749,
      "lÃ¨": 4750,
      "ose": 4751,
      "t'": 4752,
      ".Ġc": 4753,
      "esĠdeĠlaĠ": 4754,
      "ouestĠ": 4755,
      "tiennentĠ": 4756,
      "didi": 4757,
      "plat": 4758,
      "Ãªm": 4759,
      "e.ĠDansĠ": 4760,
      "ectionsĠ": 4761,
      "es,ĠdeĠ": 4762,
      "n'aiĠ": 4763,
      "sectionĠ": 4764,
      ".ĠEnĠbasĠ": 4765,
      "procÃ©": 4766,
      "couvertureĠ": 4767,
      "batteriesĠ": 4768,
      "accidentsĠ": 4769,
      ";ĠEdĠ59Ġd": 4770,
      "f,Ġ": 4771,
      "pier": 4772,
      "tellesĠ": 4773,
      "eĠdesĠ": 4774,
      "ÃłĠseĠ": 4775,
      "ellig": 4776,
      "aitĠlesĠ": 4777,
      "Ã©loign": 4778,
      "t.Ġ19": 4779,
      "derniÃ¨resĠ": 4780,
      "faceĠp": 4781,
      "nav": 4782,
      "s;Ġ": 4783,
      "reportĠ": 4784,
      "Ã©tonn": 4785,
      "plutÃ´tĠ": 4786,
      "yĠavaitĠ": 4787,
      "dress": 4788,
      ".Ġ16": 4789,
      "seauĠ": 4790,
      "criseĠ": 4791,
      "gÃ©ni": 4792,
      "faibleĠ": 4793,
      "consci": 4794,
      "ARMÃīESĠ": 4795,
      "examin": 4796,
      "0.": 4797,
      "tax": 4798,
      "tim": 4799,
      "aĠetĠ": 4800,
      "aĠunĠ": 4801,
      "qualitÃ©Ġ": 4802,
      "espa": 4803,
      "iĠdeĠ": 4804,
      "Ã©ĠuneĠ": 4805,
      "erĠsaĠ": 4806,
      "suj": 4807,
      "antĠdeĠlaĠ": 4808,
      "abond": 4809,
      ".Ġ14": 4810,
      "Ã©esĠauĠ": 4811,
      "elles": 4812,
      "partieĠdeĠ": 4813,
      "mark": 4814,
      "ableĠdeĠ": 4815,
      "boutĠ": 4816,
      "a-t-": 4817,
      "rÃ©pÃ©t": 4818,
      "formuleĠ": 4819,
      "-fĠ": 4820,
      "PO": 4821,
      "ique,Ġ": 4822,
      "join": 4823,
      "leĠcasĠ": 4824,
      "duc": 4825,
      "Ã©ĠunĠ": 4826,
      "diz": 4827,
      "recu": 4828,
      "franch": 4829,
      "formesĠ": 4830,
      "elĠestĠleĠ": 4831,
      "sous": 4832,
      "heures.ĠĊ": 4833,
      "mÃ©thodeĠ": 4834,
      "prÃ©cÃ©dent": 4835,
      "IQU": 4836,
      "ii": 4837,
      "nul": 4838,
      "tsĠdeĠ": 4839,
      "ÃłĠlaquelleĠ": 4840,
      "choixĠ": 4841,
      "queĠdeĠlaĠ": 4842,
      ";ĠV": 4843,
      ")Ġ:Ġ": 4844,
      "imentĠ": 4845,
      "ation.ĠâĢĶĠ": 4846,
      "devraĠ": 4847,
      "degrÃ©Ġ": 4848,
      "dessousĠ": 4849,
      "allemandeĠ": 4850,
      "Ã©tat-majorĠ": 4851,
      "NeĠ": 4852,
      "Val": 4853,
      "fÃ»tĠ": 4854,
      "meu": 4855,
      ",ĠuneĠ": 4856,
      "dire,Ġ": 4857,
      "duĠS": 4858,
      "dÃ©du": 4859,
      "antĠuneĠ": 4860,
      "agentĠ": 4861,
      "vieuxĠ": 4862,
      "ieĠdesĠ": 4863,
      "addi": 4864,
      "rendĠ": 4865,
      "maladeĠ": 4866,
      "rapproch": 4867,
      "consac": 4868,
      "vous,Ġ": 4869,
      "erie,Ġ": 4870,
      "ouvriersĠ": 4871,
      "ressor": 4872,
      "agentsĠdeĠchangeĠ": 4873,
      "cÃ©rÃ©": 4874,
      "Jocely": 4875,
      "limiteĠ": 4876,
      "Neu": 4877,
      "kgĠ": 4878,
      "sauv": 4879,
      ".Ġ2Ġ": 4880,
      "ench": 4881,
      "iĠĊ": 4882,
      "conver": 4883,
      "parĠsuiteĠ": 4884,
      "pur": 4885,
      "distribu": 4886,
      "ordreĠdeĠ": 4887,
      "colonneĠ": 4888,
      "Reich": 4889,
      "suivantesĠ": 4890,
      "vraiĠ": 4891,
      "indivi": 4892,
      "techni": 4893,
      "dÃ©laisĠ": 4894,
      "ouvrirĠ": 4895,
      "criptionsĠ": 4896,
      "histori": 4897,
      "PierreĠ": 4898,
      "PapeĠ": 4899,
      "MessageĠtÃ©lÃ©phonÃ©.ĠĊ": 4900,
      "32Ġ": 4901,
      "CK": 4902,
      "CO": 4903,
      "Deu": 4904,
      "XI": 4905,
      "k,Ġ": 4906,
      "tes": 4907,
      "ers-": 4908,
      "etĠneĠ": 4909,
      "prin": 4910,
      "dÃ©ch": 4911,
      "dÃ©pass": 4912,
      "surĠceĠ": 4913,
      "pasĠleĠ": 4914,
      "ellement,Ġ": 4915,
      "mari": 4916,
      "intellig": 4917,
      "qu'ilĠneĠ": 4918,
      "AĠlaĠ": 4919,
      "AĠTER": 4920,
      "soldeĠ": 4921,
      "destru": 4922,
      "rÃ©gimeĠ": 4923,
      "rÃ©sul": 4924,
      "directementĠ": 4925,
      "BourseĠ": 4926,
      "vingtĠ": 4927,
      "gÃ©nÃ©ralĠcommandantĠleĠ": 4928,
      "aprÃ¨s-": 4929,
      "rapidementĠ": 4930,
      ",6Ġ": 4931,
      "AS": 4932,
      "Ac": 4933,
      "RĠ": 4934,
      "loisĠ": 4935,
      "niv": 4936,
      "o)Ġ": 4937,
      "s.": 4938,
      "telsĠ": 4939,
      "u,Ġ": 4940,
      "Ã©gu": 4941,
      "enci": 4942,
      "e,ĠunĠ": 4943,
      "entendu": 4944,
      "aitĠuneĠ": 4945,
      "ouĠdesĠ": 4946,
      "siĠlaĠ": 4947,
      "commissionĠ": 4948,
      "nonĠseulementĠ": 4949,
      "e.ĠEtĠ": 4950,
      "moindreĠ": 4951,
      "accord": 4952,
      "hauteĠ": 4953,
      "bÃ©nÃ©fici": 4954,
      "parmiĠlesĠ": 4955,
      "bismuth": 4956,
      "32": 4957,
      "Afri": 4958,
      "CommeĠ": 4959,
      "Eu": 4960,
      "GU": 4961,
      "Nanc": 4962,
      "RO": 4963,
      "g.,Ġ": 4964,
      "liseĠ": 4965,
      "saitĠ": 4966,
      "toi": 4967,
      "condam": 4968,
      "reti": 4969,
      "combat": 4970,
      "prÃ©fÃ©r": 4971,
      "ations.ĠĊ": 4972,
      "Ord": 4973,
      "ressour": 4974,
      "Montdidi": 4975,
      "caoutchouc": 4976,
      "illustr": 4977,
      "AvecĠ": 4978,
      "expÃ©di": 4979,
      "Indications": 4980,
      "500": 4981,
      "C.ĠC": 4982,
      "NÂ°Ġ1": 4983,
      "Pri": 4984,
      "boul": 4985,
      "barr": 4986,
      "yg": 4987,
      "z,Ġ": 4988,
      "etĠsuiv": 4989,
      "ÃłĠfaireĠ": 4990,
      "Ã¨s,Ġ": 4991,
      "parfait": 4992,
      "amÃ©li": 4993,
      "ex-": 4994,
      "projec": 4995,
      "urop": 4996,
      "contre": 4997,
      ",Ġp.Ġ4": 4998,
      "sorti": 4999,
      "directionĠ": 5000,
      ".ĠImpr.,ĠÃ©d.ĠAĠetĠ": 5001,
      "ÃītatĠ": 5002,
      "intermÃ©diaireĠ": 5003,
      "e)ĠetĠenf.,Ġ": 5004,
      "*ĠĊ": 5005,
      "Car": 5006,
      "celle-": 5007,
      "gri": 5008,
      "lam": 5009,
      "ne": 5010,
      "ilĠaĠ": 5011,
      "cureĠ": 5012,
      "mois,Ġ": 5013,
      "partici": 5014,
      "Saint-SaÃ«n": 5015,
      "JeĠvousĠ": 5016,
      "2eĠcanonnier": 5017,
      "moisĠdeĠ": 5018,
      "candid": 5019,
      "LESĠGAITÃīSĠ": 5020,
      "amÃ©lior": 5021,
      "LESĠGAITÃīSĠDEĠL'ESCADRON": 5022,
      ",4Ġ": 5023,
      "FR": 5024,
      "Mal": 5025,
      "PE": 5026,
      "bo": 5027,
      "bac": 5028,
      "coul": 5029,
      "nob": 5030,
      "saisi": 5031,
      "vaisĠ": 5032,
      "Ãİ": 5033,
      ",ĠunĠ": 5034,
      "aiĠdeĠ": 5035,
      "ait-": 5036,
      "onĠneĠ": 5037,
      "ordr": 5038,
      "chal": 5039,
      "chim": 5040,
      "desĠAffairesĠ": 5041,
      "Ġ10Ġ": 5042,
      "front": 5043,
      "comptesĠ": 5044,
      "chezĠlesĠ": 5045,
      "Ã©tudesĠ": 5046,
      "ausseĠ": 5047,
      "chÃ´meursĠ": 5048,
      "vuesĠ": 5049,
      "(N.)Ġ": 5050,
      ",9": 5051,
      ",1Ġ": 5052,
      "CL": 5053,
      "Ph": 5054,
      "Vic": 5055,
      "gesĠ": 5056,
      "masseĠ": 5057,
      "d'artillerieĠ": 5058,
      "euxĠetĠ": 5059,
      ".ĠSonĠ": 5060,
      "pourquoiĠ": 5061,
      "Dij": 5062,
      "moyenneĠ": 5063,
      "nÃ©gociationĠ": 5064,
      "ativesĠ": 5065,
      "rÃ©servesĠ": 5066,
      "nombreusesĠ": 5067,
      "LÃ©onĠ": 5068,
      "âĢŀĠ": 5069,
      "ajouteĠ": 5070,
      "tienne,ĠLoire": 5071,
      "Dom": 5072,
      "D.ĠC": 5073,
      "ron": 5074,
      "rappel": 5075,
      "vesĠ": 5076,
      "entĠauĠ": 5077,
      "chlor": 5078,
      "Ã¨l": 5079,
      "aitĠdesĠ": 5080,
      "aci": 5081,
      "ture,Ġ": 5082,
      ".ĠIn": 5083,
      "dâĢĻab": 5084,
      "carn": 5085,
      "ables,Ġ": 5086,
      "ClaireĠ": 5087,
      "OrlÃ©": 5088,
      "retourĠ": 5089,
      "conditionĠ": 5090,
      "gouvernementĠ": 5091,
      "examenĠ": 5092,
      "impÃ´tĠ": 5093,
      "existenceĠ": 5094,
      "TÃ©lÃ©grammeĠchiffrÃ©.ĠĊ": 5095,
      "CAR": 5096,
      "bĠ1": 5097,
      "jâĢĻ": 5098,
      "Ã©vid": 5099,
      ".ĠdesĠ": 5100,
      "Ã©ĠÃłĠl'": 5101,
      "liber": 5102,
      "avou": 5103,
      "dansĠcesĠ": 5104,
      "ainĠdeĠ": 5105,
      "cach": 5106,
      ".ĠEllesĠ": 5107,
      "colonn": 5108,
      "Ind": 5109,
      "50ĠĊ": 5110,
      "Trait": 5111,
      "matiÃ¨resĠ": 5112,
      "saintĠ": 5113,
      "SansĠnumÃ©ro": 5114,
      "circonstancesĠ": 5115,
      "NĠ": 5116,
      "cant": 5117,
      "go": 5118,
      "eĠÃ©tatĠ:Ġ": 5119,
      "prol": 5120,
      "entĠetĠ": 5121,
      "Ã©ĠparĠlaĠ": 5122,
      ";ĠR": 5123,
      ";ĠenĠ": 5124,
      "agrap": 5125,
      "Ã©eĠdeĠlaĠ": 5126,
      "ouĠlaĠ": 5127,
      "essay": 5128,
      "dâĢĻoÃ¹Ġ": 5129,
      "Ã¢geĠ": 5130,
      "malheur": 5131,
      "intÃ©rÃªtsĠ": 5132,
      "LEĠMARCH": 5133,
      "lÃ©gisl": 5134,
      "tangenteĠ": 5135,
      "racinesĠ": 5136,
      "propreĠ": 5137,
      "menti": 5138,
      "chass": 5139,
      "alcul": 5140,
      "avec": 5141,
      "gros": 5142,
      "tsĠetĠ": 5143,
      "mÃ©dicam": 5144,
      "exÃ©cut": 5145,
      "major": 5146,
      "justifi": 5147,
      "Sept": 5148,
      "delÃłĠ": 5149,
      "&amp;": 5150,
      "ellip": 5151,
      "discipl": 5152,
      ",4": 5153,
      "34Ġ": 5154,
      "DÃī": 5155,
      "Gen": 5156,
      "IB": 5157,
      "Ly": 5158,
      "Ou": 5159,
      "Sign": 5160,
      "deĠdÃ©": 5161,
      "leĠpremierĠ": 5162,
      "erĠqueĠ": 5163,
      "enĠestĠ": 5164,
      "dign": 5165,
      "aitĠl'": 5166,
      "rÃ©uni": 5167,
      "neĠpouv": 5168,
      "parĠconsÃ©qu": 5169,
      "pourĠlâĢĻ": 5170,
      ")Ġ(": 5171,
      "deĠl'articleĠ": 5172,
      "feraĠ": 5173,
      "tranch": 5174,
      "QUARTI": 5175,
      "juin.ĠĊ": 5176,
      "Compagn": 5177,
      "registr": 5178,
      "circul": 5179,
      "cÅĵur": 5180,
      "lÃł,Ġ": 5181,
      "antĠenĠchefĠ": 5182,
      "n'Ã©taitĠpasĠ": 5183,
      "Berlin,Ġ": 5184,
      ",8Ġ": 5185,
      "Ab": 5186,
      "CTION": 5187,
      "SoitĠ": 5188,
      "feuĠ": 5189,
      "jeuĠ": 5190,
      "s.ĠâĢĶĠ": 5191,
      "âĦ": 5192,
      "es.ĠLeĠ": 5193,
      "art.Ġ": 5194,
      "archevÃª": 5195,
      "ise,Ġ": 5196,
      "erĠcetteĠ": 5197,
      "antĠauxĠ": 5198,
      "auĠnordĠ": 5199,
      "vieilleĠ": 5200,
      "juill": 5201,
      "toutĠenĠ": 5202,
      "phil": 5203,
      "criteĠ": 5204,
      ",Ġp.Ġ3": 5205,
      "positionĠdeĠ": 5206,
      "OMÃī": 5207,
      "dÃ©tail": 5208,
      "moins,Ġ": 5209,
      "poidsĠ": 5210,
      "RobertĠ": 5211,
      ".ĠCombienĠ": 5212,
      "âĦ¢": 5213,
      "(sansĠ": 5214,
      ",6": 5215,
      "A.ĠL": 5216,
      "Europ": 5217,
      "Im": 5218,
      "gis": 5219,
      "deĠplusĠ": 5220,
      "ouss": 5221,
      "ÃłĠtermeĠ": 5222,
      "lesĠetĠ": 5223,
      "illi": 5224,
      "agu": 5225,
      "siĠlâĢĻonĠ": 5226,
      "brus": 5227,
      "laisserĠ": 5228,
      "substitu": 5229,
      "GÃ©nÃ©ralĠ": 5230,
      "crÃ©ditĠinterentreprisesĠ": 5231,
      "Des": 5232,
      "dentĠ": 5233,
      "enlev": 5234,
      "euĠdeĠ": 5235,
      "chos": 5236,
      "suit": 5237,
      "ances,Ġ": 5238,
      "intÃ©rieurĠ": 5239,
      "surfac": 5240,
      "Institu": 5241,
      "remiseĠ": 5242,
      "coloniesĠ": 5243,
      "G.ĠQ.ĠG.ĠA": 5244,
      "sÃ©rumĠ": 5245,
      "Ã¨res.ĠĊ": 5246,
      "papierĠ": 5247,
      "33Ġ": 5248,
      "De": 5249,
      "TT": 5250,
      "caisseĠ": 5251,
      "laisseĠ": 5252,
      "maÃ®treĠ": 5253,
      "oh": 5254,
      ".Ġ1Ġ": 5255,
      "eraiĠ": 5256,
      "eul": 5257,
      "euil": 5258,
      "etĠÃłĠlaĠ": 5259,
      "alitÃ©": 5260,
      "Ã©Ġd'": 5261,
      "parceĠqueĠ": 5262,
      "Ã©eĠparĠlaĠ": 5263,
      "frapp": 5264,
      "dr.,Ġ": 5265,
      ".ĠCf": 5266,
      "res.ĠĊ": 5267,
      "commeĠilĠ": 5268,
      "jeĠmeĠ": 5269,
      "suivantsĠ": 5270,
      "faÃ§": 5271,
      "rÃ©gion": 5272,
      "principeĠ": 5273,
      "capitalĠ": 5274,
      "suffitĠ": 5275,
      "MENT": 5276,
      "nous,Ġ": 5277,
      "tubercul": 5278,
      "Tour": 5279,
      "__": 5280,
      "f(": 5281,
      "her": 5282,
      "Ã©puis": 5283,
      "onti": 5284,
      "aĠpourĠ": 5285,
      "pati": 5286,
      "signeĠ": 5287,
      "xĠ=Ġ": 5288,
      "seĠdÃ©": 5289,
      "eurĠd'": 5290,
      "court,Ġ": 5291,
      "joursĠdeĠ": 5292,
      "journÃ©": 5293,
      "ennesĠ": 5294,
      "rectang": 5295,
      "e.ĠCetteĠ": 5296,
      "lieuten": 5297,
      "autres,Ġ": 5298,
      "domaineĠ": 5299,
      "chapi": 5300,
      "succÃ¨sĠ": 5301,
      "Seine-et-Oise.Ġ": 5302,
      ",3Ġ": 5303,
      "IM": 5304,
      "ed": 5305,
      "ferĠ": 5306,
      "mm": 5307,
      ",ĠA": 5308,
      "dileĠ": 5309,
      "duĠfrontĠ": 5310,
      ":Ġ(": 5311,
      "amour": 5312,
      "cesĠdeĠ": 5313,
      "alĠduĠ": 5314,
      "ockĠ": 5315,
      "qu'ilĠaĠ": 5316,
      "fĠ,": 5317,
      "sect": 5318,
      "dÃ©laiĠ": 5319,
      "rÃ¨glementĠ": 5320,
      "GÃīOMÃī": 5321,
      "normaleĠ": 5322,
      ".ĠImpr.,ĠÃ©d.ĠAĠetĠAl": 5323,
      "cen": 5324,
      "vall": 5325,
      "esp": 5326,
      "Ã©Ġl'": 5327,
      "sieurĠ": 5328,
      "entour": 5329,
      "seĠsontĠ": 5330,
      "accus": 5331,
      "crimin": 5332,
      "appelĠ": 5333,
      "TĠDEĠ": 5334,
      "celleĠduĠ": 5335,
      "pÃ©rio": 5336,
      "mouvementsĠ": 5337,
      "chevalĠ": 5338,
      "moinsĠdeĠ": 5339,
      "hypothÃ¨": 5340,
      "celui-ciĠ": 5341,
      "envisag": 5342,
      "GÃīOMÃīTRI": 5343,
      "94": 5344,
      "Naud": 5345,
      "SU": 5346,
      "bordĠ": 5347,
      "tĠdesĠ": 5348,
      "endĠ": 5349,
      "quarti": 5350,
      "chÃ¢t": 5351,
      ":ĠlesĠ": 5352,
      "exac": 5353,
      "put": 5354,
      "froi": 5355,
      "commiss": 5356,
      "ir,Ġ": 5357,
      "marchÃ©ĠÃłĠ": 5358,
      "aux.ĠĊ": 5359,
      "juin,Ġ": 5360,
      "orient": 5361,
      "amorceĠ": 5362,
      "Â§Ġ": 5363,
      "exactementĠ": 5364,
      "/3": 5365,
      "78Ġ": 5366,
      "Fer": 5367,
      "Mais,Ġ": 5368,
      "Sal": 5369,
      "Tri": 5370,
      "fant": 5371,
      "non": 5372,
      "tÃ©r": 5373,
      ".Ġ[": 5374,
      "aĠpasĠ": 5375,
      "inv": 5376,
      "auprÃ¨sĠ": 5377,
      "etĠlâĢĻ": 5378,
      "ÃłĠpeuĠ": 5379,
      "els,Ġ": 5380,
      "aliment": 5381,
      "Ã©ĠpourĠ": 5382,
      "erĠdeĠlaĠ": 5383,
      "duĠchÃ´mageĠ": 5384,
      "comport": 5385,
      "paragrap": 5386,
      "provis": 5387,
      "Ã©sĠparĠleĠ": 5388,
      "guÃ¨reĠ": 5389,
      "Ã©gi": 5390,
      "croisĠ": 5391,
      "coleĠ": 5392,
      "enne,Ġ": 5393,
      "urin": 5394,
      "renouv": 5395,
      ".000ĠÂ»Ġ": 5396,
      "Alg": 5397,
      "propriÃ©tÃ©Ġ": 5398,
      "aires.ĠĊ": 5399,
      "quinzeĠ": 5400,
      "centimÃ¨tresĠcub": 5401,
      "\"\"": 5402,
      "(Mari": 5403,
      "DuĠ": 5404,
      "TAB": 5405,
      "ster": 5406,
      "deĠmÃªmeĠ": 5407,
      "instr": 5408,
      "patr": 5409,
      "patri": 5410,
      "ale.ĠĊ": 5411,
      "Ã©ĠparĠl'": 5412,
      "enĠ18": 5413,
      "enĠmatiÃ¨reĠdeĠ": 5414,
      "subi": 5415,
      "convi": 5416,
      ";ĠetĠ": 5417,
      "e.ĠJeĠ": 5418,
      "riveĠ": 5419,
      "prÃ©ven": 5420,
      "1ĠÃłĠ": 5421,
      "fid": 5422,
      "ements": 5423,
      "comptantĠ": 5424,
      "marchÃ©sĠ": 5425,
      "arriveĠ": 5426,
      "banquesĠ": 5427,
      "(E.)Ġ": 5428,
      "analo": 5429,
      "convÃ©ni": 5430,
      "pleinĠ": 5431,
      "formÃ©mentĠ": 5432,
      "BUREAU.ĠĊ": 5433,
      "1)Ġ": 5434,
      "8.": 5435,
      "Mor": 5436,
      "e..": 5437,
      "sĠÃłĠ": 5438,
      ".ĠÃłĠ": 5439,
      "teĠÃłĠ": 5440,
      "erĠavecĠ": 5441,
      "requ": 5442,
      "antĠetĠ": 5443,
      "rÃ©ussi": 5444,
      "olĠ": 5445,
      "yĠ+Ġ": 5446,
      "oppos": 5447,
      "Ã§uĠ": 5448,
      "umĠdeĠ": 5449,
      "produc": 5450,
      "argent": 5451,
      "beaucoupĠdeĠ": 5452,
      "lorsqu'ilĠ": 5453,
      "chefĠd'": 5454,
      "Ã©tabliĠ": 5455,
      "M.ĠdeĠG": 5456,
      "Haut": 5457,
      "Pour": 5458,
      "Vier": 5459,
      "soup": 5460,
      "preuveĠ": 5461,
      "Ã©ĠparĠlesĠ": 5462,
      "enĠunĠ": 5463,
      "queĠd'": 5464,
      "dipl": 5465,
      "neĠs'": 5466,
      "aperÃ§": 5467,
      "eurĠdesĠ": 5468,
      "1ĠNoteĠduĠS.ĠH": 5469,
      ".ĠAv": 5470,
      "entiÃ¨rementĠ": 5471,
      "breu": 5472,
      "Ã©ment": 5473,
      "jusqu'ÃłĠlaĠ": 5474,
      "ligneĠdeĠ": 5475,
      "voudr": 5476,
      "hydr": 5477,
      "totaleĠ": 5478,
      "G.ĠA.ĠR.ĠĊ": 5479,
      "facilementĠ": 5480,
      "Bord": 5481,
      "caval": 5482,
      "foiĠ": 5483,
      "gieĠ": 5484,
      "ani": 5485,
      "unsĠ": 5486,
      "avanceĠ": 5487,
      "Ãªtre,Ġ": 5488,
      "es,ĠmaisĠ": 5489,
      "pourĠseĠ": 5490,
      "just": 5491,
      "ouĠÃłĠ": 5492,
      "foresti": 5493,
      "Ã´meĠ": 5494,
      "pertesĠ": 5495,
      "ord,Ġ": 5496,
      "blementĠ": 5497,
      "marchand": 5498,
      "suivantĠlesĠ": 5499,
      "connu": 5500,
      "Ã©quili": 5501,
      "change,Ġ": 5502,
      "servirĠ": 5503,
      "ET.ĠĊ": 5504,
      "pendi": 5505,
      "prixĠdeĠ": 5506,
      "instructionsĠ": 5507,
      "SAINT": 5508,
      "saisonn": 5509,
      "Ã©nergi": 5510,
      "Ã©tat,Ġreprod": 5511,
      "+ĠĊ": 5512,
      "Etienne,ĠLoire": 5513,
      "ME": 5514,
      "cdtĠ": 5515,
      "eĠ(": 5516,
      "es.ĠLesĠ": 5517,
      "chamb": 5518,
      "Ã¨s": 5519,
      "Ã¨lesĠ": 5520,
      "alitÃ©,Ġ": 5521,
      "recherch": 5522,
      "accroiss": 5523,
      "civil": 5524,
      "1920": 5525,
      ".ĠCf.ĠAnnexeĠ": 5526,
      "itÃ©ĠdeĠlaĠ": 5527,
      "Ã¢treĠ": 5528,
      "dehorsĠ": 5529,
      "Marne,Ġ": 5530,
      "secour": 5531,
      "offreĠ": 5532,
      "lorsĠ": 5533,
      "cela,Ġ": 5534,
      "nouveauxĠ": 5535,
      "bours": 5536,
      "beaucoupĠplusĠ": 5537,
      "neufĠ": 5538,
      "responsabilitÃ©Ġ": 5539,
      "suscepti": 5540,
      "AcadÃ©m": 5541,
      "pauvreĠ": 5542,
      "54": 5543,
      "Peti": 5544,
      "net": 5545,
      "pauv": 5546,
      "sĠenĠ": 5547,
      "Ã©mo": 5548,
      "aĠĊ": 5549,
      "ques.ĠĊ": 5550,
      "inqui": 5551,
      "e,ĠuneĠ": 5552,
      "Ã©ĠauxĠ": 5553,
      "erĠsesĠ": 5554,
      "eurĠduĠ": 5555,
      "crois": 5556,
      "!ĠÂ»Ġ": 5557,
      "qu'ilĠavaitĠ": 5558,
      "Ã©valu": 5559,
      "tempsĠdeĠ": 5560,
      "signaleĠ": 5561,
      "volont": 5562,
      "lisiÃ¨reĠ": 5563,
      "AllemandsĠ": 5564,
      "obtenuĠ": 5565,
      "ordinaireĠ": 5566,
      "CharlesĠ": 5567,
      "pourrontĠ": 5568,
      "populationĠ": 5569,
      "problÃ¨meĠ": 5570,
      "Cu": 5571,
      "Dis": 5572,
      "TuĠ": 5573,
      "aoÃ»": 5574,
      "ler": 5575,
      "tific": 5576,
      "quet": 5577,
      "leĠdÃ©": 5578,
      "desĠvaleursĠ": 5579,
      "pourĠÃªtreĠ": 5580,
      "puis,Ġ": 5581,
      "ouĠlesĠ": 5582,
      "ouĠenĠ": 5583,
      "loy": 5584,
      ".ĠDesĠ": 5585,
      "Ã©d.Ġ": 5586,
      "eaux": 5587,
      "inf.,Ġ": 5588,
      "dÃ©fensi": 5589,
      "Ã©clair": 5590,
      "colonelĠ": 5591,
      "catÃ©gori": 5592,
      ",9Ġ": 5593,
      "Hist": 5594,
      "Rev": 5595,
      "dan": 5596,
      "rattach": 5597,
      "Ã©ph": 5598,
      "outreĠ": 5599,
      "aideĠ": 5600,
      "super": 5601,
      "seĠrÃ©": 5602,
      "auĠpointĠdeĠvueĠ": 5603,
      "rieĠ": 5604,
      "guÃ©ris": 5605,
      "siĠvousĠ": 5606,
      "allerĠ": 5607,
      "affaireĠ": 5608,
      "Ã©chapp": 5609,
      "pouill": 5610,
      "confianceĠ": 5611,
      "elleĠestĠlaĠ": 5612,
      "SECR": 5613,
      "DrÃ´me.Ġ": 5614,
      "rÃ¨glesĠ": 5615,
      "entenduĠ": 5616,
      "fatigu": 5617,
      "desĠAffairesĠÃ©trang": 5618,
      "-B": 5619,
      "km": 5620,
      "mour": 5621,
      "ventesĠ": 5622,
      "deĠnotreĠ": 5623,
      "leĠre": 5624,
      "Ã¨re.ĠĊ": 5625,
      "neĠl'": 5626,
      "quiĠnousĠ": 5627,
      "Ġ12": 5628,
      "Ã©eĠdesĠ": 5629,
      "2Ġ=Ġ": 5630,
      "plupartĠdesĠ": 5631,
      "juri": 5632,
      "perf": 5633,
      "courag": 5634,
      "elle.Ġ": 5635,
      "gÃ©nÃ©rauxĠ": 5636,
      "pourcent": 5637,
      "supÃ©ri": 5638,
      "CombienĠ": 5639,
      ".Ġ79Ġ": 5640,
      "domin": 5641,
      "figur": 5642,
      "câĢĻest-Ãł-direĠ": 5643,
      "pronon": 5644,
      "ministÃ¨reĠ": 5645,
      "Ã©vÃ©nementsĠ": 5646,
      "individu": 5647,
      "(MÃīDICATION": 5648,
      ",7": 5649,
      "BEL": 5650,
      "Is": 5651,
      "MO": 5652,
      "MonĠ": 5653,
      "afinĠ": 5654,
      "ire": 5655,
      "monn": 5656,
      "oseĠ": 5657,
      "veilleĠ": 5658,
      "inspir": 5659,
      "erĠd'": 5660,
      "oiciĠ": 5661,
      "reconstitu": 5662,
      "abin": 5663,
      "provoqu": 5664,
      "toute": 5665,
      "1912": 5666,
      "tÃ©ĠdesĠ": 5667,
      "jours": 5668,
      "irtsch": 5669,
      "crireĠ": 5670,
      "mainsĠ": 5671,
      "inscrit": 5672,
      "dÃ©lÃ©gu": 5673,
      "idÃ©eĠ": 5674,
      "3;Ġ": 5675,
      "Div": 5676,
      "Liv": 5677,
      "ModeĠ": 5678,
      "OdileĠ": 5679,
      "Rh": 5680,
      "ey": 5681,
      "eillesĠ": 5682,
      "four": 5683,
      "rÃª": 5684,
      "Â®": 5685,
      "aieĠ": 5686,
      "arcĠ": 5687,
      "istresĠ": 5688,
      "ementĠdeĠl'": 5689,
      "rifi": 5690,
      "turesĠ": 5691,
      "obusĠ": 5692,
      "ÃłĠl'Ã©gardĠ": 5693,
      "ENĠ": 5694,
      "CHEĠ": 5695,
      "aineĠdeĠ": 5696,
      "contreĠlaĠ": 5697,
      "ĠetĠD": 5698,
      "boutĠdeĠ": 5699,
      "nÂ°Ġ:Ġ": 5700,
      "corpsĠd'": 5701,
      "in-8": 5702,
      "distingu": 5703,
      "Ã©poqueĠ": 5704,
      "auĠcontraire,Ġ": 5705,
      "ComitÃ©ĠNation": 5706,
      "DeuxĠ": 5707,
      "Ferr": 5708,
      "gal": 5709,
      "tailleĠ": 5710,
      ",ĠauĠ": 5711,
      "queĠj'aiĠ": 5712,
      "sujetĠ": 5713,
      "di,Ġ": 5714,
      "ami": 5715,
      "3Ġ+Ġ": 5716,
      "ationalis": 5717,
      "ble,Ġ": 5718,
      "compÃ©t": 5719,
      "aurontĠ": 5720,
      "osph": 5721,
      "ature,Ġ": 5722,
      "publicĠ": 5723,
      "variableĠ": 5724,
      "DÃ©c": 5725,
      "analy": 5726,
      "affirm": 5727,
      "secrÃ©taireĠ": 5728,
      "SAINT-": 5729,
      "!Ġ1Ġ": 5730,
      "/M": 5731,
      "GI": 5732,
      "Mouv": 5733,
      "MAT": 5734,
      "asĠdeĠ": 5735,
      "oiss": 5736,
      "ureĠdeĠ": 5737,
      "enregistr": 5738,
      "desĠdeĠ": 5739,
      "erĠ:Ġ": 5740,
      "queĠsonĠ": 5741,
      "concur": 5742,
      "auĠpointĠ": 5743,
      "ages,Ġ": 5744,
      "quiĠenĠ": 5745,
      "pourĠluiĠ": 5746,
      "1930": 5747,
      ".ĠCâĢĻ": 5748,
      "lleti": 5749,
      "marÃ©ch": 5750,
      "stin": 5751,
      "butĠ": 5752,
      "oÃ¹ĠelleĠ": 5753,
      "cultureĠ": 5754,
      "servant.ĠĊ": 5755,
      "douc": 5756,
      "loiĠdeĠ": 5757,
      "estimeĠ": 5758,
      "groupeĠd'": 5759,
      "HURLURETĠĊ": 5760,
      "lletinĠ": 5761,
      "53": 5762,
      "9.": 5763,
      "veuxĠ": 5764,
      "vinĠ": 5765,
      "quoi": 5766,
      "duĠgÃ©nÃ©ralĠ": 5767,
      "cong": 5768,
      "plein": 5769,
      "ci,Ġ": 5770,
      "quiĠlesĠ": 5771,
      "commentĠ": 5772,
      "commerc": 5773,
      "oÃ¹Ġl'": 5774,
      "passageĠ": 5775,
      "supÃ©rieurĠ": 5776,
      "transactionsĠ": 5777,
      "personnelĠ": 5778,
      ".ĠImpr.,ĠÃ©d.ĠB": 5779,
      "profit": 5780,
      "obligationsĠ": 5781,
      "ILL": 5782,
      "pied": 5783,
      "dÃ©barqu": 5784,
      "parallÃ¨leĠ": 5785,
      "proportionn": 5786,
      ".r": 5787,
      "Ri": 5788,
      "fre": 5789,
      "orieĠ": 5790,
      "omeĠ": 5791,
      "confÃ©r": 5792,
      "ementĠenĠ": 5793,
      "ouĠleĠ": 5794,
      "permettreĠ": 5795,
      "mÃ©tro": 5796,
      "issentĠ": 5797,
      "ChrÃ©": 5798,
      "ellesĠsontĠ": 5799,
      "devi": 5800,
      "ANG": 5801,
      "spec": 5802,
      "facul": 5803,
      "euses,Ġ": 5804,
      "lÃ©gÃ¨rementĠ": 5805,
      "continueĠ": 5806,
      "Exempl": 5807,
      "justiceĠ": 5808,
      "progressi": 5809,
      "re-et-": 5810,
      "Villers-": 5811,
      "communiqu": 5812,
      "E.": 5813,
      "Eclair": 5814,
      "S'": 5815,
      "fen": 5816,
      "lec": 5817,
      "sach": 5818,
      ",ĠM": 5819,
      "empor": 5820,
      "erĠlâĢĻ": 5821,
      "rÃ©cep": 5822,
      ".ĠCl": 5823,
      "oph": 5824,
      "perpendi": 5825,
      "issaitĠ": 5826,
      "bris": 5827,
      ".ĠSaĠ": 5828,
      "ensembl": 5829,
      "250Ġ": 5830,
      "OUS": 5831,
      "procÃ¨": 5832,
      "eĠD.ĠR": 5833,
      "mÃ¨treĠcub": 5834,
      "Luci": 5835,
      "myst": 5836,
      "(sansĠtexteĠauĠvers": 5837,
      "(C": 5838,
      ".),Ġ": 5839,
      "3oĠ": 5840,
      "CÃ´t": 5841,
      "fum": 5842,
      "tentĠ": 5843,
      "ouill": 5844,
      "prennentĠ": 5845,
      "chambreĠ": 5846,
      "enĠmÃªmeĠtempsĠ": 5847,
      "ententeĠ": 5848,
      "antĠparĠ": 5849,
      "partoutĠ": 5850,
      "auĠcoursĠdeĠ": 5851,
      "pourĠfaireĠ": 5852,
      ".,Ġp": 5853,
      "mois": 5854,
      "croireĠ": 5855,
      "cardi": 5856,
      "travers": 5857,
      "passÃ©Ġ": 5858,
      "remar": 5859,
      "Trans": 5860,
      "constitueĠ": 5861,
      "aussi,Ġ": 5862,
      "piÃ¨ceĠ": 5863,
      "extrÃªm": 5864,
      "autoritÃ©Ġ": 5865,
      "PrÃ©sidentĠdeĠlaĠRÃ©": 5866,
      "eilli": 5867,
      "danger": 5868,
      "sympath": 5869,
      "absolumentĠ": 5870,
      "b,Ġfol.Ġ1": 5871,
      "ChÃ¢teau": 5872,
      "oseph": 5873,
      "LÃ©onĠX": 5874,
      "';Ġ": 5875,
      "Avr": 5876,
      "dor": 5877,
      "e)": 5878,
      "mÃ©r": 5879,
      "mÃ¨reĠ": 5880,
      "mang": 5881,
      "sph": 5882,
      "Ã©tri": 5883,
      "dim": 5884,
      "sion": 5885,
      "ente,Ġ": 5886,
      "neĠluiĠ": 5887,
      "cutan": 5888,
      "vigu": 5889,
      "comman": 5890,
      "cheĠdeĠ": 5891,
      "Â»Ġ(": 5892,
      "ANT": 5893,
      "produis": 5894,
      "transportĠ": 5895,
      "G.ĠA.ĠN": 5896,
      ".ĠAĠlaĠ": 5897,
      "extra": 5898,
      "BourseĠdeĠ": 5899,
      "avant-": 5900,
      "pratiqueĠ": 5901,
      "titul": 5902,
      "Ã©clat": 5903,
      "eĠD.ĠI.ĠĊ": 5904,
      "pourraientĠ": 5905,
      "ensembleĠdesĠ": 5906,
      "confrÃ¨resĠ": 5907,
      "n'ontĠpasĠ": 5908,
      "auxquellesĠ": 5909,
      "condamn": 5910,
      "400Ġ": 5911,
      "grÃ©": 5912,
      "pontĠ": 5913,
      "soir": 5914,
      ",ĠcommeĠ": 5915,
      "art": 5916,
      "erĠleurĠ": 5917,
      "enĠceĠquiĠconcerneĠ": 5918,
      "ousĠlesĠ": 5919,
      "age.ĠĊ": 5920,
      ".ĠâĢĶĠOnĠ": 5921,
      "plusĠgrandeĠ": 5922,
      "),Ġ2eĠcanonnier": 5923,
      ".ĠDi": 5924,
      "TIQU": 5925,
      "miÃ¨reĠ": 5926,
      "ANTĠ": 5927,
      "rapideĠ": 5928,
      "consomm": 5929,
      "(1).Ġ": 5930,
      "canis": 5931,
      "variablesĠ": 5932,
      "siÃ¨geĠ": 5933,
      "CommissionĠ": 5934,
      "feuillesĠ": 5935,
      "fig.Ġ": 5936,
      "effortĠ": 5937,
      "exclusi": 5938,
      "opinionĠ": 5939,
      "eĠsiÃ¨cleĠ": 5940,
      "SeptembreĠ": 5941,
      "SignÃ©Ġ:Ġ": 5942,
      "64": 5943,
      "KĠ": 5944,
      "Marti": 5945,
      "OpÃ©r": 5946,
      "R.ĠI": 5947,
      "basti": 5948,
      "benz": 5949,
      "dettesĠ": 5950,
      "fallaitĠ": 5951,
      "nour": 5952,
      "naiss": 5953,
      "ry": 5954,
      "rassembl": 5955,
      ",ĠâĢĶĠ": 5956,
      "deĠC": 5957,
      "leĠetĠ": 5958,
      "chanc": 5959,
      "omph": 5960,
      "consult": 5961,
      "d'autreĠ": 5962,
      "plomb": 5963,
      "itali": 5964,
      "comporteĠ": 5965,
      "ationĠestĠ": 5966,
      "videm": 5967,
      "Ã©sĠparĠlesĠ": 5968,
      "discus": 5969,
      "tions.ĠĊ": 5970,
      "suivant": 5971,
      "indig": 5972,
      "bouch": 5973,
      "collec": 5974,
      "Statisti": 5975,
      "possÃ©d": 5976,
      "possible,Ġ": 5977,
      "Offici": 5978,
      "thÃ©rapeu": 5979,
      "nâĢĻestĠpasĠ": 5980,
      ")ĠetĠfam.,ĠdeĠReims,ĠÃłĠ": 5981,
      ".ĠJ'aiĠ": 5982,
      "//Ġ": 5983,
      "FF": 5984,
      "roul": 5985,
      "ramen": 5986,
      "vautĠ": 5987,
      "eĠC.ĠA.Ġ": 5988,
      "insuffis": 5989,
      "e.ĠAĠ": 5990,
      "dansĠleurĠ": 5991,
      "eurĠ:Ġ": 5992,
      "gran": 5993,
      "Ã©eĠÃłĠlaĠ": 5994,
      "courantĠ": 5995,
      "commisĠ": 5996,
      "Ã©lÃ¨v": 5997,
      "jeĠsuisĠ": 5998,
      "rencontreĠ": 5999,
      "annÃ©e,Ġ": 6000,
      "soumisĠ": 6001,
      "Ã©chel": 6002,
      "reÃ§oitĠ": 6003,
      "causesĠ": 6004,
      "musi": 6005,
      "e)ĠetĠfam.,Ġ": 6006,
      "hameÃ§": 6007,
      "prolong": 6008,
      "=Ġ1": 6009,
      "?ĠdeĠ": 6010,
      "Eff": 6011,
      "GĠ": 6012,
      "OiseĠ": 6013,
      "PaulĠ": 6014,
      "ZĠ": 6015,
      "afinĠdeĠ": 6016,
      "gÃª": 6017,
      "etĠÃłĠl'": 6018,
      "l'autreĠ": 6019,
      "dioc": 6020,
      "entendreĠ": 6021,
      "refus": 6022,
      "dÃ©lic": 6023,
      "agi": 6024,
      "quiĠleĠ": 6025,
      "Ã©nor": 6026,
      ".ĠCe": 6027,
      ".Ġ18": 6028,
      "Ã©gliseĠ": 6029,
      "client": 6030,
      "ÃĪREĠ": 6031,
      "GRAN": 6032,
      "EURĠ": 6033,
      "syphilitiqueĠ": 6034,
      ".ĠToutĠ": 6035,
      "ressourcesĠ": 6036,
      ",7Ġ": 6037,
      "1.Ġ": 6038,
      "ateĠdeĠ": 6039,
      "efĠ": 6040,
      "sinc": 6041,
      "rĠ,": 6042,
      "conformÃ©mentĠ": 6043,
      "ilĠÃ©taitĠ": 6044,
      "exag": 6045,
      "prÃ©al": 6046,
      ".ĠâĢĶĠR": 6047,
      "tionsĠdirec": 6048,
      "aientĠlesĠ": 6049,
      "dansĠlaĠmargeĠ": 6050,
      ".000ĠĊ": 6051,
      "sold": 6052,
      "supprim": 6053,
      "supÃ©rieureĠ": 6054,
      "groupesĠ": 6055,
      "celleĠdeĠ": 6056,
      "russ": 6057,
      "bureau": 6058,
      "ultan": 6059,
      "-de-": 6060,
      "58Ġ": 6061,
      "Bel": 6062,
      "Noy": 6063,
      "Not": 6064,
      "SY": 6065,
      "bonsĠ": 6066,
      "ceux-": 6067,
      "hori": 6068,
      "Ã©pou": 6069,
      "isol": 6070,
      "chÃ©r": 6071,
      ":Ġ1Ġ": 6072,
      "ationĠetĠ": 6073,
      "profitĠ": 6074,
      "Ã©eĠparĠlesĠ": 6075,
      "elleĠetĠ": 6076,
      "vign": 6077,
      "fraisĠ": 6078,
      "ock": 6079,
      "iÃ¨res,Ġ": 6080,
      "Ã®Ġ": 6081,
      "brasĠ": 6082,
      "Injec": 6083,
      "Indo": 6084,
      "ES.ĠĊ": 6085,
      "ques-": 6086,
      "constammentĠ": 6087,
      "LEĠGÃīNÃīRAL": 6088,
      "rÃ©gimentĠ": 6089,
      "SECRET.ĠĊ": 6090,
      "D.Ġ1": 6091,
      "DieĠ": 6092,
      "Ger": 6093,
      "IĠĊ": 6094,
      "S.ĠĊ": 6095,
      "VIII": 6096,
      "jal": 6097,
      "rÃ©eĠdeĠ": 6098,
      "tout": 6099,
      "plusĠgrandĠ": 6100,
      "fraÃ®": 6101,
      "fractionsĠ": 6102,
      "froid": 6103,
      "00/": 6104,
      "calesĠ": 6105,
      "brill": 6106,
      "annÃ©es,Ġ": 6107,
      ".ĠS.Ġ": 6108,
      "donnentĠ": 6109,
      "traversĠ": 6110,
      "ainsiĠqueĠ": 6111,
      "franÃ§aisesĠ": 6112,
      "simultan": 6113,
      "inscriptionĠ": 6114,
      "ATIONĠ": 6115,
      "dessinĠ": 6116,
      "AnnexeĠnÂ°Ġ": 6117,
      "neĠpeutĠÃªtreĠ": 6118,
      "dÃ©bit": 6119,
      "rÃ©glement": 6120,
      "suiteĠdeĠ": 6121,
      "vraimentĠ": 6122,
      "Harbreu": 6123,
      "vÃ©rifi": 6124,
      "D.": 6125,
      "La": 6126,
      "P.Ġ0": 6127,
      "b)Ġ": 6128,
      "barb": 6129,
      "lÃ¨v": 6130,
      "m3Ġ": 6131,
      "oeu": 6132,
      "dictionĠ": 6133,
      "s,ĠlaĠ": 6134,
      "comprendreĠ": 6135,
      "deĠlaĠC": 6136,
      "surĠlâĢĻ": 6137,
      "culĠ": 6138,
      "EĠDEĠ": 6139,
      "guesĠ": 6140,
      "omber": 6141,
      "bureĠ": 6142,
      "midiĠ": 6143,
      "tranqu": 6144,
      "Direc": 6145,
      "avionsĠ": 6146,
      "collÃ¨": 6147,
      "injectionĠ": 6148,
      "pleineĠ": 6149,
      "indicationsĠ": 6150,
      "relativementĠ": 6151,
      ".'": 6152,
      "LĠĊ": 6153,
      "mâĢĻ": 6154,
      "tant": 6155,
      "ÃĢ": 6156,
      "envelopp": 6157,
      "deĠfaireĠ": 6158,
      "leĠmÃªmeĠ": 6159,
      "ers.ĠĊ": 6160,
      "inconvÃ©ni": 6161,
      "onĠ(": 6162,
      "etĠauxĠ": 6163,
      "dÃ©vou": 6164,
      "agirĠ": 6165,
      "approuv": 6166,
      "proven": 6167,
      "elleĠneĠ": 6168,
      "ements.ĠĊ": 6169,
      ".Ġ17": 6170,
      "partiĠ": 6171,
      "triomph": 6172,
      "mond": 6173,
      "qu'ilĠestĠ": 6174,
      "Art.Ġ2": 6175,
      "contreĠleĠ": 6176,
      "capitaineĠ": 6177,
      "celuiĠdeĠ": 6178,
      "salleĠ": 6179,
      "sociÃ©tÃ©Ġ": 6180,
      "chacuneĠ": 6181,
      "ouvrageĠ": 6182,
      "lancheĠ": 6183,
      "deĠl'Ais": 6184,
      "piÃ¨cesĠdeĠ": 6185,
      "moucheĠartifici": 6186,
      "Dos": 6187,
      "VER": 6188,
      "XĠĊ": 6189,
      "bt": 6190,
      "land": 6191,
      "muni": 6192,
      "raisonsĠ": 6193,
      "vintĠ": 6194,
      "lesĠtitresĠ": 6195,
      "l'aĠ": 6196,
      "convers": 6197,
      "dÃ©plac": 6198,
      "e.ĠR": 6199,
      "es,ĠilĠ": 6200,
      ".ĠC'Ã©taitĠ": 6201,
      ".ĠCalcul": 6202,
      "esse,Ġ": 6203,
      "quesĠdeĠ": 6204,
      "achatsĠ": 6205,
      "soleilĠ": 6206,
      "malad": 6207,
      "Marne.Ġ": 6208,
      "icil": 6209,
      "icac": 6210,
      "union": 6211,
      "misesĠ": 6212,
      "politi": 6213,
      "spÃ©cialeĠ": 6214,
      "rÃ©sultat": 6215,
      "erie.ĠĊ": 6216,
      "regret": 6217,
      "dÃ¨sĠleĠ": 6218,
      "StockĠ": 6219,
      "GouvernementĠ": 6220,
      "exceptionn": 6221,
      "intra-": 6222,
      "blessu": 6223,
      "et.Ġfol": 6224,
      "ĠetĠDl": 6225,
      "42Ġ": 6226,
      "AM": 6227,
      "CESĠ": 6228,
      "Jac": 6229,
      "a.Ġ": 6230,
      "a:Ġ": 6231,
      "pan": 6232,
      "eĠdeĠlaĠ": 6233,
      "es)Ġ": 6234,
      "erre,Ġ": 6235,
      "duĠConseilĠ": 6236,
      "onsĠÃłĠ": 6237,
      "auĠpremierĠ": 6238,
      "parĠsonĠ": 6239,
      "agri": 6240,
      "es,ĠenĠ": 6241,
      "amiĠ": 6242,
      ".ĠAprÃ¨sĠ": 6243,
      "s'Ã©t": 6244,
      "dâĢĻE": 6245,
      "peupleĠ": 6246,
      "ocĠ": 6247,
      "Artill": 6248,
      "CompiÃ¨": 6249,
      "moment,Ġ": 6250,
      "soign": 6251,
      "y-de-": 6252,
      "MataĠ": 6253,
      "ABT": 6254,
      "observationsĠ": 6255,
      "puissanceĠ": 6256,
      "RomeĠ": 6257,
      "conventionĠ": 6258,
      "semain": 6259,
      "principauxĠ": 6260,
      "riviÃ¨reĠ": 6261,
      "fournisseursĠ": 6262,
      ".,": 6263,
      "BI": 6264,
      "M.Ġ": 6265,
      "Ob": 6266,
      "Pend": 6267,
      "lat": 6268,
      "ograph": 6269,
      "laĠmÃªmeĠ": 6270,
      "eli": 6271,
      "alco": 6272,
      "d'opÃ©rationsĠ": 6273,
      ";Ġ1Ġ": 6274,
      "e.ĠN": 6275,
      "e.ĠÂ«Ġ": 6276,
      "quiĠleurĠ": 6277,
      "elleĠdeĠ": 6278,
      ".ĠLors": 6279,
      "tenu": 6280,
      "siĠlesĠ": 6281,
      "Ã©lo": 6282,
      ".ĠPu": 6283,
      "relationĠ": 6284,
      "168": 6285,
      "ignetteĠ": 6286,
      "Congr": 6287,
      "INĠ": 6288,
      "Ã©tatĠdeĠ": 6289,
      "Ã©troi": 6290,
      "morce": 6291,
      "celleĠdesĠ": 6292,
      "coutu": 6293,
      "Suit": 6294,
      "voulaitĠ": 6295,
      "combatĠ": 6296,
      "MinistreĠdesĠAffairesĠÃ©trang": 6297,
      "dÃ©pÃ´tĠ": 6298,
      "VotreĠ": 6299,
      "hectoli": 6300,
      "besoinĠdeĠ": 6301,
      "S.ĠleĠ": 6302,
      "lent": 6303,
      "otĠ": 6304,
      "sont,Ġ": 6305,
      ".Ġ7Ġ": 6306,
      ",ĠfaceĠp": 6307,
      "quement,Ġ": 6308,
      "onĠleĠ": 6309,
      "entĠuneĠ": 6310,
      "chu": 6311,
      "el.ĠĊ": 6312,
      "l'unĠ": 6313,
      "erĠpourĠ": 6314,
      "rÃ©d": 6315,
      "rÃ©fl": 6316,
      "porter": 6317,
      "modes": 6318,
      "modern": 6319,
      ".ĠCommeĠ": 6320,
      "ezĠdeĠ": 6321,
      "perteĠ": 6322,
      "disaitĠ": 6323,
      "clin": 6324,
      "ageĠduĠ": 6325,
      "Cham": 6326,
      "broch": 6327,
      "visit": 6328,
      "internation": 6329,
      "CHAR": 6330,
      "encore,Ġ": 6331,
      "affect": 6332,
      "suppos": 6333,
      ".ĠJ.,Ġ9": 6334,
      "livresĠ": 6335,
      "rÃ©gular": 6336,
      "yndi": 6337,
      "dÃ©cisionĠ": 6338,
      "descend": 6339,
      "militaireĠ": 6340,
      ",ĠDĠetĠDl": 6341,
      "y-de-D": 6342,
      "AoÃ»tĠ": 6343,
      "NI": 6344,
      "couv": 6345,
      "hausseĠ": 6346,
      "son": 6347,
      "tĠÃłĠ": 6348,
      "artĠ": 6349,
      "omati": 6350,
      "suĠ": 6351,
      "Ã©ron": 6352,
      "unĠcertainĠ": 6353,
      ":ĠLeĠ": 6354,
      ")Ġ+Ġ": 6355,
      "embour": 6356,
      "ChÃ¢": 6357,
      "annon": 6358,
      "tivesĠ": 6359,
      "(1).ĠĊ": 6360,
      "sorteĠdeĠ": 6361,
      ".ĠVignetteĠ": 6362,
      "les-": 6363,
      ".ĠQuandĠ": 6364,
      "UnionĠ": 6365,
      "Puy-de-D": 6366,
      "âĢľĠ": 6367,
      "moyenĠdeĠ": 6368,
      "MinistreĠdeĠlaĠ": 6369,
      "prÃ©fectureĠ": 6370,
      "extrÃªmementĠ": 6371,
      "\",Ġ": 6372,
      "-j": 6373,
      "1-": 6374,
      "Co": 6375,
      "COT": 6376,
      "EdĠ59,Ġfol": 6377,
      "FLI": 6378,
      "eh": 6379,
      "hÃ©m": 6380,
      "h.Ġ4": 6381,
      "ooĠ": 6382,
      "tic": 6383,
      "trÃ©": 6384,
      "etĠsesĠ": 6385,
      "prÃªt": 6386,
      "un,Ġ": 6387,
      "Ã©ĠqueĠ": 6388,
      "erĠsurĠ": 6389,
      "enĠplusĠ": 6390,
      "dÃ©livr": 6391,
      "ith": 6392,
      "estĠtrÃ¨sĠ": 6393,
      "ÃªtĠdeĠ": 6394,
      "activeĠ": 6395,
      "importeĠ": 6396,
      "elleĠdesĠ": 6397,
      "1914": 6398,
      "pasĠlaĠ": 6399,
      "3ĠâĢĶĠ": 6400,
      "ÃłĠlaĠfoisĠ": 6401,
      "cass": 6402,
      "tendĠ": 6403,
      "inĠ(": 6404,
      "quelsĠ": 6405,
      "nousĠsommesĠ": 6406,
      "iÃ¨re": 6407,
      "Chr": 6408,
      "ables": 6409,
      "devantĠleĠ": 6410,
      "Cl.Ġ79Ġ": 6411,
      "calmeĠ": 6412,
      "JeĠneĠ": 6413,
      "Augu": 6414,
      "depuisĠleĠ": 6415,
      "territ": 6416,
      "Univer": 6417,
      "merveill": 6418,
      ".ĠImpr.,ĠÃ©d.ĠA,ĠAl": 6419,
      "niveauĠ": 6420,
      "dâĢĻabordĠ": 6421,
      "0.ĠĊ": 6422,
      "1;Ġ": 6423,
      "E.Ġ": 6424,
      "Fin": 6425,
      "Lon": 6426,
      "Our": 6427,
      "X,Ġ": 6428,
      "mes.ĠĊ": 6429,
      "rit": 6430,
      "essesĠ": 6431,
      "reĠetĠ": 6432,
      "oireĠdeĠ": 6433,
      "diamÃ¨": 6434,
      "repo": 6435,
      "compren": 6436,
      "approch": 6437,
      "Ã©eĠ:Ġ": 6438,
      ".ĠâĢĶĠUneĠ": 6439,
      "lumiÃ¨reĠ": 6440,
      "verb": 6441,
      "clav": 6442,
      "quellesĠ": 6443,
      "fĠ(": 6444,
      ".ĠSu": 6445,
      "voiciĠ": 6446,
      "support": 6447,
      "anteĠetĠ": 6448,
      "bourse,Ġ": 6449,
      "menac": 6450,
      "celuiĠquiĠ": 6451,
      "familleĠ": 6452,
      "lorsqueĠ": 6453,
      "est-ceĠ": 6454,
      "contac": 6455,
      "....Ġ....Ġ": 6456,
      "capableĠ": 6457,
      "rÃ¨gleĠ": 6458,
      "sociÃ©tÃ©sĠ": 6459,
      "AfriqueĠ": 6460,
      "Ã©tat,Ġreprod.Ġ:Ġ": 6461,
      "FLICK": 6462,
      "+Ġ1": 6463,
      "2.000Ġ": 6464,
      "37Ġ": 6465,
      "41Ġ": 6466,
      "Ag": 6467,
      "Er": 6468,
      "cÃ©l": 6469,
      "rentesĠ": 6470,
      "song": 6471,
      ",ĠdesĠ": 6472,
      ",ĠpourĠ": 6473,
      ",ĠelleĠ": 6474,
      "tienneĠ": 6475,
      "etz": 6476,
      "compositionĠ": 6477,
      "parleĠ": 6478,
      "parĠlâĢĻ": 6479,
      "projetĠ": 6480,
      "1933": 6481,
      ".Ġ11Ġ": 6482,
      "effici": 6483,
      "Ã©dÃ©r": 6484,
      "demandesĠ": 6485,
      "donc": 6486,
      "maladesĠ": 6487,
      "jourĠdeĠlaĠ": 6488,
      "Ã©conomi": 6489,
      "content": 6490,
      "RIG": 6491,
      "batteri": 6492,
      "atifsĠ": 6493,
      "hÃ©roÃ¯": 6494,
      "Ã©volutionĠ": 6495,
      "truiteĠ": 6496,
      "horiz": 6497,
      "::": 6498,
      "A.": 6499,
      "Louv": 6500,
      "Maj": 6501,
      "baiss": 6502,
      "hierĠ": 6503,
      "navi": 6504,
      "ographi": 6505,
      "rob": 6506,
      "deĠseĠ": 6507,
      "ercĠ": 6508,
      "tradi": 6509,
      "ÃłĠcetĠ": 6510,
      "e,ĠauĠ": 6511,
      "redout": 6512,
      "comprend": 6513,
      "absor": 6514,
      "peut,Ġ": 6515,
      "courirĠ": 6516,
      "phosph": 6517,
      "carrÃ©": 6518,
      "fonci": 6519,
      "allonsĠ": 6520,
      "deman": 6521,
      "Quel": 6522,
      "relativeĠ": 6523,
      "connuĠ": 6524,
      "justeĠ": 6525,
      "droite,Ġ": 6526,
      "NotreĠ": 6527,
      "ÃłĠg.Ġ": 6528,
      "spÃ©cialementĠ": 6529,
      "salu": 6530,
      "JuilletĠ": 6531,
      "SAEN": 6532,
      "minimumĠ": 6533,
      "dix-": 6534,
      ".ĠEdĠ59Ġa,Ġfol": 6535,
      "auxquelsĠ": 6536,
      "ci-dessusĠ": 6537,
      "Leclerc": 6538,
      "doulour": 6539,
      "(B": 6540,
      "600Ġ": 6541,
      "ne.ĠĊ": 6542,
      "nord": 6543,
      "sant": 6544,
      "xim": 6545,
      "onĠetĠ": 6546,
      "onĠobtientĠ": 6547,
      "entĠl'": 6548,
      "ales": 6549,
      "litt": 6550,
      "refu": 6551,
      "comprendĠ": 6552,
      "partĠdeĠ": 6553,
      "e.ĠUnĠ": 6554,
      ".ĠâĢĶĠL'": 6555,
      "Ã©sĠÃłĠlaĠ": 6556,
      "port,Ġ": 6557,
      "fru": 6558,
      "perdu": 6559,
      "certifi": 6560,
      "compterĠ": 6561,
      "D.ĠI.ĠĊ": 6562,
      "ence.ĠĊ": 6563,
      "Dieu": 6564,
      "avantag": 6565,
      "Ã©conomieĠ": 6566,
      "coÃ»teĠ": 6567,
      "SÃ©basti": 6568,
      "document": 6569,
      "sÅĵur": 6570,
      "expÃ©rienceĠ": 6571,
      "AvrilĠ": 6572,
      "55Ġ": 6573,
      "5Â°Ġ": 6574,
      "MlleĠ": 6575,
      "bre": 6576,
      "moul": 6577,
      "oeuv": 6578,
      "soirĠ": 6579,
      "ai,Ġ": 6580,
      "esseĠdeĠ": 6581,
      "in.ĠĊ": 6582,
      "arc": 6583,
      "ÃłĠcesĠ": 6584,
      "orgu": 6585,
      "enĠaĠ": 6586,
      "queĠsaĠ": 6587,
      "agas": 6588,
      "ouĠd'": 6589,
      "siĠl'": 6590,
      "achÃ¨teĠ": 6591,
      "urgi": 6592,
      "Chris": 6593,
      ".ĠIlĠneĠ": 6594,
      "ERCI": 6595,
      "CHE": 6596,
      "lons-": 6597,
      "volum": 6598,
      "allemandĠ": 6599,
      "dÃ©cid": 6600,
      "septembre,Ġ": 6601,
      "dÃ©veloppementĠ": 6602,
      "protest": 6603,
      "spiritu": 6604,
      "thÃ©rapieĠ": 6605,
      "hÃ´pit": 6606,
      "marchÃ©sĠÃłĠtermeĠ": 6607,
      "1ĠerĠÃ©tatĠ:ĠlâĢĻÃ©tatĠdÃ©crit,ĠEdĠ59Ġ": 6608,
      "littÃ©r": 6609,
      "!Ġ1": 6610,
      "Ori": 6611,
      "VAL": 6612,
      "bill": 6613,
      "banc": 6614,
      "doĠ": 6615,
      "filĠ": 6616,
      "tres.ĠĊ": 6617,
      "tromp": 6618,
      "inti": 6619,
      "etĠmÃªmeĠ": 6620,
      "Ã¨treĠ": 6621,
      "erĠceĠ": 6622,
      "ditesĠ": 6623,
      "xĠetĠ": 6624,
      "dÃ©nomin": 6625,
      "eten": 6626,
      "Ã©tÃ©,Ġ": 6627,
      "e.ĠT": 6628,
      "es,ĠÃłĠ": 6629,
      "apit": 6630,
      "ole,Ġ": 6631,
      "qu'auĠ": 6632,
      "juris": 6633,
      "formeĠdeĠ": 6634,
      "itÃ©ĠduĠ": 6635,
      "quesĠetĠ": 6636,
      "coeffici": 6637,
      "voiĠ": 6638,
      ".ĠDÃ©": 6639,
      ".ĠPl": 6640,
      "contraireĠ": 6641,
      "contract": 6642,
      "droit,Ġ": 6643,
      "25ĠĊ": 6644,
      "nÃ©glig": 6645,
      "ambass": 6646,
      "Ã©dic": 6647,
      "cÃ´tÃ©,Ġ": 6648,
      "quandĠonĠ": 6649,
      "fournirĠ": 6650,
      "rÃ©duitĠ": 6651,
      "semblaitĠ": 6652,
      "idÃ©esĠ": 6653,
      "quantitÃ©ĠdeĠ": 6654,
      "devenirĠ": 6655,
      "effortsĠ": 6656,
      "horsĠdeĠ": 6657,
      "lendemainĠ": 6658,
      "DUĠNORD": 6659,
      ".ĠDansĠlaĠmargeĠinf.,Ġ": 6660,
      "fluctu": 6661,
      "nettementĠ": 6662,
      "BELLO": 6663,
      "SAINT-SAEN": 6664,
      "CÃ´te-": 6665,
      "dimensi": 6666,
      "1Ġ1Ġ": 6667,
      "2.Ġ": 6668,
      "EhĠ": 6669,
      "as,Ġ": 6670,
      "lou": 6671,
      "lli": 6672,
      "nÂ°": 6673,
      "rati": 6674,
      "tableĠ": 6675,
      "vontĠ": 6676,
      "ÃłĠdÃ©couver": 6677,
      "aitĠsonĠ": 6678,
      "dÃ©pouill": 6679,
      "pliĠ": 6680,
      "prosp": 6681,
      "cas": 6682,
      "Chamb": 6683,
      "seulsĠ": 6684,
      "ÃłĠgau": 6685,
      "guerre": 6686,
      "membresĠduĠ": 6687,
      "neĠsauraitĠ": 6688,
      "racineĠ": 6689,
      "Calcul": 6690,
      "distanceĠ": 6691,
      "parĠexemple,Ġ": 6692,
      "professionn": 6693,
      "52": 6694,
      "Bois": 6695,
      "New": 6696,
      "RoiĠ": 6697,
      "aseĠ": 6698,
      "dre": 6699,
      "m2Ġ": 6700,
      "ronsĠ": 6701,
      "rationalis": 6702,
      "te.ĠĊ": 6703,
      "tari": 6704,
      "eĠlesĠ": 6705,
      "deĠleursĠ": 6706,
      "trenteĠ": 6707,
      "etĠjeĠ": 6708,
      "ÃłĠdeuxĠ": 6709,
      "desĠopÃ©rationsĠ": 6710,
      "enĠraisonĠ": 6711,
      "conqu": 6712,
      "neĠpeuventĠ": 6713,
      "parolesĠ": 6714,
      "amourĠ": 6715,
      "projet": 6716,
      "impossibleĠ": 6717,
      "plusĠqueĠ": 6718,
      "fr.ĠĊ": 6719,
      "front,Ġ": 6720,
      "croÃ®": 6721,
      "efficac": 6722,
      "dontĠonĠ": 6723,
      "pourtantĠ": 6724,
      "âĸłĠĊ": 6725,
      "quâĢĻelleĠ": 6726,
      "remettreĠ": 6727,
      "facteursĠ": 6728,
      "rup": 6729,
      "PRÃī": 6730,
      "Union": 6731,
      "officiersĠ": 6732,
      "engagementsĠ": 6733,
      "Ambass": 6734,
      "distinc": 6735,
      "revetĠ": 6736,
      "Pondi": 6737,
      "Ã©chÃ©anceĠ": 6738,
      "JeanneĠd'ArcĠ;Ġ": 6739,
      "flot": 6740,
      "LAĠBRIG": 6741,
      "paragrapheĠ": 6742,
      "GRANDĠ": 6743,
      "/3.ĠĊ": 6744,
      "Bri": 6745,
      "Berc": 6746,
      "Journ": 6747,
      "PageĠ": 6748,
      "eb": 6749,
      "p.Ġ": 6750,
      "sh": 6751,
      "taill": 6752,
      "~~": 6753,
      "aĠenĠ": 6754,
      "oire": 6755,
      "dig": 6756,
      "d'attaqueĠ": 6757,
      "retrouv": 6758,
      "retir": 6759,
      "etÃ©Ġ": 6760,
      "ainsĠdeĠ": 6761,
      "Ġ15Ġ": 6762,
      "mÃªl": 6763,
      "AĠl'": 6764,
      "sansĠdouteĠ": 6765,
      "position,Ġ": 6766,
      "ERI": 6767,
      "ARD": 6768,
      "QuelleĠ": 6769,
      "SaintĠ": 6770,
      "diffÃ©rencesĠ": 6771,
      "prÃ©cau": 6772,
      "acheteursĠ": 6773,
      "utileĠ": 6774,
      "couch": 6775,
      "quandĠilĠ": 6776,
      "liquidationĠduĠ": 6777,
      "vendeursĠ": 6778,
      "pagesĠ": 6779,
      "vouloirĠ": 6780,
      "magni": 6781,
      "maladieĠ": 6782,
      "XVIIĠ": 6783,
      "TEBELLO": 6784,
      "toutĠÃłĠfaitĠ": 6785,
      "73": 6786,
      "74": 6787,
      "ThÃ©": 6788,
      "baisseĠ": 6789,
      "netteĠ": 6790,
      "pes": 6791,
      "etĠpourĠ": 6792,
      "etĠsaĠ": 6793,
      "erĠcesĠ": 6794,
      "div": 6795,
      "e.ĠAuĠ": 6796,
      "e.ĠNousĠ": 6797,
      "olph": 6798,
      "surĠcetteĠ": 6799,
      ".ĠAn": 6800,
      "obti": 6801,
      "ombresĠ": 6802,
      "venuĠ": 6803,
      "souf": 6804,
      "eaume,Ġ": 6805,
      "OnĠaĠ": 6806,
      "demeureĠ": 6807,
      "maintenirĠ": 6808,
      "difficil": 6809,
      "voieĠdeĠ": 6810,
      "Instru": 6811,
      "quatri": 6812,
      "rougeĠ": 6813,
      "profilĠ": 6814,
      "Grav": 6815,
      "Servi": 6816,
      "s'ilĠyĠaĠ": 6817,
      "principalĠ": 6818,
      "multiplic": 6819,
      "Clermon": 6820,
      "suivi": 6821,
      "convain": 6822,
      "bonnesĠ": 6823,
      "maximumĠ": 6824,
      "vulcanis": 6825,
      "destructionĠ": 6826,
      "LEĠMARCHÃīĠ": 6827,
      "GÃīOMÃīTRIEĠ": 6828,
      "groupeĠd'armÃ©esĠ": 6829,
      "(sansĠtexteĠauĠverso)Ġ": 6830,
      "Ambassad": 6831,
      "5-": 6832,
      "6;Ġ": 6833,
      "85Ġ": 6834,
      "Ce": 6835,
      "JU": 6836,
      "Nouv": 6837,
      "band": 6838,
      "mitĠ": 6839,
      "maisonsĠ": 6840,
      "us,Ġ": 6841,
      "ÃłĠnotreĠ": 6842,
      "recoursĠ": 6843,
      "rÃ©actionĠ": 6844,
      "attitudeĠ": 6845,
      "pot": 6846,
      "quiĠÃ©taitĠ": 6847,
      ":ĠM": 6848,
      "Ã©eĠparĠl'": 6849,
      "fiqueĠ": 6850,
      "Ã©esĠparĠlesĠ": 6851,
      "Ã©lÃ¨veĠ": 6852,
      "admisĠ": 6853,
      "entiÃ¨reĠ": 6854,
      "usseĠ": 6855,
      ".ĠR/": 6856,
      "150Ġ": 6857,
      "passerĠ": 6858,
      "armÃ©e,Ġ": 6859,
      "C.ĠA.ĠĊ": 6860,
      "complÃ©t": 6861,
      "sÃ©anceĠ": 6862,
      "certainementĠ": 6863,
      "mettreĠenĠ": 6864,
      "hÃ©sit": 6865,
      "hauteurĠ": 6866,
      "contenti": 6867,
      "ung,Ġ": 6868,
      "nÃ©cessitÃ©Ġ": 6869,
      "exploitationĠ": 6870,
      "avenirĠ": 6871,
      "HenriĠ": 6872,
      "paraissentĠ": 6873,
      "professeurĠ": 6874,
      "QUARTIERĠ": 6875,
      "RevueĠ": 6876,
      ".;Ġ": 6877,
      "42": 6878,
      "Fi": 6879,
      "P.ĠA": 6880,
      "Yonn": 6881,
      "dri": 6882,
      "goÃ»": 6883,
      "ionsĠ": 6884,
      "p.Ġ3": 6885,
      "sÃ©v": 6886,
      "eĠauĠ": 6887,
      "endeĠ": 6888,
      "etĠB": 6889,
      "Ã¨vreĠ": 6890,
      "enĠhautĠ": 6891,
      "dÃ©libÃ©r": 6892,
      "rÃ©sid": 6893,
      "acu": 6894,
      "actesĠ": 6895,
      "ectionn": 6896,
      "quiĠlaĠ": 6897,
      "quiĠvousĠ": 6898,
      "guÃ©ri": 6899,
      "pern": 6900,
      "vertu": 6901,
      "embre": 6902,
      "commeĠlesĠ": 6903,
      ".Ġ29": 6904,
      "compteĠdeĠ": 6905,
      ".ĠPar": 6906,
      "solv": 6907,
      "licit": 6908,
      "voir": 6909,
      "ConfÃ©renceĠ": 6910,
      "remisĠ": 6911,
      "pendantĠlesĠ": 6912,
      "TIONSĠ": 6913,
      "1907": 6914,
      "puisqueĠ": 6915,
      "hyperb": 6916,
      "extrÃ©m": 6917,
      "journÃ©eĠduĠ": 6918,
      "rayonn": 6919,
      "cylin": 6920,
      "sur-Marne,Ġ": 6921,
      "intÃ©graleĠ": 6922,
      "procÃ©dÃ©Ġ": 6923,
      "poissonsĠ": 6924,
      "dÃ©cembreĠ192": 6925,
      "AVR": 6926,
      "sÅĵurĠ": 6927,
      "indispensableĠ": 6928,
      "dossi": 6929,
      "boulev": 6930,
      "mentionn": 6931,
      "QUARTIERĠGÃīNÃīRAL": 6932,
      "(Suit": 6933,
      ".0": 6934,
      "3o": 6935,
      "FI": 6936,
      "Gar": 6937,
      "Sor": 6938,
      "ak": 6939,
      "ces,Ġ": 6940,
      "foy": 6941,
      "hom": 6942,
      "n,Ġ": 6943,
      "souver": 6944,
      "aĠ+Ġ": 6945,
      "l'im": 6946,
      "dit": 6947,
      "confÃ©renceĠ": 6948,
      "aitĠauĠ": 6949,
      "et.ĠĊ": 6950,
      "âĢĶĠO": 6951,
      "acideĠ": 6952,
      "e.ĠP": 6953,
      "amisĠ": 6954,
      "aireĠduĠ": 6955,
      "triceĠ": 6956,
      "ageĠdesĠ": 6957,
      "toutĠdeĠ": 6958,
      "achev": 6959,
      "visageĠ": 6960,
      "Â»ĠÂ»Ġ": 6961,
      "emploi": 6962,
      "Ann": 6963,
      "faibl": 6964,
      "soitĠenĠ": 6965,
      "consisteĠ": 6966,
      "dÃ©fens": 6967,
      "dÃ©fautĠ": 6968,
      "celleĠdeĠlaĠ": 6969,
      "Autri": 6970,
      "femmesĠ": 6971,
      "ILLE": 6972,
      "campagneĠ": 6973,
      "promen": 6974,
      "Pierre": 6975,
      "souffr": 6976,
      "dixiÃ¨": 6977,
      "MONTEBELLO": 6978,
      "Allier": 6979,
      "difficultÃ©sĠ": 6980,
      "Reichs": 6981,
      "s.n": 6982,
      "Bordeaux,Ġ": 6983,
      "GRANDĠQUARTIERĠGÃīNÃīRAL": 6984,
      "LEĠMARCHÃīĠAĠTER": 6985,
      "39Ġ": 6986,
      "800Ġ": 6987,
      "AIS": 6988,
      "MmeĠ": 6989,
      "SUR": 6990,
      "dy": 6991,
      "flor": 6992,
      "ok": 6993,
      "steĠ": 6994,
      "Ã©su": 6995,
      "ence": 6996,
      "esĠ(": 6997,
      "ou,Ġ": 6998,
      "aĠlesĠ": 6999,
      "aĠâĢĶĠ": 7000,
      "estÃ©Ġ": 7001,
      "unk": 7002,
      "orth": 7003,
      "plansĠ": 7004,
      "attir": 7005,
      "rien": 7006,
      ".ĠâĢĶĠA": 7007,
      ".ĠCar": 7008,
      ".Ġ15Ġ": 7009,
      "dâĢĻOr": 7010,
      "perman": 7011,
      "cours,Ġ": 7012,
      "couronneĠ": 7013,
      "8ĠxĠ": 7014,
      "blanch": 7015,
      "renteĠ": 7016,
      "devrontĠ": 7017,
      "dansĠlesĠconditionsĠ": 7018,
      ",Ġp.Ġ5": 7019,
      "commandementĠ": 7020,
      "retourn": 7021,
      "importanteĠ": 7022,
      "DansĠlesĠ": 7023,
      "confirm": 7024,
      "-majorĠ": 7025,
      "atteindreĠ": 7026,
      "numÃ©roĠ": 7027,
      "difficileĠ": 7028,
      "ex-c": 7029,
      "grosseĠ": 7030,
      "P.Ġ0.ĠLeĠ": 7031,
      "s.n.r": 7032,
      "FÃ©vrierĠ": 7033,
      "Let": 7034,
      "MOR": 7035,
      "POR": 7036,
      "SonĠ": 7037,
      "ayĠ": 7038,
      "e:Ġ": 7039,
      "pill": 7040,
      "inform": 7041,
      "entĠunĠ": 7042,
      "chin": 7043,
      "oix": 7044,
      "duĠpremierĠ": 7045,
      "d'ailleurs,Ġ": 7046,
      "dÃ©pl": 7047,
      "dÃ©bi": 7048,
      "ets,Ġ": 7049,
      "estĠÃłĠ": 7050,
      "estĠplusĠ": 7051,
      "ateur,Ġ": 7052,
      "abord": 7053,
      "impÃ©ri": 7054,
      "terri": 7055,
      "Ã©sĠdesĠ": 7056,
      "1910": 7057,
      "dr.Ġ": 7058,
      "aireĠdeĠlaĠ": 7059,
      "resseĠ": 7060,
      "monde,Ġ": 7061,
      "airesĠetĠ": 7062,
      "temps": 7063,
      "lors,Ġ": 7064,
      "Trav": 7065,
      "âĢ¢ĠĊ": 7066,
      "apparaÃ®tĠ": 7067,
      "depuisĠlaĠ": 7068,
      "considÃ©rableĠ": 7069,
      "Princi": 7070,
      "DĠETĠ": 7071,
      "privil": 7072,
      "britanni": 7073,
      "prudenceĠ": 7074,
      "exerciceĠ": 7075,
      "StockĠEx": 7076,
      "PondichÃ©r": 7077,
      ",.Ġ": 7078,
      "DrĠ": 7079,
      "It": 7080,
      "Kon": 7081,
      "NOT": 7082,
      "bellesĠ": 7083,
      "des,Ġ": 7084,
      "g.Ġ": 7085,
      "deĠetĠ": 7086,
      "quĠ": 7087,
      "es.ĠLaĠ": 7088,
      "leĠcardinalĠ": 7089,
      "erg": 7090,
      "erceĠ": 7091,
      "arth": 7092,
      "erĠsansĠ": 7093,
      "enĠcasĠdeĠ": 7094,
      "d'autreĠpart,Ġ": 7095,
      "rÃ©alitÃ©Ġ": 7096,
      "plain": 7097,
      "Ã©eĠauxĠ": 7098,
      "2Ġ(": 7099,
      "plus": 7100,
      "EĠD'": 7101,
      "s'ac": 7102,
      "s'Ã©cri": 7103,
      "Ã´t,Ġ": 7104,
      "sontĠenĠ": 7105,
      "perduĠ": 7106,
      "Ã©riqueĠ": 7107,
      "contrÃ´leĠ": 7108,
      "dansĠleĠcasĠ": 7109,
      "MarsĠ": 7110,
      ",Ġpet.Ġfol": 7111,
      "IN.ĠĊ": 7112,
      "atureĠdeĠ": 7113,
      "chercherĠ": 7114,
      "avantĠleĠ": 7115,
      "DansĠlaĠ": 7116,
      "roug": 7117,
      "minutesĠ": 7118,
      "rÃ¨glementsĠ": 7119,
      "eĠD.ĠI.,Ġ": 7120,
      "FranÃ§ois": 7121,
      "aprÃ¨s,Ġ": 7122,
      "troubl": 7123,
      "rechercheĠ": 7124,
      "Ã©lectri": 7125,
      "chirurgi": 7126,
      "signifi": 7127,
      "instrum": 7128,
      "SÃ©bastienĠ": 7129,
      "49Ġ": 7130,
      "6.ĠâĢĶĠ": 7131,
      "8;Ġ": 7132,
      "adÃ©": 7133,
      "tÃ¢": 7134,
      ".Ġ4Ġ": 7135,
      "esteĠ": 7136,
      "escadr": 7137,
      "l'honn": 7138,
      "antĠqueĠ": 7139,
      "unĠautreĠ": 7140,
      "atoireĠ": 7141,
      "Ã©eĠd'": 7142,
      ".ĠCon": 7143,
      "embarqu": 7144,
      "!Ġ!Ġ": 7145,
      "ier.ĠĊ": 7146,
      "surĠleĠmarchÃ©Ġ": 7147,
      "secteursĠ": 7148,
      "CommentĠ": 7149,
      "avantĠdeĠ": 7150,
      "boucheĠ": 7151,
      "soit,Ġ": 7152,
      "basĠdeĠ": 7153,
      "queĠnousĠavonsĠ": 7154,
      "G.ĠQ.ĠG.ĠĊ": 7155,
      "assimil": 7156,
      "endrontĠ": 7157,
      "cycl": 7158,
      "tribunalĠ": 7159,
      "sept.Ġ19": 7160,
      "voieĠfer": 7161,
      "rÃ©vÃ©l": 7162,
      "analyseĠ": 7163,
      "OfficierĠ": 7164,
      "5;Ġ": 7165,
      "5.ĠâĢĶĠ": 7166,
      "8.ĠâĢĶĠ": 7167,
      "Amir": 7168,
      "Il": 7169,
      "LEĠĊ": 7170,
      "Sec": 7171,
      "bout": 7172,
      "ger": 7173,
      "ly": 7174,
      "pÃ©tr": 7175,
      "eraientĠ": 7176,
      "duĠpointĠ": 7177,
      "rÃ©par": 7178,
      "onsĠpasĠ": 7179,
      "accep": 7180,
      "dansĠleursĠ": 7181,
      ")ĠB": 7182,
      "ants.ĠĊ": 7183,
      "Ã©sĠauxĠ": 7184,
      "1913": 7185,
      ".,Ġp.Ġ1": 7186,
      "ieĠetĠ": 7187,
      "oÃ«": 7188,
      "partiesĠdeĠ": 7189,
      "quelque": 7190,
      ".Ġ2Â°Ġ": 7191,
      "ay,ĠÃłĠ": 7192,
      "midi": 7193,
      "formul": 7194,
      "sousĠl'": 7195,
      "arrang": 7196,
      "(1)": 7197,
      "pays,Ġ": 7198,
      "diffÃ©rent": 7199,
      "AUĠ": 7200,
      "aussi": 7201,
      "spÃ©cialis": 7202,
      "PRO": 7203,
      "rayonĠ": 7204,
      "conduiteĠ": 7205,
      "consÃ©quenceĠ": 7206,
      "complÃ¨teĠ": 7207,
      "possÃ¨deĠ": 7208,
      "probablementĠ": 7209,
      "mobilis": 7210,
      "rapportsĠ": 7211,
      "dÃ©cisionsĠ": 7212,
      "EXERCI": 7213,
      "point,Ġ": 7214,
      "successivementĠ": 7215,
      "phÃ©nom": 7216,
      "jointĠ": 7217,
      "celle-ciĠ": 7218,
      "particip": 7219,
      "Dijon,Ġ": 7220,
      "(i": 7221,
      "-ES": 7222,
      "BR": 7223,
      "FAVR": 7224,
      "MY": 7225,
      "lati": 7226,
      "montĠ": 7227,
      "Ã©videm": 7228,
      "erezĠ": 7229,
      "erĠdansĠlaĠ": 7230,
      "enĠFranceĠ": 7231,
      "seĠfaitĠ": 7232,
      "comitÃ©Ġ": 7233,
      "comprom": 7234,
      "auĠcentreĠ": 7235,
      "e.ĠA": 7236,
      "export": 7237,
      "antÃ©rieur": 7238,
      "tesĠlesĠ": 7239,
      "forÃªtĠ": 7240,
      "Â«ĠLaĠ": 7241,
      "Ã¢g": 7242,
      "TIN": 7243,
      "emplac": 7244,
      "TĠ(": 7245,
      "produireĠ": 7246,
      "arrÃªtĠ": 7247,
      "pÃªcherĠ": 7248,
      "doubl": 7249,
      "TRON": 7250,
      "mort": 7251,
      "j'enĠ": 7252,
      ".ĠQuelĠestĠleĠ": 7253,
      "ceĠqueĠvousĠ": 7254,
      "conseil": 7255,
      "modificationsĠ": 7256,
      "applicationĠ": 7257,
      "tribunauxĠ": 7258,
      "ympt": 7259,
      "quelconqueĠ": 7260,
      "mauvaisĠ": 7261,
      "Henri": 7262,
      "voilÃłĠ": 7263,
      "AngleterreĠ": 7264,
      "Dam": 7265,
      "EMI": 7266,
      "Nor": 7267,
      "R.ĠA": 7268,
      "beauxĠ": 7269,
      "gour": 7270,
      "hauss": 7271,
      "jau": 7272,
      "zi": 7273,
      "Ã©par": 7274,
      "aid": 7275,
      "alo": 7276,
      "paral": 7277,
      "approb": 7278,
      "ante-": 7279,
      "tudeĠ": 7280,
      "avecĠsonĠ": 7281,
      "tresĠdeĠ": 7282,
      "tripleĠ": 7283,
      "issantĠ": 7284,
      "carrÃ©Ġ": 7285,
      "demn": 7286,
      "aprÃ¨sĠlesĠ": 7287,
      "nouvelĠ": 7288,
      "âĸłĠCl.Ġ79Ġ": 7289,
      "gÃ©nÃ©ral.ĠĊ": 7290,
      "Jeann": 7291,
      "ET,Ġ": 7292,
      "celuiĠdesĠ": 7293,
      "millionsĠdeĠ": 7294,
      "contest": 7295,
      "pÃªcheursĠ": 7296,
      "dÃ©cim": 7297,
      "atriceĠ": 7298,
      "RussieĠ": 7299,
      "Girond": 7300,
      "rÃ©sulteĠ": 7301,
      "Indications.ĠâĢĶĠ": 7302,
      "soufreĠ": 7303,
      "GraveursĠ": 7304,
      "95Ġ": 7305,
      "Ais": 7306,
      "CAL": 7307,
      "Den": 7308,
      "I.ĠâĢĶĠ": 7309,
      "LAP": 7310,
      "M.ĠleĠ": 7311,
      "OY": 7312,
      "TU": 7313,
      "beĠ": 7314,
      "dg": 7315,
      "fill": 7316,
      "les,Ġ": 7317,
      "tar": 7318,
      "Ã©cr": 7319,
      "Ã©pi": 7320,
      "arbe": 7321,
      "dure": 7322,
      "enĠeffetĠ": 7323,
      "repouss": 7324,
      "unĠgrandĠ": 7325,
      "acĠ": 7326,
      "paroleĠ": 7327,
      ";Ġc'estĠ": 7328,
      ":ĠImpr.,Ġ": 7329,
      "cuiv": 7330,
      "peupl": 7331,
      "asympt": 7332,
      "communĠ": 7333,
      "quelques-": 7334,
      "qu'ilĠyĠ": 7335,
      "Ã®n": 7336,
      "soustr": 7337,
      "airesĠdeĠ": 7338,
      "serviĠ": 7339,
      "16,Ġ": 7340,
      "versĠl'": 7341,
      "quâĢĻuneĠ": 7342,
      "remerci": 7343,
      "QUES": 7344,
      "Saint-Etienne,ĠLoire": 7345,
      "ceĠquiĠestĠ": 7346,
      "cÃ´tÃ©sĠ": 7347,
      "aoÃ»tĠ189": 7348,
      "BienĠ": 7349,
      "enseignementĠ": 7350,
      "ITÃīĠ": 7351,
      "perbe.Ġ": 7352,
      "franÃ§ais,ĠXVIIĠ": 7353,
      "Ã©quilibreĠ": 7354,
      "EclaireursĠ": 7355,
      "DUĠNORD-ES": 7356,
      "quatriÃ¨meĠ": 7357,
      "GRANDĠQUARTIERĠGÃīNÃīRALĠDESĠ": 7358,
      "franÃ§ais,ĠXVIIĠeĠsiÃ¨cleĠ": 7359,
      "\"ĠĊ": 7360,
      "(enĠ": 7361,
      ".]Ġ": 7362,
      "5Ġ1": 7363,
      "?..": 7364,
      "C.ĠĊ": 7365,
      "DAT": 7366,
      "Mant": 7367,
      "MESĠ": 7368,
      "dyĠ": 7369,
      "metĠ": 7370,
      "sseĠ": 7371,
      "vain": 7372,
      "tiensĠ": 7373,
      "ÃłĠvousĠ": 7374,
      "e,ĠelleĠ": 7375,
      "alor": 7376,
      "queĠluiĠ": 7377,
      "d'oÃ¹Ġ": 7378,
      "auĠcentr": 7379,
      "eciĠ": 7380,
      "dansĠnosĠ": 7381,
      "dansĠlesquellesĠ": 7382,
      "pourĠdesĠ": 7383,
      "endraitĠ": 7384,
      "fronti": 7385,
      "s'effectu": 7386,
      "discu": 7387,
      "reste,Ġ": 7388,
      "correc": 7389,
      "bienĠdesĠ": 7390,
      "IlĠyĠaĠ": 7391,
      "ERĠ(": 7392,
      "suiviĠ": 7393,
      "quâĢĻilsĠ": 7394,
      "consenti": 7395,
      "rÃ©gionsĠ": 7396,
      "fond,Ġ": 7397,
      "particulier,Ġ": 7398,
      "lieu,Ġ": 7399,
      "journÃ©eĠ": 7400,
      "contre-attaqueĠ": 7401,
      "quantitÃ©sĠ": 7402,
      "Charles": 7403,
      "sentimentĠ": 7404,
      "GouverneurĠ": 7405,
      "capacitÃ©Ġ": 7406,
      "enseignementsĠ": 7407,
      "duĠNordĠ": 7408,
      "ons-nousĠ": 7409,
      "occupationĠ": 7410,
      "DUĠNORDĠETĠ": 7411,
      "parfaitementĠ": 7412,
      "in-8Â°": 7413,
      "Ourc": 7414,
      "GraveursĠfranÃ§ais,ĠXVIIĠeĠsiÃ¨cleĠ": 7415,
      "1.000Ġ": 7416,
      "MÃªmeĠ": 7417,
      "Sy": 7418,
      "S,Ġ": 7419,
      "cf": 7420,
      "e.)Ġ": 7421,
      "loi": 7422,
      "mer,Ġ": 7423,
      "aĠ=Ġ": 7424,
      "tr.Ġc": 7425,
      "invit": 7426,
      "ÃłĠpeineĠ": 7427,
      "dit-": 7428,
      "reauĠ": 7429,
      "plant": 7430,
      "seĠfaireĠ": 7431,
      "e.ĠSiĠ": 7432,
      ")ĠâĢĶĠ": 7433,
      "frac": 7434,
      "frag": 7435,
      "deĠl'ennemiĠ": 7436,
      "alĠetĠ": 7437,
      "Â«ĠJeĠ": 7438,
      "SĠDEĠ": 7439,
      "stationn": 7440,
      "siĠl'onĠ": 7441,
      "commenceĠ": 7442,
      "cord": 7443,
      "car,Ġ": 7444,
      ".Ġ20Ġ": 7445,
      "Ã©vacu": 7446,
      "valeurĠdeĠ": 7447,
      "misĠdeĠ": 7448,
      "furĠ": 7449,
      "And": 7450,
      "secr": 7451,
      "Inter": 7452,
      "voyag": 7453,
      "directeurĠ": 7454,
      "simplesĠ": 7455,
      "nuit": 7456,
      "ITH": 7457,
      "autre": 7458,
      "e.ĠEn": 7459,
      "etc.ĠĊ": 7460,
      "sacrifi": 7461,
      "ColombĠ": 7462,
      "murmur": 7463,
      "ultÃ©rieur": 7464,
      "responsabil": 7465,
      "maiĠ1918": 7466,
      "ChambreĠsyndi": 7467,
      "permettr": 7468,
      "lutteĠ": 7469,
      "Deutsch": 7470,
      "irtschaf": 7471,
      "exagÃ©r": 7472,
      "lons-sur-Marne,Ġ": 7473,
      "GRANDĠQUARTIERĠGÃīNÃīRALĠDESĠARMÃīESĠ": 7474,
      "(*": 7475,
      "-jeĠ": 7476,
      "4Ġ1": 7477,
      "Foch": 7478,
      "Jur": 7479,
      "LireĠ": 7480,
      "Oc": 7481,
      "Oct": 7482,
      "QĠ": 7483,
      "fis": 7484,
      "gou": 7485,
      "junk": 7486,
      "mach": 7487,
      "oteĠ": 7488,
      "osi": 7489,
      "aurezĠ": 7490,
      "etĠdâĢĻ": 7491,
      "Ãł,Ġ": 7492,
      "prÃªtĠ": 7493,
      "teĠd'": 7494,
      "enĠarriÃ¨reĠ": 7495,
      "atom": 7496,
      "e.ĠL": 7497,
      "cielĠ": 7498,
      "agitĠ": 7499,
      "olog": 7500,
      "sĠdeĠlâĢĻ": 7501,
      "immen": 7502,
      "formentĠ": 7503,
      "distill": 7504,
      "tÃ©Ġd'": 7505,
      "admissionĠ": 7506,
      "devantĠlaĠ": 7507,
      "seulesĠ": 7508,
      "1929": 7509,
      "francs": 7510,
      "majorsĠ": 7511,
      "misĠenĠ": 7512,
      "airevoi": 7513,
      "terrain": 7514,
      "Ã©pis": 7515,
      "causeĠdeĠ": 7516,
      ".ĠâĢĶĠLeĠgÃ©nÃ©ralĠ": 7517,
      "mouchesĠ": 7518,
      "etc.,Ġ": 7519,
      "prisonnierĠ": 7520,
      "royau": 7521,
      "constructionĠ": 7522,
      "LeclercĠ": 7523,
      "concurren": 7524,
      "Ã©ronau": 7525,
      "LAĠBRIGEĠĊ": 7526,
      "DUĠNORD-EST.ĠĊ": 7527,
      "GraveursĠfranÃ§ais,ĠXVIIĠeĠsiÃ¨cleĠLĠĊ": 7528,
      "52Ġ": 7529,
      "71Ġ": 7530,
      "NOM": 7531,
      "SON": 7532,
      "Vall": 7533,
      "densi": 7534,
      "davantageĠ": 7535,
      "filsĠ": 7536,
      "i5Ġ": 7537,
      "lamp": 7538,
      "oneĠ": 7539,
      "ancheĠ": 7540,
      "ouestĠdeĠ": 7541,
      "onĠestĠ": 7542,
      "e,ĠparĠ": 7543,
      "e,ĠpourĠ": 7544,
      "chant": 7545,
      "Ã¨geĠ": 7546,
      "queĠc'estĠ": 7547,
      "dÃ©sor": 7548,
      "uneĠgrandeĠ": 7549,
      ";ĠilsĠ": 7550,
      "dansĠchaqueĠ": 7551,
      "quiĠavaitĠ": 7552,
      ":ĠA": 7553,
      "riv": 7554,
      "ssentĠ": 7555,
      "exper": 7556,
      "lum": 7557,
      "Ã©sĠparĠlaĠ": 7558,
      "180": 7559,
      "able.ĠĊ": 7560,
      "entreten": 7561,
      "souh": 7562,
      "marchÃ©,Ġ": 7563,
      "donc,Ġ": 7564,
      "affec": 7565,
      "vol.Ġ": 7566,
      "mesur": 7567,
      "TroisĠ": 7568,
      "berg": 7569,
      "voyageĠ": 7570,
      "euseĠetĠ": 7571,
      "ancienneĠ": 7572,
      "longuesĠ": 7573,
      "conseilsĠ": 7574,
      "estim": 7575,
      "subst": 7576,
      "observationĠ": 7577,
      "lui-mÃªme,Ġ": 7578,
      "quitt": 7579,
      "solid": 7580,
      "plusĠtardĠ": 7581,
      "Ã©quip": 7582,
      "Indre-et-": 7583,
      "rectangleĠ": 7584,
      "quartierĠ": 7585,
      "44Ġ": 7586,
      "66Ġ": 7587,
      "COL": 7588,
      "FRI": 7589,
      "HAR": 7590,
      "MIS": 7591,
      "Paul": 7592,
      "m.ĠâĢĶĠ": 7593,
      "mas": 7594,
      "sk": 7595,
      "streĠ": 7596,
      "taxeĠ": 7597,
      "vent,Ġ": 7598,
      ".ĠQ": 7599,
      "ÃłĠtoutĠ": 7600,
      "Ã©Ġ(": 7601,
      "Ã©rieĠ": 7602,
      ";Ġ2": 7603,
      ";Ġl'": 7604,
      "cienĠ": 7605,
      ":Ġl'": 7606,
      "absolu": 7607,
      "surĠsaĠ": 7608,
      "impres": 7609,
      "imprim": 7610,
      "vientĠdeĠ": 7611,
      "luĠ": 7612,
      "courbureĠ": 7613,
      "venueĠ": 7614,
      ".Ġ28": 7615,
      "auteurĠ": 7616,
      "s-majorsĠ": 7617,
      "Indu": 7618,
      "ences,Ġ": 7619,
      "cale,Ġ": 7620,
      "calculĠ": 7621,
      "directionĠdeĠ": 7622,
      "parĠl'articleĠ": 7623,
      "entrepriseĠ": 7624,
      "polit": 7625,
      "0,0": 7626,
      "seĠtrouventĠ": 7627,
      "mÃ©talli": 7628,
      "extrÃªmeĠ": 7629,
      "dÃ©tailĠ": 7630,
      "aviationĠ": 7631,
      "contre-partieĠ": 7632,
      "AIRESĠ": 7633,
      "Ã©crituresĠ": 7634,
      "arrÃªtÃ©Ġ": 7635,
      "satisfac": 7636,
      "autantĠplusĠ": 7637,
      "Rouss": 7638,
      "n'avaitĠpasĠ": 7639,
      "Ã¹Ġ": 7640,
      "disponibil": 7641,
      "souvenirĠ": 7642,
      "marchÃ©ĠduĠtravailĠ": 7643,
      "Arbeitslo": 7644,
      "dÃ©licat": 7645,
      "CÃ´te-dâĢĻOr": 7646,
      "43Ġ": 7647,
      "51Ġ": 7648,
      "eaĠ": 7649,
      "p.Ġ(": 7650,
      "rg": 7651,
      ".Ġ,Ġ": 7652,
      ".ĠdeĠlaĠ": 7653,
      "aient": 7654,
      "aĠl'": 7655,
      "euilĠ": 7656,
      "etĠsansĠ": 7657,
      "ÃłĠre": 7658,
      "Ã¨ne,Ġ": 7659,
      "erĠdeĠl'": 7660,
      "duĠcrÃ©ditĠ": 7661,
      "rez": 7662,
      "auĠmilieuĠ": 7663,
      "tureĠdeĠ": 7664,
      "modeĠdeĠ": 7665,
      "modÃ©r": 7666,
      "dâĢĻeauĠ": 7667,
      "Ã©esĠparĠleĠ": 7668,
      "iers": 7669,
      "brÃ»": 7670,
      "attendreĠ": 7671,
      "annul": 7672,
      "deboutĠ": 7673,
      "aÃ®tre,Ġ": 7674,
      "infÃ©rieureĠ": 7675,
      "eusement,Ġ": 7676,
      "mĠ,": 7677,
      "AUT": 7678,
      "AuĠQ.ĠG.,ĠleĠ": 7679,
      "collabor": 7680,
      "elle-mÃªmeĠ": 7681,
      "langueĠ": 7682,
      "Ã©vÃªqueĠ": 7683,
      "compensationĠ": 7684,
      "Pont-": 7685,
      "dateĠduĠ": 7686,
      "supplÃ©": 7687,
      "Sainte-": 7688,
      "commenÃ§": 7689,
      "tempÃ©ratureĠ": 7690,
      "bĠ17,Ġ": 7691,
      "chapitreĠ": 7692,
      "oeuvreĠ": 7693,
      "Konjunk": 7694,
      "GRANDĠQUARTIERĠGÃīNÃīRALĠDESĠARMÃīESĠDUĠNORDĠETĠ": 7695,
      "'\"": 7696,
      "46Ġ": 7697,
      "BU": 7698,
      "Bell": 7699,
      "Bret": 7700,
      "IQUEĠ": 7701,
      "Mai": 7702,
      "acon": 7703,
      "jamb": 7704,
      "oĠĊ": 7705,
      "tard": 7706,
      "vusĠ": 7707,
      "ÃĤ": 7708,
      "Ã¨seĠ": 7709,
      "Ã¨mes": 7710,
      "erĠetĠdeĠ": 7711,
      "enĠceĠ": 7712,
      "ilĠavaitĠ": 7713,
      "auĠcour": 7714,
      "surĠsesĠ": 7715,
      "vict": 7716,
      "deĠl'armÃ©eĠ": 7717,
      "ouĠunĠ": 7718,
      "cadreĠ": 7719,
      "Ã´tsĠ": 7720,
      "avecĠsesĠ": 7721,
      "SĠD'": 7722,
      "siĠelleĠ": 7723,
      "aientĠÃłĠ": 7724,
      "issementĠ": 7725,
      ".Ġ25Ġ": 7726,
      "achat": 7727,
      "um,Ġ": 7728,
      "empleĠ": 7729,
      "sionĠdesĠ": 7730,
      "devaientĠ": 7731,
      "aprÃ¨sĠleĠ": 7732,
      "auraisĠ": 7733,
      "1924": 7734,
      "produit": 7735,
      "consist": 7736,
      "cali": 7737,
      "Saint-S": 7738,
      "Dieu,Ġ": 7739,
      ".ĠEnĠeffet,Ġ": 7740,
      "m'enĠ": 7741,
      "liquideĠ": 7742,
      "pensÃ©eĠ": 7743,
      "blesĠdeĠ": 7744,
      "ÃĪMEĠ": 7745,
      "totalĠ": 7746,
      "ville,Ġ": 7747,
      "feuilleĠ": 7748,
      "correspondĠ": 7749,
      "devenuĠ": 7750,
      "attentionĠ": 7751,
      "+Ġ+Ġ+Ġ+Ġ": 7752,
      "traitsĠ": 7753,
      "parallÃ¨lesĠ": 7754,
      "favoris": 7755,
      "confrÃ¨reĠ": 7756,
      "frÃ©quent": 7757,
      "Ãītat-majorĠ": 7758,
      "TrÃ¨sĠbeau": 7759,
      "cÃ©rÃ©mon": 7760,
      "ModeĠd'administr": 7761,
      "(1Ġ": 7762,
      ".6": 7763,
      "3/": 7764,
      "3.Ġ": 7765,
      "3\"Ġ": 7766,
      "47Ġ": 7767,
      "92": 7768,
      "D.ĠA": 7769,
      "PARTI": 7770,
      "ov": 7771,
      "vein": 7772,
      ",Ġpag": 7773,
      "est-ilĠ": 7774,
      "charm": 7775,
      "l'avaitĠ": 7776,
      "d'ordreĠ": 7777,
      "ceĠn'estĠpasĠ": 7778,
      "uneĠcertaineĠ": 7779,
      "deĠlaĠpl": 7780,
      "Ã©nag": 7781,
      "frÃ¨reĠ": 7782,
      "Ã´l": 7783,
      "anglesĠ": 7784,
      "advers": 7785,
      "bienĠqueĠ": 7786,
      ".ĠIlĠfautĠ": 7787,
      "ARITH": 7788,
      "ANN": 7789,
      "20ĠĊ": 7790,
      "strui": 7791,
      "aprÃ¨sĠl'": 7792,
      "Ġ(Ġ": 7793,
      "voiesĠ": 7794,
      "Saint-PÃ©tersbourg": 7795,
      "pourĠlaĠpÃªcheĠ": 7796,
      "....ĠĊ": 7797,
      "apparaiss": 7798,
      "ĠDUĠ": 7799,
      "liquidation,Ġ": 7800,
      "extraitĠ": 7801,
      "OTH": 7802,
      "inclu": 7803,
      "mouch": 7804,
      "prÃ©cipit": 7805,
      "conduitĠ": 7806,
      "neutr": 7807,
      "principesĠ": 7808,
      "dÃ©finitiv": 7809,
      "bruitĠ": 7810,
      "infinimentĠ": 7811,
      "esprit": 7812,
      "ClÃ©rieuxĠ": 7813,
      "CompagnieĠ": 7814,
      "sterdam": 7815,
      "pauvresĠ": 7816,
      ".ĠImpr.,ĠÃ©d.ĠA,ĠAl,ĠA": 7817,
      "Indre-et-Loire": 7818,
      "(fig": 7819,
      "4;Ġ": 7820,
      "COUR": 7821,
      "DÃ©v": 7822,
      "SEĠ": 7823,
      "mÃ©ri": 7824,
      "sag": 7825,
      "vendreĠ": 7826,
      "deĠchaqueĠ": 7827,
      "anteĠdeĠ": 7828,
      "tiĠ": 7829,
      "tireĠ": 7830,
      "omÃ©tri": 7831,
      "aitĠsaĠ": 7832,
      "dÃ©d": 7833,
      "seĠcon": 7834,
      ";Ġ2Â°Ġ": 7835,
      "olÃ©r": 7836,
      "projetĠdeĠ": 7837,
      "Ã©eĠÃłĠl'": 7838,
      "Ã©sĠĊ": 7839,
      "portĠdeĠ": 7840,
      "ouĠduĠ": 7841,
      "ÃłĠlaĠsuiteĠ": 7842,
      "cruĠ": 7843,
      "resterĠ": 7844,
      "Ã©lÃ©g": 7845,
      "dontĠnousĠ": 7846,
      "financ": 7847,
      "126": 7848,
      "secrÃ¨": 7849,
      "affr": 7850,
      "Clerc": 7851,
      "facileĠ": 7852,
      "partieĠduĠ": 7853,
      "moment": 7854,
      "1909": 7855,
      "ÃłĠdr.Ġ": 7856,
      ".ĠDansĠuneĠ": 7857,
      "connaissanceĠ": 7858,
      "dÃ©finiti": 7859,
      "Monesti": 7860,
      "jeuneĠfilleĠ": 7861,
      "principalesĠ": 7862,
      "Ã©tablissementsĠ": 7863,
      "crÃ©ditsĠ": 7864,
      "eĠC.ĠA.ĠĊ": 7865,
      "documentsĠ": 7866,
      "cannesĠ": 7867,
      "prÃ©latĠ": 7868,
      "mitrailleusesĠ": 7869,
      "FLICKĠĊ": 7870,
      "Itali": 7871,
      "Dijon,ĠCÃ´te-dâĢĻOr": 7872,
      "LAPLO": 7873,
      "airevoie.Ġ": 7874,
      "-sur-": 7875,
      "0',": 7876,
      "59Ġ": 7877,
      "61Ġ": 7878,
      "Dess": 7879,
      "Mo": 7880,
      "OD": 7881,
      "RA": 7882,
      "Ven": 7883,
      "VoiciĠ": 7884,
      "ei": 7885,
      "lÃł-": 7886,
      "tempor": 7887,
      "tĠleĠ": 7888,
      "endi": 7889,
      "prÃªtreĠ": 7890,
      "l'aiĠ": 7891,
      "d'assur": 7892,
      "d'accordĠ": 7893,
      "ilĠyĠ": 7894,
      "parab": 7895,
      "auĠport": 7896,
      "dansĠlaquelleĠ": 7897,
      "gr.)": 7898,
      "1911": 7899,
      "vern": 7900,
      "vertuĠ": 7901,
      "diss": 7902,
      "tionsĠdeĠ": 7903,
      "clÃ©si": 7904,
      "ombr": 7905,
      "iraĠ": 7906,
      "asser": 7907,
      "phot": 7908,
      ".ĠSain": 7909,
      "IlĠfautĠ": 7910,
      "recouvr": 7911,
      "QuelĠ": 7912,
      "âĸłâĸł": 7913,
      "quâĢĻunĠ": 7914,
      "ennemisĠ": 7915,
      "garn": 7916,
      "contreĠl'": 7917,
      "commandantĠ": 7918,
      "Ã©lÃ©mentĠ": 7919,
      "ez-moiĠ": 7920,
      "cycli": 7921,
      "ADÃī": 7922,
      "multiplesĠ": 7923,
      "sous-cutan": 7924,
      "statistiqueĠ": 7925,
      "traitÃ©Ġ": 7926,
      "d'aprÃ¨sĠlesĠ": 7927,
      "relativesĠ": 7928,
      "Voil": 7929,
      "Thier": 7930,
      "vasteĠ": 7931,
      "ÃłĠlaĠdispositionĠduĠ": 7932,
      "onomieĠ": 7933,
      "mÃ©dicament": 7934,
      "-Y": 7935,
      "54Ġ": 7936,
      "97Ġ": 7937,
      "CĠĊ": 7938,
      "DÃ¨sĠ": 7939,
      "Janvi": 7940,
      "LON": 7941,
      "M~": 7942,
      "Ram": 7943,
      "gĠdeĠ": 7944,
      "hÃ¢": 7945,
      "savaitĠ": 7946,
      "zurĠ": 7947,
      "els": 7948,
      "Ã¨meĠdeĠ": 7949,
      "dÃ©esĠ": 7950,
      "rÃ©volu": 7951,
      "neĠetĠ": 7952,
      "neĠdoitĠ": 7953,
      "actifĠ": 7954,
      "deĠlaĠFranceĠ": 7955,
      "parĠsaĠ": 7956,
      "plumeĠ": 7957,
      "terre,Ġ": 7958,
      ".ĠCetĠ": 7959,
      "dâĢĻautresĠ": 7960,
      "commissi": 7961,
      "II.ĠâĢĶĠ": 7962,
      "aisembl": 7963,
      "187": 7964,
      "commeĠonĠ": 7965,
      "font": 7966,
      "102eĠ": 7967,
      "donnÃ©eĠ": 7968,
      "ardsĠ": 7969,
      "versĠlesĠ": 7970,
      "faire,Ġ": 7971,
      "vraisembl": 7972,
      "nÃ©an": 7973,
      "roch": 7974,
      "douzeĠ": 7975,
      "IIIeĠarmÃ©": 7976,
      "moyensĠdeĠ": 7977,
      "tirsĠdeĠ": 7978,
      "cÃ´tÃ©ĠdeĠ": 7979,
      "ligne,Ġ": 7980,
      "ÃłĠdr.,ĠleĠ": 7981,
      "rÃ©pondreĠ": 7982,
      "ATIONSĠ": 7983,
      "journalĠ": 7984,
      "Proc": 7985,
      "pÃ¨seĠ": 7986,
      "oÃ¯d": 7987,
      "rÃ©ductionĠ": 7988,
      "limitesĠ": 7989,
      "FranÃ§aisĠ": 7990,
      "THÃī": 7991,
      "permetĠdeĠ": 7992,
      "quinz": 7993,
      "souvenir": 7994,
      "oxy": 7995,
      "CompteĠrenduĠ": 7996,
      "aspec": 7997,
      "kilogram": 7998,
      "toutefoisĠ": 7999,
      "PrÃ©sidentĠdeĠlaĠRÃ©publiqueĠ": 8000,
      "tantÃ´tĠ": 8001,
      "GRANDĠQUARTIERĠGÃīNÃīRALĠDESĠARMÃīESĠDUĠNORDĠETĠDUĠNORD-EST.ĠĊ": 8002,
      "62Ġ": 8003,
      "GN": 8004,
      "Joseph": 8005,
      "PI": 8006,
      "Ru": 8007,
      "asi": 8008,
      "camp": 8009,
      "hÃ©li": 8010,
      "uy": 8011,
      ".Ġ-": 8012,
      "enqu": 8013,
      "auprÃ¨sĠdeĠ": 8014,
      "pas.ĠĊ": 8015,
      "d'origineĠ": 8016,
      "rÃ©per": 8017,
      "ÃªtresĠ": 8018,
      "Ã©taisĠ": 8019,
      "s,ĠdeĠ": 8020,
      "deĠlaĠprimeĠ": 8021,
      "pareilĠ": 8022,
      "auĠmoyenĠ": 8023,
      "dansĠlequelĠ": 8024,
      "rirĠ": 8025,
      "immeu": 8026,
      "dâĢĻÃªtreĠ": 8027,
      "Â«ĠLeĠ": 8028,
      "compte,Ġ": 8029,
      "ois,Ġ": 8030,
      "ineĠdeĠ": 8031,
      "igneĠ": 8032,
      "celteĠ": 8033,
      "Claire,Ġ": 8034,
      "droitesĠ": 8035,
      "Alfre": 8036,
      "chercheĠ": 8037,
      "ETT": 8038,
      "publique,Ġ": 8039,
      "passi": 8040,
      "femme,Ġ": 8041,
      "Ã©conomiquesĠ": 8042,
      "quelqueĠchoseĠ": 8043,
      "adresseĠ": 8044,
      "zoneĠdeĠ": 8045,
      "ahr": 8046,
      "possessionĠ": 8047,
      "lÃ©sionsĠ": 8048,
      "Amsterdam": 8049,
      "bataillonsĠ": 8050,
      "pÃ©riodeĠdeĠ": 8051,
      "propriÃ©tÃ©sĠ": 8052,
      "MgrĠMathieuĠ": 8053,
      "nuitĠduĠ": 8054,
      "AdĠ10": 8055,
      "volontÃ©Ġ": 8056,
      "huileĠ": 8057,
      "joint": 8058,
      "mÃ©nag": 8059,
      "M.ĠRIB": 8060,
      "M.ĠDEĠ": 8061,
      "e)ĠetĠenf.,ĠdeĠReims,ĠÃłĠ": 8062,
      "ÃłĠpeuĠprÃ¨sĠ": 8063,
      "TABLE": 8064,
      "ChrÃ©tienn": 8065,
      "ambassad": 8066,
      "2)Ġ": 8067,
      "CrÃ©": 8068,
      "Cam": 8069,
      "IreĠ": 8070,
      "Si": 8071,
      "eilsĠ": 8072,
      "eil,Ġ": 8073,
      "p.Ġ4": 8074,
      "p.Ġ5": 8075,
      "rout": 8076,
      "tac": 8077,
      "inÃ©": 8078,
      "Ã¨sĠdeĠ": 8079,
      "Ã¨gl": 8080,
      "Ã©ĠdansĠlaĠ": 8081,
      "divid": 8082,
      "duĠB": 8083,
      "d'or,Ġ": 8084,
      "âĢĶâĢĶ": 8085,
      "e.ĠÂ»ĠĊ": 8086,
      "ant-": 8087,
      "auxĠetĠ": 8088,
      ".ĠAr": 8089,
      "1919": 8090,
      ".ĠII": 8091,
      ".ĠC.Ġ": 8092,
      "fortementĠ": 8093,
      "assign": 8094,
      "elles.ĠĊ": 8095,
      "bient": 8096,
      "mÃ©can": 8097,
      ".ĠEt,Ġ": 8098,
      "entreĠdeuxĠ": 8099,
      "TIQUEĠ": 8100,
      "appell": 8101,
      "aÃ®tr": 8102,
      "relÃ¨v": 8103,
      "consÃ©cu": 8104,
      "sÃ©jourĠ": 8105,
      "tirsĠ": 8106,
      "habil": 8107,
      "NousĠavonsĠ": 8108,
      "chacunĠdesĠ": 8109,
      "assisĠ": 8110,
      "naturellementĠ": 8111,
      "cheminĠdeĠ": 8112,
      "facilit": 8113,
      "besoinsĠ": 8114,
      "&amp;Ġ": 8115,
      "mauvaiseĠ": 8116,
      "branchesĠ": 8117,
      "sangĠ": 8118,
      "LAĠBOURS": 8119,
      "jusquâĢĻÃłĠ": 8120,
      "Saint-SaÃ«nsĠ": 8121,
      "M.ĠdeĠGiersĠ": 8122,
      ".).Ġ": 8123,
      "2\"Ġ": 8124,
      "68Ġ": 8125,
      "800": 8126,
      "92,Ġ": 8127,
      "CA": 8128,
      "Sav": 8129,
      "Wal": 8130,
      "eg": 8131,
      "gan": 8132,
      "russeĠ": 8133,
      "tel": 8134,
      "vap": 8135,
      "y,ĠÃłĠ": 8136,
      "indÃ©fin": 8137,
      "duquelĠ": 8138,
      "Ã©ĠsonĠ": 8139,
      "Ã©ru": 8140,
      "recommand": 8141,
      "neĠvousĠ": 8142,
      "neĠseraĠ": 8143,
      "etsĠdeĠ": 8144,
      "acleĠ": 8145,
      "deĠlaĠmÃªmeĠ": 8146,
      ")Ġ2eĠ": 8147,
      "antes": 8148,
      "ture": 8149,
      "prÃ©vuĠ": 8150,
      "putĠ": 8151,
      "evoirĠ": 8152,
      "guli": 8153,
      ".Ġ1Â°Ġ": 8154,
      "sontĠdeĠ": 8155,
      "permisĠ": 8156,
      "Ã©esĠauxĠ": 8157,
      "Ã©glis": 8158,
      "porterĠ": 8159,
      "triangleĠ": 8160,
      "gÃ©nÃ©ralesĠ": 8161,
      "loint": 8162,
      ".ĠSesĠ": 8163,
      "devantĠlesĠ": 8164,
      "et,ĠenĠ": 8165,
      "167": 8166,
      ",Ġp.Ġ7": 8167,
      "170": 8168,
      "mÃ¨tres,Ġ": 8169,
      "Or,Ġ": 8170,
      "vous": 8171,
      "tifĠdeĠ": 8172,
      "soix": 8173,
      "mai,Ġ": 8174,
      "penseĠ": 8175,
      "employÃ©sĠ": 8176,
      "entreĠlesĠdeuxĠ": 8177,
      "thÃ©ori": 8178,
      "meilleureĠ": 8179,
      "appuiĠ": 8180,
      "atteint": 8181,
      "ÃłĠpartirĠdeĠ": 8182,
      "fortuneĠ": 8183,
      "mÃ©thod": 8184,
      ").Ġ2eĠC.ĠS": 8185,
      "Hugu": 8186,
      "brigadeĠ": 8187,
      "colonnesĠ": 8188,
      "renouvel": 8189,
      "perpendiculaireĠ": 8190,
      "horizont": 8191,
      "fluctuationsĠ": 8192,
      "quelquefoisĠ": 8193,
      "LAPLOTT": 8194,
      "400": 8195,
      "7Ġ1": 8196,
      "Bern": 8197,
      "Obr": 8198,
      "Ti": 8199,
      "apo": 8200,
      "bresĠ": 8201,
      "hr": 8202,
      "h.Ġ": 8203,
      "ke": 8204,
      "leu": 8205,
      "mass": 8206,
      "ot,Ġ": 8207,
      "roc": 8208,
      "tÃªt": 8209,
      "taillesĠ": 8210,
      "trim": 8211,
      "etĠnonĠ": 8212,
      "isser": 8213,
      "alt": 8214,
      "enĠrÃ©serveĠ": 8215,
      "d'entreĠ": 8216,
      "dÃ©criteĠ": 8217,
      "rÃ©u": 8218,
      "plais": 8219,
      "estĠdoncĠ": 8220,
      "parĠsesĠ": 8221,
      "prÃ©h": 8222,
      "prÃ©vuesĠ": 8223,
      "fraisĠdeĠ": 8224,
      "sesĠdeĠ": 8225,
      "verseĠ": 8226,
      "discoursĠ": 8227,
      "stock": 8228,
      "ais.ĠĊ": 8229,
      "Chap": 8230,
      "connaÃ®tĠ": 8231,
      "Paris.ĠĊ": 8232,
      "D.ĠI.,Ġ": 8233,
      "sort": 8234,
      "particuliÃ¨reĠ": 8235,
      "lÃ©gÃ¨reĠ": 8236,
      "celleĠquiĠ": 8237,
      "ETĠDEĠLAĠ": 8238,
      "appari": 8239,
      "bilitÃ©Ġ": 8240,
      "cÃ´t": 8241,
      "mensu": 8242,
      "Loire,Ġ": 8243,
      "dÃ©laisĠdeĠ": 8244,
      "y-le-": 8245,
      "PREMI": 8246,
      "PrÃ©sid": 8247,
      "oÃ¯deĠ": 8248,
      "vÃ©ritÃ©Ġ": 8249,
      "Conseil": 8250,
      "campagn": 8251,
      "DEU": 8252,
      "Ã©cout": 8253,
      "ministÃ©ri": 8254,
      "plaisirĠ": 8255,
      "cantonn": 8256,
      "Christ": 8257,
      "PrincipeĠ": 8258,
      "TRONILLE": 8259,
      ")Ġ1": 8260,
      "//": 8261,
      "56Ġ": 8262,
      "AhĠ!Ġ": 8263,
      "FON": 8264,
      "Jomber": 8265,
      "JÃ©su": 8266,
      "LÃī": 8267,
      "OIN": 8268,
      "PlancheĠ": 8269,
      "ces": 8270,
      "ce.ĠĊ": 8271,
      "cÃ©d": 8272,
      "e,": 8273,
      "ep": 8274,
      "einĠ": 8275,
      "leur": 8276,
      "nsĠ": 8277,
      "pÃ©ch": 8278,
      "vÃª": 8279,
      "deĠvousĠ": 8280,
      "oud": 8281,
      "ouxĠ": 8282,
      "titres": 8283,
      "escompteĠ": 8284,
      "etĠs'": 8285,
      "entĠÃłĠlaĠ": 8286,
      "Ã©ĠparĠunĠ": 8287,
      "queĠsoitĠ": 8288,
      "sujetsĠ": 8289,
      "avis": 8290,
      "ref": 8291,
      "repriseĠ": 8292,
      "dÃ©ser": 8293,
      "dÃ©gag": 8294,
      "neĠlesĠ": 8295,
      "onsĠlesĠ": 8296,
      "e.ĠÂ»Ġ": 8297,
      "e.ĠDeĠ": 8298,
      "agneĠ": 8299,
      "agit": 8300,
      "aines,Ġ": 8301,
      "ouvreĠ": 8302,
      "5ĠÃłĠ": 8303,
      "pasĠd'": 8304,
      "modeĠ": 8305,
      "objetsĠ": 8306,
      "stÃ©r": 8307,
      "embr": 8308,
      "adap": 8309,
      "Ã©d.ĠC": 8310,
      "critĠetĠ": 8311,
      ".ĠIlĠyĠaĠ": 8312,
      "solĠ": 8313,
      "interval": 8314,
      "trouverĠ": 8315,
      "Marse": 8316,
      ",Ġp.Ġ6": 8317,
      "rapi": 8318,
      "C.ĠA.,Ġ": 8319,
      "AuĠG.ĠQ.ĠG": 8320,
      "isionĠ": 8321,
      "autrementĠ": 8322,
      "reÃ§u": 8323,
      "courbesĠ": 8324,
      "membresĠdeĠlaĠ": 8325,
      "nationaleĠ": 8326,
      "thÃ¨seĠ": 8327,
      "sodi": 8328,
      "OfficeĠ": 8329,
      "scÃ¨neĠ": 8330,
      "matÃ©rielĠ": 8331,
      "lourdeĠ": 8332,
      "grossesĠ": 8333,
      "AlbertĠ": 8334,
      "fabric": 8335,
      "navig": 8336,
      ";ĠRbĠ17,Ġ": 8337,
      "Ã©videmmentĠ": 8338,
      "'ilĠ": 8339,
      ".7": 8340,
      ".âĢĶĠ": 8341,
      "9;Ġ": 8342,
      "CC": 8343,
      "Cot": 8344,
      "COR": 8345,
      "LIN": 8346,
      "Nu": 8347,
      "PER": 8348,
      "VersĠ": 8349,
      "has": 8350,
      "heure": 8351,
      "jonc": 8352,
      "kmĠ": 8353,
      "la-": 8354,
      "pensi": 8355,
      "rot": 8356,
      "s.-": 8357,
      "tap": 8358,
      "Ã¿": 8359,
      "enduĠ": 8360,
      "indemn": 8361,
      "etĠs": 8362,
      "etĠqueĠ": 8363,
      "chĠ": 8364,
      "dÃ©cor": 8365,
      "antĠÃłĠl'": 8366,
      "partementĠ": 8367,
      "e.ĠAu": 8368,
      "provin": 8369,
      "fir": 8370,
      "dâĢĻA": 8371,
      "optionĠ": 8372,
      "obs": 8373,
      "obli": 8374,
      "tenaitĠ": 8375,
      "commandeĠ": 8376,
      "ÃłĠl'heureĠ": 8377,
      "venu": 8378,
      "degrÃ©": 8379,
      "soudreĠ": 8380,
      "?Ġ(": 8381,
      "ENN": 8382,
      "120Ġ": 8383,
      "interrom": 8384,
      "interrog": 8385,
      "30ĠĊ": 8386,
      "mettantĠ": 8387,
      "ainsiĠqu'ilĠ": 8388,
      "blio": 8389,
      "garith": 8390,
      "intÃ©rÃªt": 8391,
      "bouill": 8392,
      "insist": 8393,
      "LEĠMY": 8394,
      "zĠ=Ġ": 8395,
      "partieĠdeĠlaĠ": 8396,
      "mentionĠ": 8397,
      "celuiĠduĠ": 8398,
      "procÃ¨sĠ": 8399,
      "lorsqueĠleĠ": 8400,
      "eriesĠ": 8401,
      "Bourg": 8402,
      "IVĠ": 8403,
      "GrandĠ": 8404,
      "PRIN": 8405,
      "officierĠ": 8406,
      "avril": 8407,
      "truit": 8408,
      "principalementĠ": 8409,
      "obtenusĠ": 8410,
      "Ã©tats-majorsĠ": 8411,
      "autantĠqueĠ": 8412,
      "favorableĠ": 8413,
      "assemblÃ©eĠ": 8414,
      "ÃłĠpartirĠduĠ": 8415,
      "remplirĠ": 8416,
      "Ã©preuv": 8417,
      ".ĠAinsi,Ġ": 8418,
      "dispositifĠ": 8419,
      "tÃªteĠdeĠ": 8420,
      "JocelyneĠ": 8421,
      "remarqueĠ": 8422,
      "gÃªn": 8423,
      ".A": 8424,
      "63": 8425,
      "CEĠ": 8426,
      "EllesĠ": 8427,
      "MIN": 8428,
      "gout": 8429,
      "heurĠ": 8430,
      "joi": 8431,
      "x'Ġ": 8432,
      "enfin,Ġ": 8433,
      "laĠpremiÃ¨reĠ": 8434,
      "auph": 8435,
      "etĠsurtoutĠ": 8436,
      "lesĠarmÃ©esĠ": 8437,
      "desĠs": 8438,
      "diph": 8439,
      "reprendreĠ": 8440,
      "uneĠfoisĠ": 8441,
      "Ã©tern": 8442,
      "Ã©tait,Ġ": 8443,
      ";Ġ3": 8444,
      "dansĠtousĠlesĠ": 8445,
      "amĠ": 8446,
      "pourĠsonĠ": 8447,
      "propositionĠ": 8448,
      "elleĠduĠ": 8449,
      "vifĠ": 8450,
      "ouĠbienĠ": 8451,
      "Â°ĠdeĠ": 8452,
      "portÃ©eĠ": 8453,
      "commeĠlaĠ": 8454,
      ".ĠDeuxĠ": 8455,
      "budg": 8456,
      ".ĠMeaume,Ġ": 8457,
      "ailles,Ġ": 8458,
      "micr": 8459,
      "soldesĠ": 8460,
      "relatifĠ": 8461,
      "signatureĠ": 8462,
      "supÃ©rieur": 8463,
      "c'estĠlaĠ": 8464,
      "uniqueĠ": 8465,
      "commandantĠenĠchefĠ": 8466,
      "e.ĠCesĠ": 8467,
      "missi": 8468,
      "ordreĠduĠ": 8469,
      "pÃ©rim": 8470,
      "subs": 8471,
      "outcheff": 8472,
      "finĠduĠ": 8473,
      "CIP": 8474,
      "gauch": 8475,
      "devenueĠ": 8476,
      "avrilĠ19": 8477,
      "ÃıDE": 8478,
      "au-dessousĠ": 8479,
      "britanniqueĠ": 8480,
      "dÃ©pendĠ": 8481,
      "honorairesĠ": 8482,
      "3*ĠBUREAU.ĠĊ": 8483,
      "Ã©galĠÃłĠ": 8484,
      "parĠrapportĠÃłĠ": 8485,
      ".ĠAvecĠ": 8486,
      "MATAĠ": 8487,
      "Londr": 8488,
      "Octob": 8489,
      "AuĠG.ĠQ.ĠG.,ĠleĠ": 8490,
      "./": 8491,
      "Lav": 8492,
      "MU": 8493,
      "Tun": 8494,
      "TĠĊ": 8495,
      "ball": 8496,
      "daĠ": 8497,
      "far": 8498,
      "fun": 8499,
      "sÃ©cu": 8500,
      "x.ĠĊ": 8501,
      ".ĠÃī": 8502,
      "quer": 8503,
      "qualitÃ©sĠ": 8504,
      "au,Ġ": 8505,
      "onĠvoitĠ": 8506,
      "etĠvousĠ": 8507,
      "isan": 8508,
      "e,ĠsansĠ": 8509,
      "du-": 8510,
      "dueĠ": 8511,
      "sujet": 8512,
      "divers": 8513,
      "lireĠ": 8514,
      "duĠserviceĠ": 8515,
      "rejet": 8516,
      "ateur": 8517,
      "paruĠ": 8518,
      "auĠlieuĠdeĠ": 8519,
      "amus": 8520,
      "pourĠchaqueĠ": 8521,
      "toucheĠ": 8522,
      "pasĠlesĠ": 8523,
      "fr.,Ġ": 8524,
      "Ã©esĠparĠlaĠ": 8525,
      "obÃ©": 8526,
      "Ã©galesĠ": 8527,
      "communeĠ": 8528,
      "ÃłĠl'articleĠ": 8529,
      "logarith": 8530,
      "bron": 8531,
      ".ĠSousĠ": 8532,
      "faitĠlaĠ": 8533,
      "Clau": 8534,
      "anciensĠ": 8535,
      "nâĢĻaĠ": 8536,
      "fixeĠ": 8537,
      ".ĠQuelleĠ": 8538,
      "cheval": 8539,
      "montrerĠ": 8540,
      "heuresĠduĠ": 8541,
      "Juli": 8542,
      "feuilleĠdeĠ": 8543,
      "jouiss": 8544,
      "Mathieu": 8545,
      "appliqueĠ": 8546,
      "Berlin": 8547,
      "dÃ©butĠdeĠ": 8548,
      "empress": 8549,
      "quotientĠ": 8550,
      "agentsĠdeĠchang": 8551,
      "reconnaissanceĠ": 8552,
      "interventionĠ": 8553,
      "LAÃıDE": 8554,
      "espaceĠ": 8555,
      "LESĠGAITÃīSĠDEĠL'ESCADRONĠĊ": 8556,
      "chefĠd'Ã©tat-maj": 8557,
      "PourquoiĠ": 8558,
      "OUSSER": 8559,
      "ChÃ¢lons-sur-Marne,Ġ": 8560,
      "contactĠ": 8561,
      "Bordeaux,ĠGirond": 8562,
      "Jura": 8563,
      "Obroutcheff": 8564,
      "critĠetĠreprod": 8565,
      "(A": 8566,
      "250": 8567,
      "7.ĠâĢĶĠ": 8568,
      "Bru": 8569,
      "COU": 8570,
      "PÃ¨reĠ": 8571,
      "besĠ": 8572,
      "boÃ®": 8573,
      "caiss": 8574,
      "d.Ġ": 8575,
      "rembour": 8576,
      "tellementĠ": 8577,
      "vor": 8578,
      "voisĠ": 8579,
      "yp": 8580,
      "euseĠdeĠ": 8581,
      "e,ĠdesĠ": 8582,
      "e,ĠcommeĠ": 8583,
      "erĠĊ": 8584,
      "enĠfaceĠ": 8585,
      "construi": 8586,
      "aitĠd'": 8587,
      "dÃ©mentĠ": 8588,
      "onsĠetĠ": 8589,
      "lux": 8590,
      ".Ġ10Ġ": 8591,
      "aireĠetĠ": 8592,
      "op.Ġ": 8593,
      "permisĠdeĠ": 8594,
      "astr": 8595,
      "Ã©rieure": 8596,
      "SĠC": 8597,
      "aientĠdeĠ": 8598,
      "aisseĠdeĠ": 8599,
      "coli": 8600,
      "Ã¢mesĠ": 8601,
      "commeĠdesĠ": 8602,
      "Chef": 8603,
      "devr": 8604,
      "eau.ĠĊ": 8605,
      "contratĠ": 8606,
      "culairesĠ": 8607,
      "marchÃ©": 8608,
      "coupsĠdeĠ": 8609,
      "remon": 8610,
      "pouvoirsĠ": 8611,
      "arriver": 8612,
      "casĠd'": 8613,
      "organismeĠ": 8614,
      "rÃ©pond": 8615,
      "ayantĠpourĠ": 8616,
      "Grand": 8617,
      "dessou": 8618,
      "queĠjeĠvousĠ": 8619,
      "rienĠdeĠ": 8620,
      "faÃ§onĠÃłĠ": 8621,
      "MonsieurĠ": 8622,
      "semblableĠ": 8623,
      "exploi": 8624,
      "AnnexeĠnÂ°Ġ10": 8625,
      "sentimentsĠ": 8626,
      "Ã©vÃªquesĠ": 8627,
      "meilleur": 8628,
      "LÃ©on": 8629,
      "SociÃ©tÃ©ĠdeĠ": 8630,
      "profondeurĠ": 8631,
      "bassinĠ": 8632,
      "ci-aprÃ¨sĠ": 8633,
      "Jocelyn": 8634,
      "magistratsĠ": 8635,
      "marchÃ©ĠduĠtravail": 8636,
      "kilomÃ¨tresĠ": 8637,
      "dÃ©duitĠ": 8638,
      "front.ĠĊ": 8639,
      "Abb": 8640,
      "HistoireĠ": 8641,
      "ComitÃ©ĠNationalĠ": 8642,
      "mÃ©rit": 8643,
      "extraordin": 8644,
      "Ã©chelonn": 8645,
      "Puy-de-DÃ´me.Ġ": 8646,
      "absorb": 8647,
      "QuelquesĠ": 8648,
      "pernay,ĠÃłĠ": 8649,
      "FRICOT": 8650,
      "PRINCIP": 8651,
      "!...Ġ": 8652,
      "72Ġ": 8653,
      "76Ġ": 8654,
      "FOR": 8655,
      "M.ĠL": 8656,
      "a;Ġ": 8657,
      "faisĠ": 8658,
      "menteĠ": 8659,
      "soir,Ġ": 8660,
      "sĠ(": 8661,
      "Ã©min": 8662,
      ".ĠQueĠ": 8663,
      "laĠsituationĠ": 8664,
      "duĠmÃªmeĠ": 8665,
      "Ã©ritÃ©Ġ": 8666,
      "enthou": 8667,
      "estĠin": 8668,
      "estĠl'": 8669,
      "Ã©th": 8670,
      "ementĠÃłĠ": 8671,
      ":ĠlâĢĻ": 8672,
      ":ĠÂ«": 8673,
      "amiti": 8674,
      "pasĠunĠ": 8675,
      "ouĠtroisĠ": 8676,
      "Â°ĠĊ": 8677,
      "Ã©esĠÃłĠlaĠ": 8678,
      "stabil": 8679,
      "ennes,Ġ": 8680,
      "venduĠ": 8681,
      "cern": 8682,
      "Arch": 8683,
      "aÃ®neĠ": 8684,
      "15ĠĊ": 8685,
      "toutesĠcesĠ": 8686,
      "nonĠplusĠ": 8687,
      "ancesĠdeĠ": 8688,
      "inscritĠ": 8689,
      "Ã©difi": 8690,
      "1.0": 8691,
      "routesĠ": 8692,
      "livraisonsĠ": 8693,
      "mouvementĠdeĠ": 8694,
      "x,Ġy,Ġ": 8695,
      "rigour": 8696,
      "siÃ¨cl": 8697,
      "figurentĠ": 8698,
      "tÃ©lÃ©grammeĠ": 8699,
      "ressembl": 8700,
      "contre-attaquesĠ": 8701,
      "rayonsĠ": 8702,
      "pÃ©ni": 8703,
      "souri": 8704,
      "soinĠ": 8705,
      "Allemagne,Ġ": 8706,
      "brancheĠ": 8707,
      "UnionsĠChrÃ©tienn": 8708,
      "AinsiĠ": 8709,
      "diplomati": 8710,
      "procÃ¨s-": 8711,
      "e)ĠetĠfam.,ĠdeĠReims,ĠÃłĠ": 8712,
      "ceux-ciĠ": 8713,
      "fraÃ®ch": 8714,
      "cÃ©lÃ¨": 8715,
      "InstructionĠ": 8716,
      "Clermont-": 8717,
      "3.000Ġ": 8718,
      "63Ġ": 8719,
      "7;Ġ": 8720,
      "A,Ġ": 8721,
      "Avi": 8722,
      "Bat": 8723,
      "Cr": 8724,
      "Can": 8725,
      "Mos": 8726,
      "NO": 8727,
      "Pal": 8728,
      "Pas": 8729,
      "Pisan": 8730,
      "cabin": 8731,
      "dot": 8732,
      "f.": 8733,
      "fan": 8734,
      "gent": 8735,
      "gÃ¨n": 8736,
      "mann": 8737,
      "oil": 8738,
      "stu": 8739,
      "tigeĠ": 8740,
      "aimeĠ": 8741,
      "entĠauxĠ": 8742,
      "lesĠopÃ©rationsĠ": 8743,
      "chaud": 8744,
      "Ã¨nesĠ": 8745,
      "Ã©ĠdeĠl'": 8746,
      "teĠdeĠlaĠ": 8747,
      "dÃ©mo": 8748,
      "ilĠenĠ": 8749,
      "e.ĠIlsĠ": 8750,
      "ecclÃ©si": 8751,
      "civ": 8752,
      ":ĠLaĠ": 8753,
      "ambi": 8754,
      "pourĠleurĠ": 8755,
      "programmeĠ": 8756,
      "viendraĠ": 8757,
      "t,ĠleĠ": 8758,
      "forÃªtsĠ": 8759,
      "e-t-ilĠ": 8760,
      "intemp": 8761,
      "vendĠ": 8762,
      "cercl": 8763,
      "brok": 8764,
      "enceĠdesĠ": 8765,
      ".ĠIlĠseĠ": 8766,
      "?ĠÂ»Ġ": 8767,
      "Arr": 8768,
      "Art": 8769,
      "signesĠ": 8770,
      "indicesĠ": 8771,
      "sortirĠ": 8772,
      "avantĠl'": 8773,
      ".ĠVoirĠ": 8774,
      "commandantĠleĠ": 8775,
      "constanteĠ": 8776,
      "VIEĠĊ": 8777,
      "beaucoup": 8778,
      "politiquesĠ": 8779,
      "francsĠdeĠ": 8780,
      "hyl": 8781,
      "IV,Ġ": 8782,
      "actuelĠ": 8783,
      "totalitÃ©Ġ": 8784,
      "dÃ©clarationĠ": 8785,
      "stric": 8786,
      "5,Ġin-4Â°": 8787,
      "localĠ": 8788,
      "homme,Ġ": 8789,
      "Vienn": 8790,
      "gÃ©nÃ©ralĠcommandantĠlaĠ": 8791,
      "Seign": 8792,
      "bordure": 8793,
      "rangĠ": 8794,
      "profondeĠ": 8795,
      "l'objetĠ": 8796,
      "bombardementĠ": 8797,
      "dansĠlaĠmargeĠsup.,Ġ": 8798,
      "yndicatĠ": 8799,
      "MATAĠHAR": 8800,
      "enthousi": 8801,
      "72": 8802,
      "As": 8803,
      "C.ĠS": 8804,
      "Fre": 8805,
      "Jus": 8806,
      "M.ĠH": 8807,
      "N'": 8808,
      "OCU": 8809,
      "Odil": 8810,
      "SÃīR": 8811,
      "cesseĠ": 8812,
      "eaitĠ": 8813,
      "fasseĠ": 8814,
      "iesĠdeĠ": 8815,
      "nes,Ġ": 8816,
      "ros": 8817,
      "saisĠ": 8818,
      "aĠdesĠ": 8819,
      "leĠfrontĠ": 8820,
      "onĠenĠ": 8821,
      "libr": 8822,
      "dÃ©partĠ": 8823,
      "rÃ©,Ġ": 8824,
      "rÃ©fÃ©r": 8825,
      "rÃ©seauĠ": 8826,
      "treĠdeĠ": 8827,
      "uneĠautreĠ": 8828,
      "accompl": 8829,
      "actif": 8830,
      "accompli": 8831,
      "auĠfondĠ": 8832,
      "Ã©eĠpourĠ": 8833,
      "elleĠseĠ": 8834,
      "fr.Ġ": 8835,
      "s'ilsĠ": 8836,
      "dâĢĻaprÃ¨sĠ": 8837,
      "embarr": 8838,
      "ezĠlesĠ": 8839,
      "annonc": 8840,
      "ER,Ġ": 8841,
      "ules": 8842,
      "solenn": 8843,
      "\"ĠarmÃ©": 8844,
      "ott": 8845,
      "voir,Ġ": 8846,
      "c'estĠleĠ": 8847,
      "pouvoir": 8848,
      "primi": 8849,
      "lisiÃ¨resĠ": 8850,
      "livrais": 8851,
      "exÃ©cuterĠ": 8852,
      "nÃ©cessaire,Ġ": 8853,
      "parlerĠ": 8854,
      "LESĠB": 8855,
      "cellesĠquiĠ": 8856,
      "dÃ©sirĠ": 8857,
      "G.ĠA.ĠR.Ġ": 8858,
      "libreĠ": 8859,
      "vitesseĠ": 8860,
      "batterieĠ": 8861,
      "rÃ©gimentsĠ": 8862,
      "typh": 8863,
      "scienti": 8864,
      "absolueĠ": 8865,
      "matin,Ġ": 8866,
      "recherchesĠ": 8867,
      "supplÃ©ment": 8868,
      "BanqueĠdeĠ": 8869,
      "hameÃ§onĠ": 8870,
      "surveillanceĠ": 8871,
      ".ĠExempl": 8872,
      "automob": 8873,
      "philos": 8874,
      "DepuisĠ": 8875,
      "superfici": 8876,
      ".ĠCâĢĻestĠ": 8877,
      "vigueurĠ": 8878,
      "SYPH": 8879,
      "dimensionsĠ": 8880,
      ")ĠBrevetĠ": 8881,
      "quelques-un": 8882,
      "'.": 8883,
      "93": 8884,
      "=ĠĊ": 8885,
      "Hau": 8886,
      "ISĠ": 8887,
      "TrÃ©": 8888,
      "Toute": 8889,
      "fili": 8890,
      "massi": 8891,
      "pÃ©": 8892,
      "sens": 8893,
      "verĠ": 8894,
      "yr": 8895,
      "eĠd'": 8896,
      ".Ġ5Ġ": 8897,
      "anneĠ": 8898,
      "laĠFranceĠ": 8899,
      "iso": 8900,
      "reten": 8901,
      "antĠd'": 8902,
      "neĠpouvaitĠ": 8903,
      "pareilleĠ": 8904,
      "agon": 8905,
      "abaiss": 8906,
      "ains,Ġ": 8907,
      "proj": 8908,
      "impli": 8909,
      "2ĠetĠ": 8910,
      "2ĠNoteĠduĠS.ĠH": 8911,
      ".ĠâĢĶĠEnĠ": 8912,
      "19ĠĊ": 8913,
      "deĠl'artillerieĠ": 8914,
      "3ĠetĠ": 8915,
      "dre,Ġ": 8916,
      ".Ġ13": 8917,
      "obst": 8918,
      "tensionĠ": 8919,
      "vousĠavezĠ": 8920,
      "gÃ©nieĠ": 8921,
      "II,Ġ": 8922,
      "Ã©lasti": 8923,
      "nousĠl'": 8924,
      "umÃ©r": 8925,
      "ellesĠetĠ": 8926,
      "position": 8927,
      "entrerĠ": 8928,
      "emploieĠ": 8929,
      "ent,ĠenĠ": 8930,
      "sectionsĠ": 8931,
      "mettr": 8932,
      "ature": 8933,
      "ÅĵilĠ": 8934,
      "ALY": 8935,
      "mĠâĢĶĠ": 8936,
      "coursĠd'": 8937,
      "ouvertĠ": 8938,
      "touteĠl'": 8939,
      "itÃ©sĠdeĠ": 8940,
      "11ĠĊ": 8941,
      "axesĠ": 8942,
      "oniqueĠ": 8943,
      "flanc": 8944,
      "lÃ©gerĠ": 8945,
      "partieĠdesĠ": 8946,
      "DansĠleĠ": 8947,
      "nÃ©cessairementĠ": 8948,
      "gravesĠ": 8949,
      "Ã©trangersĠ": 8950,
      "avantagesĠ": 8951,
      "administrationĠ": 8952,
      "hosti": 8953,
      "mercureĠ": 8954,
      "partag": 8955,
      "reportsĠ": 8956,
      "moisĠd'": 8957,
      "restentĠ": 8958,
      "fig.,Ġ": 8959,
      "contributionsĠdirec": 8960,
      "marsĠ192": 8961,
      "meilleursĠ": 8962,
      "revenuĠ": 8963,
      "riviÃ¨resĠ": 8964,
      "syphiliti": 8965,
      "scienceĠ": 8966,
      "sympt": 8967,
      "prÃ©cisÃ©mentĠ": 8968,
      ".Ġ3ĠeĠÃ©tatĠ:Ġ": 8969,
      "(3)Ġ": 8970,
      "celles-": 8971,
      "tuberculosesĠ": 8972,
      "taxesĠ": 8973,
      "etĠsuiv.ĠĊ": 8974,
      "marchÃ©ĠÃłĠtermeĠ": 8975,
      "DÃ©cembreĠ": 8976,
      "ChÃ¢teau-": 8977,
      "commandeĠlaĠ": 8978,
      "blessuresĠ": 8979,
      "Louvre,Ġ": 8980,
      "AmbassadeurĠdeĠ": 8981,
      "Ã©pisco": 8982,
      "ARITHMÃī": 8983,
      "Cotter": 8984,
      "sÃ©cur": 8985,
      "critĠetĠreprod.,Ġ": 8986,
      "(N": 8987,
      "69Ġ": 8988,
      "EauĠ": 8989,
      "MP": 8990,
      "Non,Ġ": 8991,
      "faut": 8992,
      "l,Ġ": 8993,
      "Ãĭ": 8994,
      "Ã©e": 8995,
      "tĠĊ": 8996,
      "en.ĠĊ": 8997,
      "queu": 8998,
      "quali": 8999,
      "escal": 9000,
      "leĠjourĠ": 9001,
      "trist": 9002,
      "etĠdem": 9003,
      "ÃłĠParisĠ": 9004,
      "dir": 9005,
      "d'ÃītatĠ": 9006,
      "revientĠ": 9007,
      "rÃ©n": 9008,
      "itaill": 9009,
      "seĠprÃ©sent": 9010,
      "atairesĠ": 9011,
      "compriseĠ": 9012,
      "e.ĠUneĠ": 9013,
      "qu'ÃłĠlaĠ": 9014,
      "terti": 9015,
      "3Ġ;Ġ": 9016,
      "ouĠmÃªmeĠ": 9017,
      "noy": 9018,
      "IIĠĊ": 9019,
      "cotis": 9020,
      "posonsĠ": 9021,
      "qu'ilĠsoitĠ": 9022,
      "cependant,Ġ": 9023,
      "contraire,Ġ": 9024,
      "QuiĠ": 9025,
      "interdictionĠ": 9026,
      "Const": 9027,
      "Constitu": 9028,
      "formationĠ": 9029,
      "(1),Ġ": 9030,
      "infl": 9031,
      "Alex": 9032,
      "dÃ©fendreĠ": 9033,
      "prÃ©cÃ¨": 9034,
      "simul": 9035,
      "prenantĠ": 9036,
      "troph": 9037,
      "moyenn": 9038,
      "celuiĠdeĠlaĠ": 9039,
      "IST": 9040,
      "doig": 9041,
      "Ã¯Ġ": 9042,
      ".ĠDansĠlesĠ": 9043,
      "registreĠ": 9044,
      "jugesĠ": 9045,
      "Ã©pin": 9046,
      "EntreĠ": 9047,
      "feuill": 9048,
      "progrÃ¨sĠ": 9049,
      "effectifsĠ": 9050,
      "respectivementĠ": 9051,
      "munici": 9052,
      "ToulouseĠ": 9053,
      "Ordre.ĠĊ": 9054,
      "CLER": 9055,
      "MinistreĠdeĠlaĠGu": 9056,
      "phÃ©nomÃ¨neĠ": 9057,
      "enthousias": 9058,
      "(G": 9059,
      "217": 9060,
      "6Ġ1": 9061,
      "74Ġ": 9062,
      "9.ĠâĢĶĠ": 9063,
      "BÃ©n": 9064,
      "CetĠ": 9065,
      "Est": 9066,
      "Moul": 9067,
      "MES": 9068,
      "MOUSSER": 9069,
      "V.Ġ": 9070,
      "]ĠĊ": 9071,
      "deff": 9072,
      "non,Ġ": 9073,
      "pin": 9074,
      "san": 9075,
      "sanc": 9076,
      "tauxĠdeĠ": 9077,
      "eĠARMÃīE.ĠĊ": 9078,
      "deĠV": 9079,
      "quetĠ": 9080,
      "estin": 9081,
      "Ã¨ch": 9082,
      "past": 9083,
      "teĠlaĠ": 9084,
      "enĠluiĠ": 9085,
      "conti": 9086,
      "avant,Ġ": 9087,
      "entou": 9088,
      "reprisĠ": 9089,
      ":ĠunĠ": 9090,
      "gren": 9091,
      "vivreĠ": 9092,
      "ouĠuneĠ": 9093,
      "ÃłĠlaĠmoucheĠartifici": 9094,
      "crati": 9095,
      "jours.ĠĊ": 9096,
      "carp": 9097,
      "entreĠl'": 9098,
      "dansĠlaĠzoneĠ": 9099,
      "devraitĠ": 9100,
      "d'uneĠpart,Ġ": 9101,
      "soudeĠ": 9102,
      "ESĠDEĠ": 9103,
      "10,Ġ": 9104,
      "OnĠpeutĠ": 9105,
      "120": 9106,
      "suivantĠlaĠ": 9107,
      ",ĠetĠÃłĠdr.Ġ:Ġ": 9108,
      "ouvertureĠ": 9109,
      ".ĠOnĠpeutĠ": 9110,
      "TIONĠ": 9111,
      "direct": 9112,
      "simpli": 9113,
      "grammes.ĠĊ": 9114,
      "Q.ĠG.ĠA": 9115,
      "conditions,Ġ": 9116,
      "null": 9117,
      "jugementĠ": 9118,
      "ÃĪR": 9119,
      "chargesĠ": 9120,
      "totalĠdesĠ": 9121,
      "pÃªcheurĠ": 9122,
      "allemandesĠ": 9123,
      "cardinalĠMathieuĠ": 9124,
      "jeuneĠfemmeĠ": 9125,
      "rÃ©duireĠ": 9126,
      "principaleĠ": 9127,
      "Ã©poque,Ġ": 9128,
      "soinsĠ": 9129,
      "OrdreĠparticulierĠ": 9130,
      "PLAN": 9131,
      "communicationsĠ": 9132,
      "CompteĠrendu": 9133,
      "roupies.ĠĊ": 9134,
      "LivresĠ": 9135,
      "(1).ĠÂ»ĠĊ": 9136,
      "Dose.ĠâĢĶĠ": 9137,
[...]
